{
  "vocab": {
    "<pad>": 0,
    "<unk>": 1,
    "<bos>": 2,
    "<eos>": 3,
    "<sep>": 4,
    " ": 5,
    "\"": 6,
    "\".</w>": 7,
    "\"A": 8,
    "\"Average</w>": 9,
    "\"Co": 10,
    "\"Coul": 11,
    "\"Could</w>": 12,
    "\"E": 13,
    "\"Ex": 14,
    "\"Excell": 15,
    "\"Excellen": 16,
    "\"Excellent</w>": 17,
    "\"G": 18,
    "\"Good</w>": 19,
    "\"Not</w>": 20,
    "\"V": 21,
    "\"Ver": 22,
    "\"Very</w>": 23,
    "'": 24,
    "'.</w>": 25,
    "'Book": 26,
    "'Booked'.</w>": 27,
    "'Booked':</w>": 28,
    "'Booked'?</w>": 29,
    "'Cancell": 30,
    "'Cancelled'</w>": 31,
    "'Clos": 32,
    "'Closed'.</w>": 33,
    "'Closed':</w>": 34,
    "'Closed'?</w>": 35,
    "'Comple": 36,
    "'Complet": 37,
    "'Completed'</w>": 38,
    "'Contac": 39,
    "'Contact": 40,
    "'Contacted'.</w>": 41,
    "'Contacted':</w>": 42,
    "'Contacted'?</w>": 43,
    "'New</w>": 44,
    "'No</w>": 45,
    "'Scheduled": 46,
    "'Scheduled'</w>": 47,
    "'Test</w>": 48,
    "'s</w>": 49,
    "'t</w>": 50,
    "(": 51,
    "(22</w>": 52,
    "(25</w>": 53,
    "(31</w>": 54,
    "(Anany": 55,
    "(Ananya": 56,
    "(Ananya):</w>": 57,
    "(Ananya)</w>": 58,
    "(Arjun": 59,
    "(Arjun):</w>": 60,
    "(Arjun)</w>": 61,
    "(Divy": 62,
    "(Divya):</w>": 63,
    "(Divya)</w>": 64,
    "(ENQ0": 65,
    "(ENQ00": 66,
    "(ENQ001)</w>": 67,
    "(ENQ001,</w>": 68,
    "(ENQ002)</w>": 69,
    "(ENQ002,</w>": 70,
    "(ENQ003)</w>": 71,
    "(ENQ003,</w>": 72,
    "(ENQ004)</w>": 73,
    "(ENQ004,</w>": 74,
    "(ENQ005)</w>": 75,
    "(ENQ005,</w>": 76,
    "(ENQ006)</w>": 77,
    "(ENQ006,</w>": 78,
    "(ENQ007)</w>": 79,
    "(ENQ007,</w>": 80,
    "(ENQ008)</w>": 81,
    "(ENQ008,</w>": 82,
    "(ENQ009)</w>": 83,
    "(ENQ009,</w>": 84,
    "(ENQ01": 85,
    "(ENQ010": 86,
    "(ENQ010)</w>": 87,
    "(ENQ010,</w>": 88,
    "(ENQ011": 89,
    "(ENQ011)</w>": 90,
    "(ENQ011,</w>": 91,
    "(ENQ012)</w>": 92,
    "(ENQ012,</w>": 93,
    "(ENQ013": 94,
    "(ENQ013)</w>": 95,
    "(ENQ013,</w>": 96,
    "(ENQ014": 97,
    "(ENQ014)</w>": 98,
    "(ENQ014,</w>": 99,
    "(ENQ015": 100,
    "(ENQ015)</w>": 101,
    "(ENQ015,</w>": 102,
    "(ENQ016": 103,
    "(ENQ016)</w>": 104,
    "(ENQ016,</w>": 105,
    "(ENQ017": 106,
    "(ENQ017)</w>": 107,
    "(ENQ017,</w>": 108,
    "(ENQ018": 109,
    "(ENQ018)</w>": 110,
    "(ENQ018,</w>": 111,
    "(ENQ019)</w>": 112,
    "(ENQ019,</w>": 113,
    "(ENQ02": 114,
    "(ENQ020)</w>": 115,
    "(ENQ020,</w>": 116,
    "(ENQ021)</w>": 117,
    "(ENQ021,</w>": 118,
    "(ENQ022)</w>": 119,
    "(ENQ022,</w>": 120,
    "(ENQ023)</w>": 121,
    "(ENQ023,</w>": 122,
    "(ENQ024)</w>": 123,
    "(ENQ024,</w>": 124,
    "(ENQ025)</w>": 125,
    "(ENQ025,</w>": 126,
    "(ENQ026)</w>": 127,
    "(ENQ026,</w>": 128,
    "(ENQ027)</w>": 129,
    "(ENQ027,</w>": 130,
    "(ENQ028)</w>": 131,
    "(ENQ028,</w>": 132,
    "(ENQ029)</w>": 133,
    "(ENQ029,</w>": 134,
    "(ENQ03": 135,
    "(ENQ030": 136,
    "(ENQ030)</w>": 137,
    "(ENQ030,</w>": 138,
    "(ENQ031)</w>": 139,
    "(ENQ031,</w>": 140,
    "(ENQ032)</w>": 141,
    "(ENQ032,</w>": 142,
    "(ENQ033)</w>": 143,
    "(ENQ033,</w>": 144,
    "(ENQ034)</w>": 145,
    "(ENQ034,</w>": 146,
    "(ENQ035)</w>": 147,
    "(ENQ035,</w>": 148,
    "(ENQ036)</w>": 149,
    "(ENQ036,</w>": 150,
    "(ENQ037)</w>": 151,
    "(ENQ037,</w>": 152,
    "(ENQ038)</w>": 153,
    "(ENQ038,</w>": 154,
    "(ENQ039)</w>": 155,
    "(ENQ039,</w>": 156,
    "(ENQ04": 157,
    "(ENQ040)</w>": 158,
    "(ENQ040,</w>": 159,
    "(ENQ041)</w>": 160,
    "(ENQ041,</w>": 161,
    "(ENQ042)</w>": 162,
    "(ENQ042,</w>": 163,
    "(ENQ043)</w>": 164,
    "(ENQ043,</w>": 165,
    "(ENQ044)</w>": 166,
    "(ENQ044,</w>": 167,
    "(ENQ045)</w>": 168,
    "(ENQ045,</w>": 169,
    "(ENQ046)</w>": 170,
    "(ENQ046,</w>": 171,
    "(ENQ047)</w>": 172,
    "(ENQ047,</w>": 173,
    "(ENQ048)</w>": 174,
    "(ENQ048,</w>": 175,
    "(ENQ049)</w>": 176,
    "(ENQ049,</w>": 177,
    "(ENQ05": 178,
    "(ENQ050)</w>": 179,
    "(ENQ050,</w>": 180,
    "(ENQ051)</w>": 181,
    "(ENQ051,</w>": 182,
    "(ENQ052)</w>": 183,
    "(ENQ052,</w>": 184,
    "(ENQ053)</w>": 185,
    "(ENQ053,</w>": 186,
    "(ENQ054)</w>": 187,
    "(ENQ054,</w>": 188,
    "(ENQ055)</w>": 189,
    "(ENQ055,</w>": 190,
    "(ENQ056)</w>": 191,
    "(ENQ056,</w>": 192,
    "(ENQ057)</w>": 193,
    "(ENQ057,</w>": 194,
    "(ENQ058)</w>": 195,
    "(ENQ058,</w>": 196,
    "(ENQ059)</w>": 197,
    "(ENQ059,</w>": 198,
    "(ENQ06": 199,
    "(ENQ060)</w>": 200,
    "(ENQ060,</w>": 201,
    "(ENQ061)</w>": 202,
    "(ENQ061,</w>": 203,
    "(ENQ062)</w>": 204,
    "(ENQ062,</w>": 205,
    "(ENQ063)</w>": 206,
    "(ENQ063,</w>": 207,
    "(ENQ064)</w>": 208,
    "(ENQ064,</w>": 209,
    "(ENQ065)</w>": 210,
    "(ENQ065,</w>": 211,
    "(ENQ066)</w>": 212,
    "(ENQ066,</w>": 213,
    "(ENQ067)</w>": 214,
    "(ENQ067,</w>": 215,
    "(ENQ068)</w>": 216,
    "(ENQ068,</w>": 217,
    "(ENQ069)</w>": 218,
    "(ENQ069,</w>": 219,
    "(ENQ07": 220,
    "(ENQ070)</w>": 221,
    "(ENQ070,</w>": 222,
    "(ENQ071)</w>": 223,
    "(ENQ071,</w>": 224,
    "(ENQ072)</w>": 225,
    "(ENQ072,</w>": 226,
    "(ENQ073)</w>": 227,
    "(ENQ073,</w>": 228,
    "(ENQ074)</w>": 229,
    "(ENQ074,</w>": 230,
    "(ENQ075)</w>": 231,
    "(ENQ075,</w>": 232,
    "(ENQ076)</w>": 233,
    "(ENQ076,</w>": 234,
    "(ENQ077)</w>": 235,
    "(ENQ077,</w>": 236,
    "(ENQ078)</w>": 237,
    "(ENQ078,</w>": 238,
    "(ENQ079)</w>": 239,
    "(ENQ079,</w>": 240,
    "(ENQ08": 241,
    "(ENQ080)</w>": 242,
    "(ENQ080,</w>": 243,
    "(ENQ081)</w>": 244,
    "(ENQ081,</w>": 245,
    "(ENQ082)</w>": 246,
    "(ENQ082,</w>": 247,
    "(ENQ083)</w>": 248,
    "(ENQ083,</w>": 249,
    "(ENQ084)</w>": 250,
    "(ENQ084,</w>": 251,
    "(ENQ085)</w>": 252,
    "(ENQ085,</w>": 253,
    "(ENQ086)</w>": 254,
    "(ENQ086,</w>": 255,
    "(ENQ087)</w>": 256,
    "(ENQ087,</w>": 257,
    "(ENQ088)</w>": 258,
    "(ENQ088,</w>": 259,
    "(ENQ089)</w>": 260,
    "(ENQ089,</w>": 261,
    "(ENQ09": 262,
    "(ENQ090)</w>": 263,
    "(ENQ090,</w>": 264,
    "(ENQ091)</w>": 265,
    "(ENQ091,</w>": 266,
    "(ENQ092": 267,
    "(ENQ092)</w>": 268,
    "(ENQ092,</w>": 269,
    "(ENQ093": 270,
    "(ENQ093)</w>": 271,
    "(ENQ093,</w>": 272,
    "(ENQ094": 273,
    "(ENQ094)</w>": 274,
    "(ENQ094,</w>": 275,
    "(ENQ095": 276,
    "(ENQ095)</w>": 277,
    "(ENQ095,</w>": 278,
    "(ENQ096)</w>": 279,
    "(ENQ096,</w>": 280,
    "(ENQ097": 281,
    "(ENQ097)</w>": 282,
    "(ENQ097,</w>": 283,
    "(ENQ098": 284,
    "(ENQ098)</w>": 285,
    "(ENQ098,</w>": 286,
    "(ENQ099)</w>": 287,
    "(ENQ099,</w>": 288,
    "(ENQ100)</w>": 289,
    "(ENQ100,</w>": 290,
    "(Enquiry</w>": 291,
    "(Honda</w>": 292,
    "(Hyundai</w>": 293,
    "(I": 294,
    "(ID:</w>": 295,
    "(ID</w>": 296,
    "(Karthik": 297,
    "(Karthik):</w>": 298,
    "(Karthik)</w>": 299,
    "(Kia</w>": 300,
    "(Maruti</w>": 301,
    "(Meer": 302,
    "(Meera):</w>": 303,
    "(Meera)</w>": 304,
    "(Ravi": 305,
    "(Ravi):</w>": 306,
    "(Ravi)</w>": 307,
    "(Sneha": 308,
    "(Sneha):</w>": 309,
    "(Sneha)</w>": 310,
    "(Tata</w>": 311,
    "(Vikram": 312,
    "(Vikram):</w>": 313,
    "(Vikram)</w>": 314,
    "(a": 315,
    "(and</w>": 316,
    "(averag": 317,
    "(average": 318,
    "(average).</w>": 319,
    "(di": 320,
    "(dis": 321,
    "(dissatisfied).</w>": 322,
    "(enquiry</w>": 323,
    "(s": 324,
    "(satisfied).</w>": 325,
    "(≤": 326,
    "(≤2": 327,
    "(≤2/": 328,
    "(≤2/5):</w>": 329,
    "(≥": 330,
    "(≥4/": 331,
    "(≥4/5):</w>": 332,
    ")": 333,
    ").</w>": 334,
    "):</w>": 335,
    ",": 336,
    "-": 337,
    ".": 338,
    "/": 339,
    "/1": 340,
    "/2": 341,
    "/20": 342,
    "/20/2026.</w>": 343,
    "/20/2026</w>": 344,
    "/202": 345,
    "/2026.</w>": 346,
    "/2026</w>": 347,
    "/5.</w>": 348,
    "/5</w>": 349,
    "0": 350,
    "0).</w>": 351,
    "0):</w>": 352,
    "0)</w>": 353,
    "0,</w>": 354,
    "0.</w>": 355,
    "023": 356,
    "0:</w>": 357,
    "0?</w>": 358,
    "0@example.com.</w>": 359,
    "0@example.com</w>": 360,
    "1": 361,
    "1).</w>": 362,
    "1):</w>": 363,
    "1)</w>": 364,
    "1,</w>": 365,
    "1.</w>": 366,
    "1/2026.</w>": 367,
    "1/2026</w>": 368,
    "1/5.</w>": 369,
    "1/5</w>": 370,
    "10": 371,
    "10,</w>": 372,
    "100</w>": 373,
    "10:00,</w>": 374,
    "10:00.</w>": 375,
    "10:00</w>": 376,
    "10:30,</w>": 377,
    "10:30.</w>": 378,
    "10:30</w>": 379,
    "10</w>": 380,
    "11": 381,
    "11:00,</w>": 382,
    "11:00.</w>": 383,
    "11:00</w>": 384,
    "11:30,</w>": 385,
    "11:30.</w>": 386,
    "11:30</w>": 387,
    "11</w>": 388,
    "12": 389,
    "12,</w>": 390,
    "12.</w>": 391,
    "12:00,</w>": 392,
    "12:00.</w>": 393,
    "12:00</w>": 394,
    "12:30,</w>": 395,
    "12:30.</w>": 396,
    "12:30</w>": 397,
    "12</w>": 398,
    "13": 399,
    "13:00,</w>": 400,
    "13:00.</w>": 401,
    "13:00</w>": 402,
    "13:30,</w>": 403,
    "13:30.</w>": 404,
    "13:30</w>": 405,
    "13</w>": 406,
    "14": 407,
    "148": 408,
    "14:00,</w>": 409,
    "14:00.</w>": 410,
    "14:00</w>": 411,
    "14:30,</w>": 412,
    "14:30.</w>": 413,
    "14:30</w>": 414,
    "14</w>": 415,
    "15": 416,
    "15:00,</w>": 417,
    "15:00.</w>": 418,
    "15:00</w>": 419,
    "15:30,</w>": 420,
    "15:30.</w>": 421,
    "15:30</w>": 422,
    "15</w>": 423,
    "16": 424,
    "16:00,</w>": 425,
    "16:00.</w>": 426,
    "16:00</w>": 427,
    "16:30,</w>": 428,
    "16:30.</w>": 429,
    "16:30</w>": 430,
    "16</w>": 431,
    "17": 432,
    "170": 433,
    "172": 434,
    "17:00,</w>": 435,
    "17:00.</w>": 436,
    "17:00</w>": 437,
    "17:30,</w>": 438,
    "17:30.</w>": 439,
    "17:30</w>": 440,
    "17</w>": 441,
    "18": 442,
    "183": 443,
    "184</w>": 444,
    "18:00,</w>": 445,
    "18:00.</w>": 446,
    "18:00</w>": 447,
    "18:30,</w>": 448,
    "18:30.</w>": 449,
    "18:30</w>": 450,
    "18</w>": 451,
    "19": 452,
    "1911": 453,
    "19</w>": 454,
    "1:</w>": 455,
    "1?</w>": 456,
    "1@example.com.</w>": 457,
    "1@example.com</w>": 458,
    "2": 459,
    "2).</w>": 460,
    "2):</w>": 461,
    "2)</w>": 462,
    "2,</w>": 463,
    "2.</w>": 464,
    "2/5.</w>": 465,
    "2/5</w>": 466,
    "20": 467,
    "206": 468,
    "20</w>": 469,
    "215": 470,
    "21</w>": 471,
    "22": 472,
    "222": 473,
    "22</w>": 474,
    "23": 475,
    "23</w>": 476,
    "25": 477,
    "25</w>": 478,
    "26</w>": 479,
    "294": 480,
    "2:</w>": 481,
    "2?</w>": 482,
    "2@example.com.</w>": 483,
    "2@example.com</w>": 484,
    "3": 485,
    "3).</w>": 486,
    "3):</w>": 487,
    "3)</w>": 488,
    "3,</w>": 489,
    "3.": 490,
    "3.13": 491,
    "3.13/5</w>": 492,
    "3.</w>": 493,
    "3/": 494,
    "3/1": 495,
    "3/17/2026.</w>": 496,
    "3/17/2026</w>": 497,
    "3/18/2026.</w>": 498,
    "3/18/2026</w>": 499,
    "3/19/2026.</w>": 500,
    "3/19/2026</w>": 501,
    "3/2": 502,
    "3/20/2026.</w>": 503,
    "3/20/2026</w>": 504,
    "3/2026.</w>": 505,
    "3/2026</w>": 506,
    "3/21/2026.</w>": 507,
    "3/21/2026</w>": 508,
    "3/23/2026.</w>": 509,
    "3/23/2026</w>": 510,
    "3/24/2026.</w>": 511,
    "3/24/2026</w>": 512,
    "3/25/2026.</w>": 513,
    "3/25/2026</w>": 514,
    "3/26/2026.</w>": 515,
    "3/26/2026</w>": 516,
    "3/27/2026.</w>": 517,
    "3/27/2026</w>": 518,
    "3/28/2026.</w>": 519,
    "3/28/2026</w>": 520,
    "3/29/2026.</w>": 521,
    "3/29/2026</w>": 522,
    "3/3": 523,
    "3/30/2026.</w>": 524,
    "3/30/2026</w>": 525,
    "3/31/2026.</w>": 526,
    "3/31/2026</w>": 527,
    "3/5.</w>": 528,
    "3/5</w>": 529,
    "30": 530,
    "30/2026.</w>": 531,
    "30/2026</w>": 532,
    "306": 533,
    "31</w>": 534,
    "32</w>": 535,
    "33": 536,
    "33</w>": 537,
    "34": 538,
    "35": 539,
    "3544": 540,
    "35</w>": 541,
    "38</w>": 542,
    "39</w>": 543,
    "3:</w>": 544,
    "3?</w>": 545,
    "3@example.com.</w>": 546,
    "3@example.com</w>": 547,
    "4": 548,
    "4).</w>": 549,
    "4):</w>": 550,
    "4)</w>": 551,
    "4,</w>": 552,
    "4.</w>": 553,
    "4/": 554,
    "4/1": 555,
    "4/1/2026.</w>": 556,
    "4/1/2026</w>": 557,
    "4/10": 558,
    "4/10/2026.</w>": 559,
    "4/10/2026</w>": 560,
    "4/11/2026.</w>": 561,
    "4/11/2026</w>": 562,
    "4/12": 563,
    "4/12/2026.</w>": 564,
    "4/12/2026</w>": 565,
    "4/13/2026.</w>": 566,
    "4/13/2026</w>": 567,
    "4/14/2026.</w>": 568,
    "4/14/2026</w>": 569,
    "4/15/2026.</w>": 570,
    "4/15/2026</w>": 571,
    "4/16/2026.</w>": 572,
    "4/16/2026</w>": 573,
    "4/17/2026</w>": 574,
    "4/18/2026.</w>": 575,
    "4/18/2026</w>": 576,
    "4/19/2026.</w>": 577,
    "4/19/2026</w>": 578,
    "4/2": 579,
    "4/2/2026.</w>": 580,
    "4/2/2026</w>": 581,
    "4/20/2026.</w>": 582,
    "4/20/2026</w>": 583,
    "4/2026.</w>": 584,
    "4/2026</w>": 585,
    "4/21/2026.</w>": 586,
    "4/21/2026</w>": 587,
    "4/22": 588,
    "4/22/2026.</w>": 589,
    "4/22/2026</w>": 590,
    "4/23/2026.</w>": 591,
    "4/23/2026</w>": 592,
    "4/24/2026.</w>": 593,
    "4/24/2026</w>": 594,
    "4/25/2026.</w>": 595,
    "4/25/2026</w>": 596,
    "4/26/2026.</w>": 597,
    "4/26/2026</w>": 598,
    "4/27/2026.</w>": 599,
    "4/27/2026</w>": 600,
    "4/28/2026.</w>": 601,
    "4/28/2026</w>": 602,
    "4/29/2026.</w>": 603,
    "4/29/2026</w>": 604,
    "4/3/2026.</w>": 605,
    "4/3/2026</w>": 606,
    "4/30/2026.</w>": 607,
    "4/30/2026</w>": 608,
    "4/4/2026.</w>": 609,
    "4/4/2026</w>": 610,
    "4/5.</w>": 611,
    "4/5/2026.</w>": 612,
    "4/5/2026</w>": 613,
    "4/5</w>": 614,
    "4/6/2026.</w>": 615,
    "4/6/2026</w>": 616,
    "4/7/2026.</w>": 617,
    "4/7/2026</w>": 618,
    "4/8/2026.</w>": 619,
    "4/8/2026</w>": 620,
    "4/9/2026.</w>": 621,
    "4/9/2026</w>": 622,
    "44": 623,
    "44</w>": 624,
    "457": 625,
    "45</w>": 626,
    "47</w>": 627,
    "4:</w>": 628,
    "4?</w>": 629,
    "4@example.com.</w>": 630,
    "4@example.com</w>": 631,
    "5": 632,
    "5).</w>": 633,
    "5):</w>": 634,
    "5)</w>": 635,
    "5,</w>": 636,
    "5.</w>": 637,
    "5/": 638,
    "5/1": 639,
    "5/1/2026.</w>": 640,
    "5/1/2026</w>": 641,
    "5/2": 642,
    "5/2/2026.</w>": 643,
    "5/2/2026</w>": 644,
    "5/2026.</w>": 645,
    "5/2026</w>": 646,
    "5/3/2026.</w>": 647,
    "5/3/2026</w>": 648,
    "5/4/2026.</w>": 649,
    "5/4/2026</w>": 650,
    "5/5.</w>": 651,
    "5/5/2026.</w>": 652,
    "5/5/2026</w>": 653,
    "5/5</w>": 654,
    "5/6/2026.</w>": 655,
    "5/6/2026</w>": 656,
    "52</w>": 657,
    "53</w>": 658,
    "54": 659,
    "55": 660,
    "56": 661,
    "57": 662,
    "59": 663,
    "5:</w>": 664,
    "5?</w>": 665,
    "5@example.com.</w>": 666,
    "5@example.com</w>": 667,
    "6": 668,
    "6).</w>": 669,
    "6):</w>": 670,
    "6)</w>": 671,
    "6,</w>": 672,
    "6.</w>": 673,
    "6/2026.</w>": 674,
    "6/2026</w>": 675,
    "61": 676,
    "63": 677,
    "64": 678,
    "68": 679,
    "6:</w>": 680,
    "6?</w>": 681,
    "6@example.com.</w>": 682,
    "6@example.com</w>": 683,
    "7": 684,
    "7).</w>": 685,
    "7):</w>": 686,
    "7)</w>": 687,
    "7,</w>": 688,
    "7.</w>": 689,
    "7/2026.</w>": 690,
    "7/2026</w>": 691,
    "70": 692,
    "72</w>": 693,
    "73": 694,
    "74": 695,
    "76": 696,
    "77</w>": 697,
    "78": 698,
    "784": 699,
    "79": 700,
    "796": 701,
    "7:</w>": 702,
    "7?</w>": 703,
    "7@example.com.</w>": 704,
    "7@example.com</w>": 705,
    "8": 706,
    "8).</w>": 707,
    "8):</w>": 708,
    "8)</w>": 709,
    "8,</w>": 710,
    "8.</w>": 711,
    "8/2026.</w>": 712,
    "8/2026</w>": 713,
    "80": 714,
    "81": 715,
    "86": 716,
    "88": 717,
    "8:</w>": 718,
    "8?</w>": 719,
    "8@example.com.</w>": 720,
    "8@example.com</w>": 721,
    "9": 722,
    "9).</w>": 723,
    "9):</w>": 724,
    "9)</w>": 725,
    "9,</w>": 726,
    "9.</w>": 727,
    "9/2026.</w>": 728,
    "9/2026</w>": 729,
    "90</w>": 730,
    "91": 731,
    "9113": 732,
    "911357": 733,
    "91135733": 734,
    "911357339": 735,
    "9113573391,</w>": 736,
    "9113573391.</w>": 737,
    "9113573391</w>": 738,
    "91148": 739,
    "911487": 740,
    "91148754": 741,
    "911487540": 742,
    "9114875404,</w>": 743,
    "9114875404.</w>": 744,
    "9114875404</w>": 745,
    "9148": 746,
    "914812": 747,
    "91481244": 748,
    "914812444": 749,
    "9148124440,</w>": 750,
    "9148124440.</w>": 751,
    "9148124440</w>": 752,
    "915": 753,
    "9150": 754,
    "915063": 755,
    "915063796": 756,
    "9150637961,</w>": 757,
    "9150637961.</w>": 758,
    "9150637961</w>": 759,
    "918": 760,
    "918023": 761,
    "91802333": 762,
    "9180233313": 763,
    "9180233313,</w>": 764,
    "9180233313.</w>": 765,
    "9180233313</w>": 766,
    "91</w>": 767,
    "92": 768,
    "9217": 769,
    "921712": 770,
    "92171288": 771,
    "921712887": 772,
    "9217128879,</w>": 773,
    "9217128879.</w>": 774,
    "9217128879</w>": 775,
    "922": 776,
    "9224": 777,
    "922470": 778,
    "92247019": 779,
    "9224701911": 780,
    "9224701911,</w>": 781,
    "9224701911.</w>": 782,
    "9224701911</w>": 783,
    "92264": 784,
    "9226425": 785,
    "922642564": 786,
    "9226425645,</w>": 787,
    "9226425645.</w>": 788,
    "9226425645</w>": 789,
    "9227": 790,
    "922744": 791,
    "9227445": 792,
    "92274458": 793,
    "9227445899,</w>": 794,
    "9227445899.</w>": 795,
    "9227445899</w>": 796,
    "92278": 797,
    "92278170": 798,
    "9227817015": 799,
    "9227817015,</w>": 800,
    "9227817015.</w>": 801,
    "9227817015</w>": 802,
    "923": 803,
    "92335": 804,
    "9233510": 805,
    "92335102": 806,
    "923351023": 807,
    "9233510230": 808,
    "9233510230,</w>": 809,
    "9233510230.</w>": 810,
    "9233510230</w>": 811,
    "9234": 812,
    "92343": 813,
    "9234323": 814,
    "923432335": 815,
    "9234323354,</w>": 816,
    "9234323354.</w>": 817,
    "9234323354</w>": 818,
    "9235": 819,
    "92351911": 820,
    "923519119": 821,
    "9235191190,</w>": 822,
    "9235191190.</w>": 823,
    "9235191190</w>": 824,
    "9238": 825,
    "923844": 826,
    "92384476": 827,
    "923844766": 828,
    "9238447669,</w>": 829,
    "9238447669.</w>": 830,
    "9238447669</w>": 831,
    "925": 832,
    "925956": 833,
    "9259562": 834,
    "925956218": 835,
    "9259562184,</w>": 836,
    "9259562184.</w>": 837,
    "9259562184</w>": 838,
    "93": 839,
    "9306": 840,
    "930630": 841,
    "93063076": 842,
    "930630767": 843,
    "9306307674,</w>": 844,
    "9306307674.</w>": 845,
    "9306307674</w>": 846,
    "93183": 847,
    "9318316": 848,
    "93183166": 849,
    "931831665": 850,
    "9318316658,</w>": 851,
    "9318316658.</w>": 852,
    "9318316658</w>": 853,
    "933": 854,
    "933294": 855,
    "9332943": 856,
    "93329436": 857,
    "933294361": 858,
    "9332943610,</w>": 859,
    "9332943610.</w>": 860,
    "9332943610</w>": 861,
    "9333": 862,
    "933312": 863,
    "9333127": 864,
    "933312735": 865,
    "9333127357,</w>": 866,
    "9333127357.</w>": 867,
    "9333127357</w>": 868,
    "93376": 869,
    "9337664": 870,
    "933766468": 871,
    "9337664683,</w>": 872,
    "9337664683.</w>": 873,
    "9337664683</w>": 874,
    "934": 875,
    "9344": 876,
    "93440": 877,
    "9344054": 878,
    "93440541": 879,
    "934405419": 880,
    "9344054199,</w>": 881,
    "9344054199.</w>": 882,
    "9344054199</w>": 883,
    "93468": 884,
    "9346898": 885,
    "93468985": 886,
    "934689856": 887,
    "9346898564": 888,
    "9346898564,</w>": 889,
    "9346898564.</w>": 890,
    "9346898564</w>": 891,
    "935": 892,
    "93544": 893,
    "9354418": 894,
    "935441879": 895,
    "9354418791,</w>": 896,
    "9354418791.</w>": 897,
    "9354418791</w>": 898,
    "9355": 899,
    "935595": 900,
    "93559578": 901,
    "935595783": 902,
    "9355957839,</w>": 903,
    "9355957839.</w>": 904,
    "9355957839</w>": 905,
    "93594": 906,
    "9359496": 907,
    "935949676": 908,
    "9359496766,</w>": 909,
    "9359496766.</w>": 910,
    "9359496766</w>": 911,
    "936": 912,
    "936170": 913,
    "936170960": 914,
    "9361709609,</w>": 915,
    "9361709609.</w>": 916,
    "9361709609</w>": 917,
    "9366": 918,
    "9366294": 919,
    "936629497": 920,
    "9366294976,</w>": 921,
    "9366294976.</w>": 922,
    "9366294976</w>": 923,
    "9373": 924,
    "937379": 925,
    "9373790": 926,
    "937379070": 927,
    "9373790702,</w>": 928,
    "9373790702.</w>": 929,
    "9373790702</w>": 930,
    "9379": 931,
    "937917": 932,
    "9379177": 933,
    "937917792": 934,
    "9379177922,</w>": 935,
    "9379177922.</w>": 936,
    "9379177922</w>": 937,
    "9381": 938,
    "938117": 939,
    "93811778": 940,
    "9381177898": 941,
    "9381177898,</w>": 942,
    "9381177898.</w>": 943,
    "9381177898</w>": 944,
    "9394": 945,
    "93948": 946,
    "9394893": 947,
    "939489325": 948,
    "9394893255,</w>": 949,
    "9394893255.</w>": 950,
    "9394893255</w>": 951,
    "9394960": 952,
    "939496096": 953,
    "9394960969,</w>": 954,
    "9394960969.</w>": 955,
    "9394960969</w>": 956,
    "94": 957,
    "940": 958,
    "9402": 959,
    "940235": 960,
    "940235172": 961,
    "9402351720,</w>": 962,
    "9402351720.</w>": 963,
    "9402351720</w>": 964,
    "9405": 965,
    "9405222": 966,
    "940522230": 967,
    "9405222306,</w>": 968,
    "9405222306.</w>": 969,
    "9405222306</w>": 970,
    "9415": 971,
    "94157": 972,
    "9415720": 973,
    "94157208": 974,
    "941572084": 975,
    "9415720845,</w>": 976,
    "9415720845.</w>": 977,
    "9415720845</w>": 978,
    "94215": 979,
    "9421519": 980,
    "942151918": 981,
    "9421519189,</w>": 982,
    "9421519189.</w>": 983,
    "9421519189</w>": 984,
    "9435": 985,
    "943555": 986,
    "94355574": 987,
    "943555749": 988,
    "9435557492": 989,
    "9435557492,</w>": 990,
    "9435557492.</w>": 991,
    "9435557492</w>": 992,
    "946": 993,
    "9460": 994,
    "946078": 995,
    "94607810": 996,
    "946078104": 997,
    "9460781047,</w>": 998,
    "9460781047.</w>": 999,
    "9460781047</w>": 1000,
    "9463": 1001,
    "94632": 1002,
    "9463281": 1003,
    "946328118": 1004,
    "9463281186,</w>": 1005,
    "9463281186.</w>": 1006,
    "9463281186</w>": 1007,
    "9464": 1008,
    "946422": 1009,
    "94642280": 1010,
    "946422808": 1011,
    "9464228084,</w>": 1012,
    "9464228084.</w>": 1013,
    "9464228084</w>": 1014,
    "9476": 1015,
    "947673": 1016,
    "94767322": 1017,
    "947673227": 1018,
    "9476732277,</w>": 1019,
    "9476732277.</w>": 1020,
    "9476732277</w>": 1021,
    "94784": 1022,
    "9478459": 1023,
    "94784590": 1024,
    "9478459012,</w>": 1025,
    "9478459012.</w>": 1026,
    "9478459012</w>": 1027,
    "9479": 1028,
    "9479306": 1029,
    "947930656": 1030,
    "9479306566,</w>": 1031,
    "9479306566.</w>": 1032,
    "9479306566</w>": 1033,
    "9492": 1034,
    "94920": 1035,
    "949204": 1036,
    "9492048": 1037,
    "94920487": 1038,
    "949204872": 1039,
    "9492048725,</w>": 1040,
    "9492048725.</w>": 1041,
    "9492048725</w>": 1042,
    "95": 1043,
    "950": 1044,
    "95030": 1045,
    "9503054": 1046,
    "95030547": 1047,
    "950305475": 1048,
    "9503054751,</w>": 1049,
    "9503054751.</w>": 1050,
    "9503054751</w>": 1051,
    "9510": 1052,
    "951078": 1053,
    "9510786": 1054,
    "951078692": 1055,
    "9510786926,</w>": 1056,
    "9510786926.</w>": 1057,
    "9510786926</w>": 1058,
    "9513": 1059,
    "95131": 1060,
    "9513113": 1061,
    "95131134": 1062,
    "951311347": 1063,
    "9513113472,</w>": 1064,
    "9513113472.</w>": 1065,
    "9513113472</w>": 1066,
    "95172": 1067,
    "9517263": 1068,
    "951726314": 1069,
    "9517263141,</w>": 1070,
    "9517263141.</w>": 1071,
    "9517263141</w>": 1072,
    "952": 1073,
    "952457": 1074,
    "95245730": 1075,
    "9524573098": 1076,
    "9524573098,</w>": 1077,
    "9524573098.</w>": 1078,
    "9524573098</w>": 1079,
    "95457": 1080,
    "9545757": 1081,
    "95457575": 1082,
    "9545757512,</w>": 1083,
    "9545757512.</w>": 1084,
    "9545757512</w>": 1085,
    "955": 1086,
    "95522": 1087,
    "955220": 1088,
    "95522035": 1089,
    "955220352": 1090,
    "9552203528,</w>": 1091,
    "9552203528.</w>": 1092,
    "9552203528</w>": 1093,
    "956": 1094,
    "95610": 1095,
    "956105": 1096,
    "956105952": 1097,
    "9561059525,</w>": 1098,
    "9561059525.</w>": 1099,
    "9561059525</w>": 1100,
    "957": 1101,
    "95755": 1102,
    "957552": 1103,
    "95755280": 1104,
    "957552805": 1105,
    "9575528055,</w>": 1106,
    "9575528055.</w>": 1107,
    "9575528055</w>": 1108,
    "958": 1109,
    "9580": 1110,
    "958080": 1111,
    "9580806": 1112,
    "958080618": 1113,
    "9580806184,</w>": 1114,
    "9580806184.</w>": 1115,
    "9580806184</w>": 1116,
    "9584": 1117,
    "958474": 1118,
    "95847480": 1119,
    "958474800": 1120,
    "9584748006,</w>": 1121,
    "9584748006.</w>": 1122,
    "9584748006</w>": 1123,
    "9586": 1124,
    "958655": 1125,
    "9586550": 1126,
    "958655094": 1127,
    "9586550941,</w>": 1128,
    "9586550941.</w>": 1129,
    "9586550941</w>": 1130,
    "958698": 1131,
    "95869812": 1132,
    "958698121": 1133,
    "9586981210,</w>": 1134,
    "9586981210.</w>": 1135,
    "9586981210</w>": 1136,
    "958936": 1137,
    "95893664": 1138,
    "958936643": 1139,
    "9589366438,</w>": 1140,
    "9589366438.</w>": 1141,
    "9589366438</w>": 1142,
    "9598936": 1143,
    "95989360": 1144,
    "959893607": 1145,
    "9598936077,</w>": 1146,
    "9598936077.</w>": 1147,
    "9598936077</w>": 1148,
    "96": 1149,
    "96,</w>": 1150,
    "960": 1151,
    "960984": 1152,
    "9609841": 1153,
    "960984117": 1154,
    "9609841179,</w>": 1155,
    "9609841179.</w>": 1156,
    "9609841179</w>": 1157,
    "9617": 1158,
    "961754": 1159,
    "9617548": 1160,
    "961754859": 1161,
    "9617548590,</w>": 1162,
    "9617548590.</w>": 1163,
    "9617548590</w>": 1164,
    "962": 1165,
    "96261": 1166,
    "96261306": 1167,
    "962613067": 1168,
    "9626130672,</w>": 1169,
    "9626130672.</w>": 1170,
    "9626130672</w>": 1171,
    "965": 1172,
    "9652": 1173,
    "965214": 1174,
    "9652147": 1175,
    "965214756": 1176,
    "9652147567,</w>": 1177,
    "9652147567.</w>": 1178,
    "9652147567</w>": 1179,
    "9659965": 1180,
    "965996593": 1181,
    "9659965938,</w>": 1182,
    "9659965938.</w>": 1183,
    "9659965938</w>": 1184,
    "9694": 1185,
    "97": 1186,
    "97023": 1187,
    "970238": 1188,
    "97023818": 1189,
    "9702381899,</w>": 1190,
    "9702381899.</w>": 1191,
    "9702381899</w>": 1192,
    "9714": 1193,
    "971455": 1194,
    "9714555": 1195,
    "971455588": 1196,
    "9714555881,</w>": 1197,
    "9714555881.</w>": 1198,
    "9714555881</w>": 1199,
    "976": 1200,
    "97668": 1201,
    "976682": 1202,
    "97668288": 1203,
    "976682882": 1204,
    "9766828827,</w>": 1205,
    "9766828827.</w>": 1206,
    "9766828827</w>": 1207,
    "97693": 1208,
    "9769393": 1209,
    "976939364": 1210,
    "9769393649,</w>": 1211,
    "9769393649.</w>": 1212,
    "9769393649</w>": 1213,
    "977": 1214,
    "97718": 1215,
    "977186": 1216,
    "97718699": 1217,
    "977186991": 1218,
    "9771869919,</w>": 1219,
    "9771869919.</w>": 1220,
    "9771869919</w>": 1221,
    "9788": 1222,
    "978822": 1223,
    "978822992": 1224,
    "9788229923,</w>": 1225,
    "9788229923.</w>": 1226,
    "9788229923</w>": 1227,
    "97955": 1228,
    "979553": 1229,
    "97955313": 1230,
    "979553137": 1231,
    "9795531378": 1232,
    "9795531378,</w>": 1233,
    "9795531378.</w>": 1234,
    "9795531378</w>": 1235,
    "9796": 1236,
    "97966": 1237,
    "9796614": 1238,
    "979661423": 1239,
    "9796614234,</w>": 1240,
    "9796614234.</w>": 1241,
    "9796614234</w>": 1242,
    "9798936": 1243,
    "979893694": 1244,
    "9798936944,</w>": 1245,
    "9798936944.</w>": 1246,
    "9798936944</w>": 1247,
    "98": 1248,
    "980": 1249,
    "98017": 1250,
    "980178": 1251,
    "98017822": 1252,
    "980178222": 1253,
    "9801782223": 1254,
    "9801782223,</w>": 1255,
    "9801782223.</w>": 1256,
    "9801782223</w>": 1257,
    "98035": 1258,
    "9803570": 1259,
    "98035702": 1260,
    "9803570215": 1261,
    "9803570215,</w>": 1262,
    "9803570215.</w>": 1263,
    "9803570215</w>": 1264,
    "981": 1265,
    "98114": 1266,
    "981144": 1267,
    "981144956": 1268,
    "9811449565,</w>": 1269,
    "9811449565.</w>": 1270,
    "9811449565</w>": 1271,
    "9816": 1272,
    "98164": 1273,
    "9816434": 1274,
    "981643497": 1275,
    "9816434971,</w>": 1276,
    "9816434971.</w>": 1277,
    "9816434971</w>": 1278,
    "982": 1279,
    "984": 1280,
    "98412": 1281,
    "984129694": 1282,
    "9841296946,</w>": 1283,
    "9841296946.</w>": 1284,
    "9841296946</w>": 1285,
    "98456": 1286,
    "984566": 1287,
    "98456612": 1288,
    "984566129": 1289,
    "9845661296,</w>": 1290,
    "9845661296.</w>": 1291,
    "9845661296</w>": 1292,
    "9855": 1293,
    "98553": 1294,
    "9855376": 1295,
    "98553765": 1296,
    "985537652": 1297,
    "9855376521,</w>": 1298,
    "9855376521.</w>": 1299,
    "9855376521</w>": 1300,
    "9863": 1301,
    "986386": 1302,
    "98638623": 1303,
    "986386233": 1304,
    "9863862339,</w>": 1305,
    "9863862339.</w>": 1306,
    "9863862339</w>": 1307,
    "987": 1308,
    "9877": 1309,
    "987713": 1310,
    "987713784": 1311,
    "9877137849,</w>": 1312,
    "9877137849.</w>": 1313,
    "9877137849</w>": 1314,
    "988": 1315,
    "988206": 1316,
    "98820620": 1317,
    "988206209": 1318,
    "9882062091,</w>": 1319,
    "9882062091.</w>": 1320,
    "9882062091</w>": 1321,
    "98835": 1322,
    "988356": 1323,
    "988356952": 1324,
    "9883569527,</w>": 1325,
    "9883569527.</w>": 1326,
    "9883569527</w>": 1327,
    "9893": 1328,
    "989323": 1329,
    "9893234": 1330,
    "989323495": 1331,
    "9893234953,</w>": 1332,
    "9893234953.</w>": 1333,
    "9893234953</w>": 1334,
    "98936": 1335,
    "9894": 1336,
    "98942": 1337,
    "989424": 1338,
    "989424982": 1339,
    "9894249820,</w>": 1340,
    "9894249820.</w>": 1341,
    "9894249820</w>": 1342,
    "9894997": 1343,
    "989499734": 1344,
    "9894997341,</w>": 1345,
    "9894997341.</w>": 1346,
    "9894997341</w>": 1347,
    "98</w>": 1348,
    "99": 1349,
    "99,</w>": 1350,
    "99.</w>": 1351,
    "990": 1352,
    "9905": 1353,
    "9905982": 1354,
    "990598295": 1355,
    "9905982950,</w>": 1356,
    "9905982950.</w>": 1357,
    "9905982950</w>": 1358,
    "9910": 1359,
    "99106": 1360,
    "991063544": 1361,
    "9910635445,</w>": 1362,
    "9910635445.</w>": 1363,
    "9910635445</w>": 1364,
    "9915": 1365,
    "9915183": 1366,
    "991518379": 1367,
    "9915183796": 1368,
    "9915183796,</w>": 1369,
    "9915183796.</w>": 1370,
    "9915183796</w>": 1371,
    "992": 1372,
    "99213": 1373,
    "992133": 1374,
    "99213388": 1375,
    "992133885": 1376,
    "9921338853,</w>": 1377,
    "9921338853.</w>": 1378,
    "9921338853</w>": 1379,
    "9925": 1380,
    "99253544": 1381,
    "9925354413": 1382,
    "9925354413,</w>": 1383,
    "9925354413.</w>": 1384,
    "9925354413</w>": 1385,
    "9933": 1386,
    "99339694": 1387,
    "9933969415": 1388,
    "9933969415,</w>": 1389,
    "9933969415.</w>": 1390,
    "9933969415</w>": 1391,
    "994": 1392,
    "9944": 1393,
    "994410": 1394,
    "99441010": 1395,
    "994410109": 1396,
    "9944101090,</w>": 1397,
    "9944101090.</w>": 1398,
    "9944101090</w>": 1399,
    "9945": 1400,
    "9945206": 1401,
    "994520613": 1402,
    "9945206132,</w>": 1403,
    "9945206132.</w>": 1404,
    "9945206132</w>": 1405,
    "995": 1406,
    "99513": 1407,
    "9951316": 1408,
    "99513165": 1409,
    "995131653": 1410,
    "9951316533,</w>": 1411,
    "9951316533.</w>": 1412,
    "9951316533</w>": 1413,
    "99554": 1414,
    "9955486": 1415,
    "995548699": 1416,
    "9955486997": 1417,
    "9955486997,</w>": 1418,
    "9955486997.</w>": 1419,
    "9955486997</w>": 1420,
    "9965": 1421,
    "99650": 1422,
    "99650984": 1423,
    "996509846": 1424,
    "9965098465,</w>": 1425,
    "9965098465.</w>": 1426,
    "9965098465</w>": 1427,
    "997": 1428,
    "9992": 1429,
    "999280": 1430,
    "9992802": 1431,
    "999280273": 1432,
    "9992802737,</w>": 1433,
    "9992802737.</w>": 1434,
    "9992802737</w>": 1435,
    "9998": 1436,
    "9998955": 1437,
    "999895513": 1438,
    "9998955134,</w>": 1439,
    "9998955134.</w>": 1440,
    "9998955134</w>": 1441,
    "99</w>": 1442,
    "9:</w>": 1443,
    "9?</w>": 1444,
    "9@example.com.</w>": 1445,
    "9@example.com</w>": 1446,
    ":": 1447,
    ":0": 1448,
    ":00,</w>": 1449,
    ":00.</w>": 1450,
    ":00</w>": 1451,
    ":3": 1452,
    ":30,</w>": 1453,
    ":30.</w>": 1454,
    ":30</w>": 1455,
    "?": 1456,
    "@": 1457,
    "@ex": 1458,
    "@exa": 1459,
    "@exam": 1460,
    "@example": 1461,
    "@example.": 1462,
    "@example.c": 1463,
    "@example.com": 1464,
    "@example.com.</w>": 1465,
    "@example.com</w>": 1466,
    "A": 1467,
    "An": 1468,
    "Anany": 1469,
    "Ananya": 1470,
    "Ananya's</w>": 1471,
    "Ananya,</w>": 1472,
    "Ananya.</w>": 1473,
    "Ananya:</w>": 1474,
    "Ananya</w>": 1475,
    "Ananya?</w>": 1476,
    "Appointmen": 1477,
    "Appointment:</w>": 1478,
    "Appointment</w>": 1479,
    "Ar": 1480,
    "Arj": 1481,
    "Arjun": 1482,
    "Arjun's</w>": 1483,
    "Arjun,</w>": 1484,
    "Arjun.</w>": 1485,
    "Arjun:</w>": 1486,
    "Arjun</w>": 1487,
    "Arjun?</w>": 1488,
    "B": 1489,
    "Ban": 1490,
    "Bang": 1491,
    "Bangal": 1492,
    "Bangalore,</w>": 1493,
    "Bangalore</w>": 1494,
    "Bangalore?</w>": 1495,
    "Book": 1496,
    "Booked.</w>": 1497,
    "Booked</w>": 1498,
    "C": 1499,
    "Cal": 1500,
    "Call": 1501,
    "Call.</w>": 1502,
    "Call</w>": 1503,
    "Cancell": 1504,
    "Cancelled.</w>": 1505,
    "Cancelled</w>": 1506,
    "Cas": 1507,
    "Cash": 1508,
    "Cash.</w>": 1509,
    "Cash:</w>": 1510,
    "Cash</w>": 1511,
    "Ch": 1512,
    "Chen": 1513,
    "Chenn": 1514,
    "Chennai": 1515,
    "Chennai,</w>": 1516,
    "Chennai</w>": 1517,
    "Chennai?</w>": 1518,
    "Cit": 1519,
    "City": 1520,
    "City).</w>": 1521,
    "City):</w>": 1522,
    "City,</w>": 1523,
    "City.</w>": 1524,
    "City:</w>": 1525,
    "City</w>": 1526,
    "City?</w>": 1527,
    "Clos": 1528,
    "Closed.</w>": 1529,
    "Closed</w>": 1530,
    "Co": 1531,
    "Coi": 1532,
    "Coimb": 1533,
    "Coimbat": 1534,
    "Coimbatore,</w>": 1535,
    "Coimbatore</w>": 1536,
    "Coimbatore?</w>": 1537,
    "Com": 1538,
    "Comment:</w>": 1539,
    "Comple": 1540,
    "Completed.</w>": 1541,
    "Completed</w>": 1542,
    "Contac": 1543,
    "Contact</w>": 1544,
    "Contacted.</w>": 1545,
    "Contacted</w>": 1546,
    "Current</w>": 1547,
    "Custom": 1548,
    "Customer": 1549,
    "Customer:</w>": 1550,
    "Customers</w>": 1551,
    "D": 1552,
    "Dat": 1553,
    "Date:</w>": 1554,
    "Detail": 1555,
    "Details:</w>": 1556,
    "Di": 1557,
    "Did</w>": 1558,
    "Divy": 1559,
    "Divya": 1560,
    "Divya's</w>": 1561,
    "Divya,</w>": 1562,
    "Divya.</w>": 1563,
    "Divya:</w>": 1564,
    "Divya</w>": 1565,
    "Divya?</w>": 1566,
    "E": 1567,
    "EM": 1568,
    "EMI": 1569,
    "EMI.</w>": 1570,
    "EMI:</w>": 1571,
    "EMI</w>": 1572,
    "EN": 1573,
    "ENQ": 1574,
    "ENQ0": 1575,
    "ENQ00": 1576,
    "ENQ001).</w>": 1577,
    "ENQ001):</w>": 1578,
    "ENQ001)</w>": 1579,
    "ENQ001,</w>": 1580,
    "ENQ001.</w>": 1581,
    "ENQ001:</w>": 1582,
    "ENQ001</w>": 1583,
    "ENQ001?</w>": 1584,
    "ENQ002).</w>": 1585,
    "ENQ002):</w>": 1586,
    "ENQ002)</w>": 1587,
    "ENQ002,</w>": 1588,
    "ENQ002.</w>": 1589,
    "ENQ002:</w>": 1590,
    "ENQ002</w>": 1591,
    "ENQ002?</w>": 1592,
    "ENQ003).</w>": 1593,
    "ENQ003):</w>": 1594,
    "ENQ003)</w>": 1595,
    "ENQ003,</w>": 1596,
    "ENQ003.</w>": 1597,
    "ENQ003:</w>": 1598,
    "ENQ003</w>": 1599,
    "ENQ003?</w>": 1600,
    "ENQ004).</w>": 1601,
    "ENQ004):</w>": 1602,
    "ENQ004)</w>": 1603,
    "ENQ004,</w>": 1604,
    "ENQ004.</w>": 1605,
    "ENQ004:</w>": 1606,
    "ENQ004</w>": 1607,
    "ENQ004?</w>": 1608,
    "ENQ005).</w>": 1609,
    "ENQ005):</w>": 1610,
    "ENQ005)</w>": 1611,
    "ENQ005,</w>": 1612,
    "ENQ005.</w>": 1613,
    "ENQ005:</w>": 1614,
    "ENQ005</w>": 1615,
    "ENQ005?</w>": 1616,
    "ENQ006).</w>": 1617,
    "ENQ006):</w>": 1618,
    "ENQ006)</w>": 1619,
    "ENQ006,</w>": 1620,
    "ENQ006.</w>": 1621,
    "ENQ006:</w>": 1622,
    "ENQ006</w>": 1623,
    "ENQ006?</w>": 1624,
    "ENQ007).</w>": 1625,
    "ENQ007):</w>": 1626,
    "ENQ007)</w>": 1627,
    "ENQ007,</w>": 1628,
    "ENQ007.</w>": 1629,
    "ENQ007:</w>": 1630,
    "ENQ007</w>": 1631,
    "ENQ007?</w>": 1632,
    "ENQ008).</w>": 1633,
    "ENQ008):</w>": 1634,
    "ENQ008)</w>": 1635,
    "ENQ008,</w>": 1636,
    "ENQ008.</w>": 1637,
    "ENQ008:</w>": 1638,
    "ENQ008</w>": 1639,
    "ENQ008?</w>": 1640,
    "ENQ009).</w>": 1641,
    "ENQ009):</w>": 1642,
    "ENQ009)</w>": 1643,
    "ENQ009,</w>": 1644,
    "ENQ009.</w>": 1645,
    "ENQ009:</w>": 1646,
    "ENQ009</w>": 1647,
    "ENQ009?</w>": 1648,
    "ENQ01": 1649,
    "ENQ010).</w>": 1650,
    "ENQ010):</w>": 1651,
    "ENQ010)</w>": 1652,
    "ENQ010,</w>": 1653,
    "ENQ010.</w>": 1654,
    "ENQ010:</w>": 1655,
    "ENQ010</w>": 1656,
    "ENQ010?</w>": 1657,
    "ENQ011).</w>": 1658,
    "ENQ011):</w>": 1659,
    "ENQ011)</w>": 1660,
    "ENQ011,</w>": 1661,
    "ENQ011.</w>": 1662,
    "ENQ011:</w>": 1663,
    "ENQ011</w>": 1664,
    "ENQ011?</w>": 1665,
    "ENQ012).</w>": 1666,
    "ENQ012):</w>": 1667,
    "ENQ012)</w>": 1668,
    "ENQ012,</w>": 1669,
    "ENQ012.</w>": 1670,
    "ENQ012:</w>": 1671,
    "ENQ012</w>": 1672,
    "ENQ012?</w>": 1673,
    "ENQ013).</w>": 1674,
    "ENQ013):</w>": 1675,
    "ENQ013)</w>": 1676,
    "ENQ013,</w>": 1677,
    "ENQ013.</w>": 1678,
    "ENQ013:</w>": 1679,
    "ENQ013</w>": 1680,
    "ENQ013?</w>": 1681,
    "ENQ014).</w>": 1682,
    "ENQ014):</w>": 1683,
    "ENQ014)</w>": 1684,
    "ENQ014,</w>": 1685,
    "ENQ014.</w>": 1686,
    "ENQ014:</w>": 1687,
    "ENQ014</w>": 1688,
    "ENQ014?</w>": 1689,
    "ENQ015).</w>": 1690,
    "ENQ015):</w>": 1691,
    "ENQ015)</w>": 1692,
    "ENQ015,</w>": 1693,
    "ENQ015.</w>": 1694,
    "ENQ015:</w>": 1695,
    "ENQ015</w>": 1696,
    "ENQ015?</w>": 1697,
    "ENQ016).</w>": 1698,
    "ENQ016):</w>": 1699,
    "ENQ016)</w>": 1700,
    "ENQ016,</w>": 1701,
    "ENQ016.</w>": 1702,
    "ENQ016:</w>": 1703,
    "ENQ016</w>": 1704,
    "ENQ016?</w>": 1705,
    "ENQ017).</w>": 1706,
    "ENQ017):</w>": 1707,
    "ENQ017)</w>": 1708,
    "ENQ017,</w>": 1709,
    "ENQ017.</w>": 1710,
    "ENQ017:</w>": 1711,
    "ENQ017</w>": 1712,
    "ENQ017?</w>": 1713,
    "ENQ018).</w>": 1714,
    "ENQ018):</w>": 1715,
    "ENQ018)</w>": 1716,
    "ENQ018,</w>": 1717,
    "ENQ018.</w>": 1718,
    "ENQ018:</w>": 1719,
    "ENQ018</w>": 1720,
    "ENQ018?</w>": 1721,
    "ENQ019).</w>": 1722,
    "ENQ019):</w>": 1723,
    "ENQ019)</w>": 1724,
    "ENQ019,</w>": 1725,
    "ENQ019.</w>": 1726,
    "ENQ019:</w>": 1727,
    "ENQ019</w>": 1728,
    "ENQ019?</w>": 1729,
    "ENQ02": 1730,
    "ENQ020).</w>": 1731,
    "ENQ020):</w>": 1732,
    "ENQ020)</w>": 1733,
    "ENQ020,</w>": 1734,
    "ENQ020.</w>": 1735,
    "ENQ020:</w>": 1736,
    "ENQ020</w>": 1737,
    "ENQ020?</w>": 1738,
    "ENQ021).</w>": 1739,
    "ENQ021):</w>": 1740,
    "ENQ021)</w>": 1741,
    "ENQ021,</w>": 1742,
    "ENQ021.</w>": 1743,
    "ENQ021:</w>": 1744,
    "ENQ021</w>": 1745,
    "ENQ021?</w>": 1746,
    "ENQ022).</w>": 1747,
    "ENQ022):</w>": 1748,
    "ENQ022)</w>": 1749,
    "ENQ022,</w>": 1750,
    "ENQ022.</w>": 1751,
    "ENQ022:</w>": 1752,
    "ENQ022</w>": 1753,
    "ENQ022?</w>": 1754,
    "ENQ023).</w>": 1755,
    "ENQ023):</w>": 1756,
    "ENQ023)</w>": 1757,
    "ENQ023,</w>": 1758,
    "ENQ023.</w>": 1759,
    "ENQ023:</w>": 1760,
    "ENQ023</w>": 1761,
    "ENQ023?</w>": 1762,
    "ENQ024).</w>": 1763,
    "ENQ024):</w>": 1764,
    "ENQ024)</w>": 1765,
    "ENQ024,</w>": 1766,
    "ENQ024.</w>": 1767,
    "ENQ024:</w>": 1768,
    "ENQ024</w>": 1769,
    "ENQ024?</w>": 1770,
    "ENQ025).</w>": 1771,
    "ENQ025):</w>": 1772,
    "ENQ025)</w>": 1773,
    "ENQ025,</w>": 1774,
    "ENQ025.</w>": 1775,
    "ENQ025:</w>": 1776,
    "ENQ025</w>": 1777,
    "ENQ025?</w>": 1778,
    "ENQ026).</w>": 1779,
    "ENQ026):</w>": 1780,
    "ENQ026)</w>": 1781,
    "ENQ026,</w>": 1782,
    "ENQ026.</w>": 1783,
    "ENQ026:</w>": 1784,
    "ENQ026</w>": 1785,
    "ENQ026?</w>": 1786,
    "ENQ027).</w>": 1787,
    "ENQ027):</w>": 1788,
    "ENQ027)</w>": 1789,
    "ENQ027,</w>": 1790,
    "ENQ027.</w>": 1791,
    "ENQ027:</w>": 1792,
    "ENQ027</w>": 1793,
    "ENQ027?</w>": 1794,
    "ENQ028).</w>": 1795,
    "ENQ028):</w>": 1796,
    "ENQ028)</w>": 1797,
    "ENQ028,</w>": 1798,
    "ENQ028.</w>": 1799,
    "ENQ028:</w>": 1800,
    "ENQ028</w>": 1801,
    "ENQ028?</w>": 1802,
    "ENQ029).</w>": 1803,
    "ENQ029):</w>": 1804,
    "ENQ029)</w>": 1805,
    "ENQ029,</w>": 1806,
    "ENQ029.</w>": 1807,
    "ENQ029:</w>": 1808,
    "ENQ029</w>": 1809,
    "ENQ029?</w>": 1810,
    "ENQ03": 1811,
    "ENQ030).</w>": 1812,
    "ENQ030):</w>": 1813,
    "ENQ030)</w>": 1814,
    "ENQ030,</w>": 1815,
    "ENQ030.</w>": 1816,
    "ENQ030:</w>": 1817,
    "ENQ030</w>": 1818,
    "ENQ030?</w>": 1819,
    "ENQ031).</w>": 1820,
    "ENQ031):</w>": 1821,
    "ENQ031)</w>": 1822,
    "ENQ031,</w>": 1823,
    "ENQ031.</w>": 1824,
    "ENQ031:</w>": 1825,
    "ENQ031</w>": 1826,
    "ENQ031?</w>": 1827,
    "ENQ032).</w>": 1828,
    "ENQ032):</w>": 1829,
    "ENQ032)</w>": 1830,
    "ENQ032,</w>": 1831,
    "ENQ032.</w>": 1832,
    "ENQ032:</w>": 1833,
    "ENQ032</w>": 1834,
    "ENQ032?</w>": 1835,
    "ENQ033).</w>": 1836,
    "ENQ033):</w>": 1837,
    "ENQ033)</w>": 1838,
    "ENQ033,</w>": 1839,
    "ENQ033.</w>": 1840,
    "ENQ033:</w>": 1841,
    "ENQ033</w>": 1842,
    "ENQ033?</w>": 1843,
    "ENQ034).</w>": 1844,
    "ENQ034):</w>": 1845,
    "ENQ034)</w>": 1846,
    "ENQ034,</w>": 1847,
    "ENQ034.</w>": 1848,
    "ENQ034:</w>": 1849,
    "ENQ034</w>": 1850,
    "ENQ034?</w>": 1851,
    "ENQ035).</w>": 1852,
    "ENQ035):</w>": 1853,
    "ENQ035)</w>": 1854,
    "ENQ035,</w>": 1855,
    "ENQ035.</w>": 1856,
    "ENQ035:</w>": 1857,
    "ENQ035</w>": 1858,
    "ENQ035?</w>": 1859,
    "ENQ036).</w>": 1860,
    "ENQ036):</w>": 1861,
    "ENQ036)</w>": 1862,
    "ENQ036,</w>": 1863,
    "ENQ036.</w>": 1864,
    "ENQ036:</w>": 1865,
    "ENQ036</w>": 1866,
    "ENQ036?</w>": 1867,
    "ENQ037).</w>": 1868,
    "ENQ037):</w>": 1869,
    "ENQ037)</w>": 1870,
    "ENQ037,</w>": 1871,
    "ENQ037.</w>": 1872,
    "ENQ037:</w>": 1873,
    "ENQ037</w>": 1874,
    "ENQ037?</w>": 1875,
    "ENQ038).</w>": 1876,
    "ENQ038):</w>": 1877,
    "ENQ038)</w>": 1878,
    "ENQ038,</w>": 1879,
    "ENQ038.</w>": 1880,
    "ENQ038:</w>": 1881,
    "ENQ038</w>": 1882,
    "ENQ038?</w>": 1883,
    "ENQ039).</w>": 1884,
    "ENQ039):</w>": 1885,
    "ENQ039)</w>": 1886,
    "ENQ039,</w>": 1887,
    "ENQ039.</w>": 1888,
    "ENQ039:</w>": 1889,
    "ENQ039</w>": 1890,
    "ENQ039?</w>": 1891,
    "ENQ04": 1892,
    "ENQ040).</w>": 1893,
    "ENQ040):</w>": 1894,
    "ENQ040)</w>": 1895,
    "ENQ040,</w>": 1896,
    "ENQ040.</w>": 1897,
    "ENQ040:</w>": 1898,
    "ENQ040</w>": 1899,
    "ENQ040?</w>": 1900,
    "ENQ041).</w>": 1901,
    "ENQ041):</w>": 1902,
    "ENQ041)</w>": 1903,
    "ENQ041,</w>": 1904,
    "ENQ041.</w>": 1905,
    "ENQ041:</w>": 1906,
    "ENQ041</w>": 1907,
    "ENQ041?</w>": 1908,
    "ENQ042).</w>": 1909,
    "ENQ042):</w>": 1910,
    "ENQ042)</w>": 1911,
    "ENQ042,</w>": 1912,
    "ENQ042.</w>": 1913,
    "ENQ042:</w>": 1914,
    "ENQ042</w>": 1915,
    "ENQ042?</w>": 1916,
    "ENQ043).</w>": 1917,
    "ENQ043):</w>": 1918,
    "ENQ043)</w>": 1919,
    "ENQ043,</w>": 1920,
    "ENQ043.</w>": 1921,
    "ENQ043:</w>": 1922,
    "ENQ043</w>": 1923,
    "ENQ043?</w>": 1924,
    "ENQ044).</w>": 1925,
    "ENQ044):</w>": 1926,
    "ENQ044)</w>": 1927,
    "ENQ044,</w>": 1928,
    "ENQ044.</w>": 1929,
    "ENQ044:</w>": 1930,
    "ENQ044</w>": 1931,
    "ENQ044?</w>": 1932,
    "ENQ045).</w>": 1933,
    "ENQ045):</w>": 1934,
    "ENQ045)</w>": 1935,
    "ENQ045,</w>": 1936,
    "ENQ045.</w>": 1937,
    "ENQ045:</w>": 1938,
    "ENQ045</w>": 1939,
    "ENQ045?</w>": 1940,
    "ENQ046).</w>": 1941,
    "ENQ046):</w>": 1942,
    "ENQ046)</w>": 1943,
    "ENQ046,</w>": 1944,
    "ENQ046.</w>": 1945,
    "ENQ046:</w>": 1946,
    "ENQ046</w>": 1947,
    "ENQ046?</w>": 1948,
    "ENQ047).</w>": 1949,
    "ENQ047):</w>": 1950,
    "ENQ047)</w>": 1951,
    "ENQ047,</w>": 1952,
    "ENQ047.</w>": 1953,
    "ENQ047:</w>": 1954,
    "ENQ047</w>": 1955,
    "ENQ047?</w>": 1956,
    "ENQ048).</w>": 1957,
    "ENQ048):</w>": 1958,
    "ENQ048)</w>": 1959,
    "ENQ048,</w>": 1960,
    "ENQ048.</w>": 1961,
    "ENQ048:</w>": 1962,
    "ENQ048</w>": 1963,
    "ENQ048?</w>": 1964,
    "ENQ049).</w>": 1965,
    "ENQ049):</w>": 1966,
    "ENQ049)</w>": 1967,
    "ENQ049,</w>": 1968,
    "ENQ049.</w>": 1969,
    "ENQ049:</w>": 1970,
    "ENQ049</w>": 1971,
    "ENQ049?</w>": 1972,
    "ENQ05": 1973,
    "ENQ050).</w>": 1974,
    "ENQ050):</w>": 1975,
    "ENQ050)</w>": 1976,
    "ENQ050,</w>": 1977,
    "ENQ050.</w>": 1978,
    "ENQ050:</w>": 1979,
    "ENQ050</w>": 1980,
    "ENQ050?</w>": 1981,
    "ENQ051).</w>": 1982,
    "ENQ051):</w>": 1983,
    "ENQ051)</w>": 1984,
    "ENQ051,</w>": 1985,
    "ENQ051.</w>": 1986,
    "ENQ051:</w>": 1987,
    "ENQ051</w>": 1988,
    "ENQ051?</w>": 1989,
    "ENQ052).</w>": 1990,
    "ENQ052):</w>": 1991,
    "ENQ052)</w>": 1992,
    "ENQ052,</w>": 1993,
    "ENQ052.</w>": 1994,
    "ENQ052:</w>": 1995,
    "ENQ052</w>": 1996,
    "ENQ052?</w>": 1997,
    "ENQ053).</w>": 1998,
    "ENQ053):</w>": 1999,
    "ENQ053)</w>": 2000,
    "ENQ053,</w>": 2001,
    "ENQ053.</w>": 2002,
    "ENQ053:</w>": 2003,
    "ENQ053</w>": 2004,
    "ENQ053?</w>": 2005,
    "ENQ054).</w>": 2006,
    "ENQ054):</w>": 2007,
    "ENQ054)</w>": 2008,
    "ENQ054,</w>": 2009,
    "ENQ054.</w>": 2010,
    "ENQ054:</w>": 2011,
    "ENQ054</w>": 2012,
    "ENQ054?</w>": 2013,
    "ENQ055).</w>": 2014,
    "ENQ055):</w>": 2015,
    "ENQ055)</w>": 2016,
    "ENQ055,</w>": 2017,
    "ENQ055.</w>": 2018,
    "ENQ055:</w>": 2019,
    "ENQ055</w>": 2020,
    "ENQ055?</w>": 2021,
    "ENQ056).</w>": 2022,
    "ENQ056):</w>": 2023,
    "ENQ056)</w>": 2024,
    "ENQ056,</w>": 2025,
    "ENQ056.</w>": 2026,
    "ENQ056:</w>": 2027,
    "ENQ056</w>": 2028,
    "ENQ056?</w>": 2029,
    "ENQ057).</w>": 2030,
    "ENQ057):</w>": 2031,
    "ENQ057)</w>": 2032,
    "ENQ057,</w>": 2033,
    "ENQ057.</w>": 2034,
    "ENQ057:</w>": 2035,
    "ENQ057</w>": 2036,
    "ENQ057?</w>": 2037,
    "ENQ058).</w>": 2038,
    "ENQ058):</w>": 2039,
    "ENQ058)</w>": 2040,
    "ENQ058,</w>": 2041,
    "ENQ058.</w>": 2042,
    "ENQ058:</w>": 2043,
    "ENQ058</w>": 2044,
    "ENQ058?</w>": 2045,
    "ENQ059).</w>": 2046,
    "ENQ059):</w>": 2047,
    "ENQ059)</w>": 2048,
    "ENQ059,</w>": 2049,
    "ENQ059.</w>": 2050,
    "ENQ059:</w>": 2051,
    "ENQ059</w>": 2052,
    "ENQ059?</w>": 2053,
    "ENQ06": 2054,
    "ENQ060).</w>": 2055,
    "ENQ060):</w>": 2056,
    "ENQ060)</w>": 2057,
    "ENQ060,</w>": 2058,
    "ENQ060.</w>": 2059,
    "ENQ060:</w>": 2060,
    "ENQ060</w>": 2061,
    "ENQ060?</w>": 2062,
    "ENQ061).</w>": 2063,
    "ENQ061):</w>": 2064,
    "ENQ061)</w>": 2065,
    "ENQ061,</w>": 2066,
    "ENQ061.</w>": 2067,
    "ENQ061:</w>": 2068,
    "ENQ061</w>": 2069,
    "ENQ061?</w>": 2070,
    "ENQ062).</w>": 2071,
    "ENQ062):</w>": 2072,
    "ENQ062)</w>": 2073,
    "ENQ062,</w>": 2074,
    "ENQ062.</w>": 2075,
    "ENQ062:</w>": 2076,
    "ENQ062</w>": 2077,
    "ENQ062?</w>": 2078,
    "ENQ063).</w>": 2079,
    "ENQ063):</w>": 2080,
    "ENQ063)</w>": 2081,
    "ENQ063,</w>": 2082,
    "ENQ063.</w>": 2083,
    "ENQ063:</w>": 2084,
    "ENQ063</w>": 2085,
    "ENQ063?</w>": 2086,
    "ENQ064).</w>": 2087,
    "ENQ064):</w>": 2088,
    "ENQ064)</w>": 2089,
    "ENQ064,</w>": 2090,
    "ENQ064.</w>": 2091,
    "ENQ064:</w>": 2092,
    "ENQ064</w>": 2093,
    "ENQ064?</w>": 2094,
    "ENQ065).</w>": 2095,
    "ENQ065):</w>": 2096,
    "ENQ065)</w>": 2097,
    "ENQ065,</w>": 2098,
    "ENQ065.</w>": 2099,
    "ENQ065:</w>": 2100,
    "ENQ065</w>": 2101,
    "ENQ065?</w>": 2102,
    "ENQ066).</w>": 2103,
    "ENQ066):</w>": 2104,
    "ENQ066)</w>": 2105,
    "ENQ066,</w>": 2106,
    "ENQ066.</w>": 2107,
    "ENQ066:</w>": 2108,
    "ENQ066</w>": 2109,
    "ENQ066?</w>": 2110,
    "ENQ067).</w>": 2111,
    "ENQ067):</w>": 2112,
    "ENQ067)</w>": 2113,
    "ENQ067,</w>": 2114,
    "ENQ067.</w>": 2115,
    "ENQ067:</w>": 2116,
    "ENQ067</w>": 2117,
    "ENQ067?</w>": 2118,
    "ENQ068).</w>": 2119,
    "ENQ068):</w>": 2120,
    "ENQ068)</w>": 2121,
    "ENQ068,</w>": 2122,
    "ENQ068.</w>": 2123,
    "ENQ068:</w>": 2124,
    "ENQ068</w>": 2125,
    "ENQ068?</w>": 2126,
    "ENQ069).</w>": 2127,
    "ENQ069):</w>": 2128,
    "ENQ069)</w>": 2129,
    "ENQ069,</w>": 2130,
    "ENQ069.</w>": 2131,
    "ENQ069:</w>": 2132,
    "ENQ069</w>": 2133,
    "ENQ069?</w>": 2134,
    "ENQ07": 2135,
    "ENQ070).</w>": 2136,
    "ENQ070):</w>": 2137,
    "ENQ070)</w>": 2138,
    "ENQ070,</w>": 2139,
    "ENQ070.</w>": 2140,
    "ENQ070:</w>": 2141,
    "ENQ070</w>": 2142,
    "ENQ070?</w>": 2143,
    "ENQ071).</w>": 2144,
    "ENQ071):</w>": 2145,
    "ENQ071)</w>": 2146,
    "ENQ071,</w>": 2147,
    "ENQ071.</w>": 2148,
    "ENQ071:</w>": 2149,
    "ENQ071</w>": 2150,
    "ENQ071?</w>": 2151,
    "ENQ072).</w>": 2152,
    "ENQ072):</w>": 2153,
    "ENQ072)</w>": 2154,
    "ENQ072,</w>": 2155,
    "ENQ072.</w>": 2156,
    "ENQ072:</w>": 2157,
    "ENQ072</w>": 2158,
    "ENQ072?</w>": 2159,
    "ENQ073).</w>": 2160,
    "ENQ073):</w>": 2161,
    "ENQ073)</w>": 2162,
    "ENQ073,</w>": 2163,
    "ENQ073.</w>": 2164,
    "ENQ073:</w>": 2165,
    "ENQ073</w>": 2166,
    "ENQ073?</w>": 2167,
    "ENQ074).</w>": 2168,
    "ENQ074):</w>": 2169,
    "ENQ074)</w>": 2170,
    "ENQ074,</w>": 2171,
    "ENQ074.</w>": 2172,
    "ENQ074:</w>": 2173,
    "ENQ074</w>": 2174,
    "ENQ074?</w>": 2175,
    "ENQ075).</w>": 2176,
    "ENQ075):</w>": 2177,
    "ENQ075)</w>": 2178,
    "ENQ075,</w>": 2179,
    "ENQ075.</w>": 2180,
    "ENQ075:</w>": 2181,
    "ENQ075</w>": 2182,
    "ENQ075?</w>": 2183,
    "ENQ076).</w>": 2184,
    "ENQ076):</w>": 2185,
    "ENQ076)</w>": 2186,
    "ENQ076,</w>": 2187,
    "ENQ076.</w>": 2188,
    "ENQ076:</w>": 2189,
    "ENQ076</w>": 2190,
    "ENQ076?</w>": 2191,
    "ENQ077).</w>": 2192,
    "ENQ077):</w>": 2193,
    "ENQ077)</w>": 2194,
    "ENQ077,</w>": 2195,
    "ENQ077.</w>": 2196,
    "ENQ077:</w>": 2197,
    "ENQ077</w>": 2198,
    "ENQ077?</w>": 2199,
    "ENQ078).</w>": 2200,
    "ENQ078):</w>": 2201,
    "ENQ078)</w>": 2202,
    "ENQ078,</w>": 2203,
    "ENQ078.</w>": 2204,
    "ENQ078:</w>": 2205,
    "ENQ078</w>": 2206,
    "ENQ078?</w>": 2207,
    "ENQ079).</w>": 2208,
    "ENQ079):</w>": 2209,
    "ENQ079)</w>": 2210,
    "ENQ079,</w>": 2211,
    "ENQ079.</w>": 2212,
    "ENQ079:</w>": 2213,
    "ENQ079</w>": 2214,
    "ENQ079?</w>": 2215,
    "ENQ08": 2216,
    "ENQ080).</w>": 2217,
    "ENQ080):</w>": 2218,
    "ENQ080)</w>": 2219,
    "ENQ080,</w>": 2220,
    "ENQ080.</w>": 2221,
    "ENQ080:</w>": 2222,
    "ENQ080</w>": 2223,
    "ENQ080?</w>": 2224,
    "ENQ081).</w>": 2225,
    "ENQ081):</w>": 2226,
    "ENQ081)</w>": 2227,
    "ENQ081,</w>": 2228,
    "ENQ081.</w>": 2229,
    "ENQ081:</w>": 2230,
    "ENQ081</w>": 2231,
    "ENQ081?</w>": 2232,
    "ENQ082).</w>": 2233,
    "ENQ082):</w>": 2234,
    "ENQ082)</w>": 2235,
    "ENQ082,</w>": 2236,
    "ENQ082.</w>": 2237,
    "ENQ082:</w>": 2238,
    "ENQ082</w>": 2239,
    "ENQ082?</w>": 2240,
    "ENQ083).</w>": 2241,
    "ENQ083):</w>": 2242,
    "ENQ083)</w>": 2243,
    "ENQ083,</w>": 2244,
    "ENQ083.</w>": 2245,
    "ENQ083:</w>": 2246,
    "ENQ083</w>": 2247,
    "ENQ083?</w>": 2248,
    "ENQ084).</w>": 2249,
    "ENQ084):</w>": 2250,
    "ENQ084)</w>": 2251,
    "ENQ084,</w>": 2252,
    "ENQ084.</w>": 2253,
    "ENQ084:</w>": 2254,
    "ENQ084</w>": 2255,
    "ENQ084?</w>": 2256,
    "ENQ085).</w>": 2257,
    "ENQ085):</w>": 2258,
    "ENQ085)</w>": 2259,
    "ENQ085,</w>": 2260,
    "ENQ085.</w>": 2261,
    "ENQ085:</w>": 2262,
    "ENQ085</w>": 2263,
    "ENQ085?</w>": 2264,
    "ENQ086).</w>": 2265,
    "ENQ086):</w>": 2266,
    "ENQ086)</w>": 2267,
    "ENQ086,</w>": 2268,
    "ENQ086.</w>": 2269,
    "ENQ086:</w>": 2270,
    "ENQ086</w>": 2271,
    "ENQ086?</w>": 2272,
    "ENQ087).</w>": 2273,
    "ENQ087):</w>": 2274,
    "ENQ087)</w>": 2275,
    "ENQ087,</w>": 2276,
    "ENQ087.</w>": 2277,
    "ENQ087:</w>": 2278,
    "ENQ087</w>": 2279,
    "ENQ087?</w>": 2280,
    "ENQ088).</w>": 2281,
    "ENQ088):</w>": 2282,
    "ENQ088)</w>": 2283,
    "ENQ088,</w>": 2284,
    "ENQ088.</w>": 2285,
    "ENQ088:</w>": 2286,
    "ENQ088</w>": 2287,
    "ENQ088?</w>": 2288,
    "ENQ089).</w>": 2289,
    "ENQ089):</w>": 2290,
    "ENQ089)</w>": 2291,
    "ENQ089,</w>": 2292,
    "ENQ089.</w>": 2293,
    "ENQ089:</w>": 2294,
    "ENQ089</w>": 2295,
    "ENQ089?</w>": 2296,
    "ENQ09": 2297,
    "ENQ090).</w>": 2298,
    "ENQ090):</w>": 2299,
    "ENQ090)</w>": 2300,
    "ENQ090,</w>": 2301,
    "ENQ090.</w>": 2302,
    "ENQ090:</w>": 2303,
    "ENQ090</w>": 2304,
    "ENQ090?</w>": 2305,
    "ENQ091).</w>": 2306,
    "ENQ091):</w>": 2307,
    "ENQ091)</w>": 2308,
    "ENQ091,</w>": 2309,
    "ENQ091.</w>": 2310,
    "ENQ091:</w>": 2311,
    "ENQ091</w>": 2312,
    "ENQ091?</w>": 2313,
    "ENQ092).</w>": 2314,
    "ENQ092):</w>": 2315,
    "ENQ092)</w>": 2316,
    "ENQ092,</w>": 2317,
    "ENQ092.</w>": 2318,
    "ENQ092:</w>": 2319,
    "ENQ092</w>": 2320,
    "ENQ092?</w>": 2321,
    "ENQ093).</w>": 2322,
    "ENQ093):</w>": 2323,
    "ENQ093)</w>": 2324,
    "ENQ093,</w>": 2325,
    "ENQ093.</w>": 2326,
    "ENQ093:</w>": 2327,
    "ENQ093</w>": 2328,
    "ENQ093?</w>": 2329,
    "ENQ094).</w>": 2330,
    "ENQ094):</w>": 2331,
    "ENQ094)</w>": 2332,
    "ENQ094,</w>": 2333,
    "ENQ094.</w>": 2334,
    "ENQ094:</w>": 2335,
    "ENQ094</w>": 2336,
    "ENQ094?</w>": 2337,
    "ENQ095).</w>": 2338,
    "ENQ095):</w>": 2339,
    "ENQ095)</w>": 2340,
    "ENQ095,</w>": 2341,
    "ENQ095.</w>": 2342,
    "ENQ095:</w>": 2343,
    "ENQ095</w>": 2344,
    "ENQ095?</w>": 2345,
    "ENQ096).</w>": 2346,
    "ENQ096):</w>": 2347,
    "ENQ096)</w>": 2348,
    "ENQ096,</w>": 2349,
    "ENQ096.</w>": 2350,
    "ENQ096:</w>": 2351,
    "ENQ096</w>": 2352,
    "ENQ096?</w>": 2353,
    "ENQ097).</w>": 2354,
    "ENQ097):</w>": 2355,
    "ENQ097)</w>": 2356,
    "ENQ097,</w>": 2357,
    "ENQ097.</w>": 2358,
    "ENQ097:</w>": 2359,
    "ENQ097</w>": 2360,
    "ENQ097?</w>": 2361,
    "ENQ098).</w>": 2362,
    "ENQ098):</w>": 2363,
    "ENQ098)</w>": 2364,
    "ENQ098,</w>": 2365,
    "ENQ098.</w>": 2366,
    "ENQ098:</w>": 2367,
    "ENQ098</w>": 2368,
    "ENQ098?</w>": 2369,
    "ENQ099).</w>": 2370,
    "ENQ099):</w>": 2371,
    "ENQ099)</w>": 2372,
    "ENQ099,</w>": 2373,
    "ENQ099.</w>": 2374,
    "ENQ099:</w>": 2375,
    "ENQ099</w>": 2376,
    "ENQ099?</w>": 2377,
    "ENQ10": 2378,
    "ENQ100).</w>": 2379,
    "ENQ100):</w>": 2380,
    "ENQ100)</w>": 2381,
    "ENQ100,</w>": 2382,
    "ENQ100.</w>": 2383,
    "ENQ100:</w>": 2384,
    "ENQ100</w>": 2385,
    "ENQ100?</w>": 2386,
    "ENQU": 2387,
    "ENQUI": 2388,
    "ENQUIR": 2389,
    "ENQUIRY</w>": 2390,
    "Em": 2391,
    "Email": 2392,
    "Email:</w>": 2393,
    "En": 2394,
    "Enquir": 2395,
    "Enquired</w>": 2396,
    "Enquiry</w>": 2397,
    "F": 2398,
    "Fe": 2399,
    "Feedbac": 2400,
    "Feedback</w>": 2401,
    "Fem": 2402,
    "Female,</w>": 2403,
    "Female</w>": 2404,
    "G": 2405,
    "Gen": 2406,
    "Gend": 2407,
    "Gender:</w>": 2408,
    "Give</w>": 2409,
    "H": 2410,
    "Has</w>": 2411,
    "Hon": 2412,
    "Hond": 2413,
    "Honda</w>": 2414,
    "How</w>": 2415,
    "Hy": 2416,
    "Hyd": 2417,
    "Hyder": 2418,
    "Hyderab": 2419,
    "Hyderabad": 2420,
    "Hyderabad,</w>": 2421,
    "Hyderabad</w>": 2422,
    "Hyderabad?</w>": 2423,
    "Hyun": 2424,
    "Hyund": 2425,
    "Hyundai</w>": 2426,
    "I": 2427,
    "ID": 2428,
    "ID:</w>": 2429,
    "Is</w>": 2430,
    "It</w>": 2431,
    "K": 2432,
    "KA": 2433,
    "KA.</w>": 2434,
    "KA:</w>": 2435,
    "KA</w>": 2436,
    "Karth": 2437,
    "Karthik": 2438,
    "Karthik's</w>": 2439,
    "Karthik,</w>": 2440,
    "Karthik.</w>": 2441,
    "Karthik:</w>": 2442,
    "Karthik</w>": 2443,
    "Karthik?</w>": 2444,
    "Ki": 2445,
    "Kia</w>": 2446,
    "L": 2447,
    "Le": 2448,
    "Lead": 2449,
    "Lead'": 2450,
    "Lead'.</w>": 2451,
    "Lead':</w>": 2452,
    "Lead'?</w>": 2453,
    "Lead.</w>": 2454,
    "Lead</w>": 2455,
    "Li": 2456,
    "Lis": 2457,
    "List</w>": 2458,
    "Lo": 2459,
    "Loan": 2460,
    "Loan.</w>": 2461,
    "Loan:</w>": 2462,
    "Loan</w>": 2463,
    "M": 2464,
    "Male,</w>": 2465,
    "Male</w>": 2466,
    "Mar": 2467,
    "Marut": 2468,
    "Maruti</w>": 2469,
    "Meer": 2470,
    "Meera": 2471,
    "Meera's</w>": 2472,
    "Meera,</w>": 2473,
    "Meera.</w>": 2474,
    "Meera:</w>": 2475,
    "Meera</w>": 2476,
    "Meera?</w>": 2477,
    "N": 2478,
    "NO": 2479,
    "NOT</w>": 2480,
    "New": 2481,
    "New)</w>": 2482,
    "New</w>": 2483,
    "Nex": 2484,
    "Nexon": 2485,
    "Nexon).</w>": 2486,
    "Nexon):</w>": 2487,
    "Nexon,</w>": 2488,
    "Nexon.</w>": 2489,
    "Nexon:</w>": 2490,
    "Nexon</w>": 2491,
    "Nexon?</w>": 2492,
    "No": 2493,
    "No,</w>": 2494,
    "No.</w>": 2495,
    "No</w>": 2496,
    "Not</w>": 2497,
    "O": 2498,
    "P": 2499,
    "Pay": 2500,
    "Payment:</w>": 2501,
    "Payment</w>": 2502,
    "Phon": 2503,
    "Phone:</w>": 2504,
    "Ple": 2505,
    "Please</w>": 2506,
    "Q": 2507,
    "R": 2508,
    "Ra": 2509,
    "Rat": 2510,
    "Rating": 2511,
    "Rating:</w>": 2512,
    "Ravi": 2513,
    "Ravi's</w>": 2514,
    "Ravi,</w>": 2515,
    "Ravi.</w>": 2516,
    "Ravi:</w>": 2517,
    "Ravi</w>": 2518,
    "Ravi?</w>": 2519,
    "Ret": 2520,
    "Return": 2521,
    "Returning": 2522,
    "Returning)</w>": 2523,
    "Returning</w>": 2524,
    "Rid": 2525,
    "Ride": 2526,
    "Ride'": 2527,
    "Ride'.</w>": 2528,
    "Ride':</w>": 2529,
    "Ride'?</w>": 2530,
    "Ride.</w>": 2531,
    "Ride:</w>": 2532,
    "Ride</w>": 2533,
    "S": 2534,
    "Schedul": 2535,
    "Scheduled": 2536,
    "Scheduled.</w>": 2537,
    "Scheduled:</w>": 2538,
    "Scheduled</w>": 2539,
    "Sel": 2540,
    "Selt": 2541,
    "Selto": 2542,
    "Seltos": 2543,
    "Seltos).</w>": 2544,
    "Seltos):</w>": 2545,
    "Seltos,</w>": 2546,
    "Seltos.</w>": 2547,
    "Seltos:</w>": 2548,
    "Seltos</w>": 2549,
    "Seltos?</w>": 2550,
    "Sen": 2551,
    "Senti": 2552,
    "Sentiment:</w>": 2553,
    "Sh": 2554,
    "Sho": 2555,
    "Show": 2556,
    "Show'</w>": 2557,
    "Show.</w>": 2558,
    "Show</w>": 2559,
    "Sne": 2560,
    "Sneha": 2561,
    "Sneha's</w>": 2562,
    "Sneha,</w>": 2563,
    "Sneha.</w>": 2564,
    "Sneha:</w>": 2565,
    "Sneha</w>": 2566,
    "Sneha?</w>": 2567,
    "So": 2568,
    "Sour": 2569,
    "Source": 2570,
    "Source:</w>": 2571,
    "Statu": 2572,
    "Status:</w>": 2573,
    "Status</w>": 2574,
    "Sw": 2575,
    "Swi": 2576,
    "Swif": 2577,
    "Swift": 2578,
    "Swift).</w>": 2579,
    "Swift):</w>": 2580,
    "Swift,</w>": 2581,
    "Swift.</w>": 2582,
    "Swift:</w>": 2583,
    "Swift</w>": 2584,
    "Swift?</w>": 2585,
    "T": 2586,
    "TN": 2587,
    "TN.</w>": 2588,
    "TN:</w>": 2589,
    "TN</w>": 2590,
    "TS": 2591,
    "TS.</w>": 2592,
    "TS:</w>": 2593,
    "TS</w>": 2594,
    "Tak": 2595,
    "Taken": 2596,
    "Taken.</w>": 2597,
    "Tat": 2598,
    "Tata</w>": 2599,
    "Tel": 2600,
    "Tell</w>": 2601,
    "Test</w>": 2602,
    "Th": 2603,
    "The": 2604,
    "The</w>": 2605,
    "They</w>": 2606,
    "Typ": 2607,
    "Type:</w>": 2608,
    "U": 2609,
    "V": 2610,
    "Vehic": 2611,
    "Vehicle": 2612,
    "Vehicle:</w>": 2613,
    "Vik": 2614,
    "Vikra": 2615,
    "Vikram": 2616,
    "Vikram's</w>": 2617,
    "Vikram,</w>": 2618,
    "Vikram.</w>": 2619,
    "Vikram:</w>": 2620,
    "Vikram</w>": 2621,
    "Vikram?</w>": 2622,
    "W": 2623,
    "Wal": 2624,
    "Walk": 2625,
    "Walk-": 2626,
    "Walk-in": 2627,
    "Walk-in.</w>": 2628,
    "Walk-in</w>": 2629,
    "Was</w>": 2630,
    "We": 2631,
    "Web": 2632,
    "Websit": 2633,
    "Website.</w>": 2634,
    "Website</w>": 2635,
    "Wh": 2636,
    "What</w>": 2637,
    "When</w>": 2638,
    "Wher": 2639,
    "Where</w>": 2640,
    "Whi": 2641,
    "Whic": 2642,
    "Which</w>": 2643,
    "Who</w>": 2644,
    "Y": 2645,
    "Yes": 2646,
    "Yes,</w>": 2647,
    "Yes.</w>": 2648,
    "Yes</w>": 2649,
    "[": 2650,
    "[★★": 2651,
    "[★★★★": 2652,
    "[★★★★★": 2653,
    "[★★★★★].</w>": 2654,
    "[★★★★★]</w>": 2655,
    "[★★★★☆].</w>": 2656,
    "[★★★★☆]</w>": 2657,
    "[★★★☆☆": 2658,
    "[★★★☆☆].</w>": 2659,
    "[★★★☆☆]</w>": 2660,
    "[★★☆☆": 2661,
    "[★★☆☆☆].</w>": 2662,
    "[★★☆☆☆]</w>": 2663,
    "[★☆☆": 2664,
    "[★☆☆☆☆": 2665,
    "[★☆☆☆☆].</w>": 2666,
    "[★☆☆☆☆]</w>": 2667,
    "]": 2668,
    "].</w>": 2669,
    "a": 2670,
    "a's</w>": 2671,
    "a):</w>": 2672,
    "a)</w>": 2673,
    "a?</w>": 2674,
    "ab": 2675,
    "abo": 2676,
    "abou": 2677,
    "about</w>": 2678,
    "about?</w>": 2679,
    "ac": 2680,
    "acr": 2681,
    "acros": 2682,
    "across</w>": 2683,
    "ad": 2684,
    "ad</w>": 2685,
    "ai": 2686,
    "ai</w>": 2687,
    "ail": 2688,
    "ak": 2689,
    "al": 2690,
    "ale": 2691,
    "ale,</w>": 2692,
    "ale</w>": 2693,
    "all</w>": 2694,
    "an": 2695,
    "an</w>": 2696,
    "anany": 2697,
    "ananya's</w>": 2698,
    "ananya</w>": 2699,
    "ananya?</w>": 2700,
    "ancell": 2701,
    "and</w>": 2702,
    "any": 2703,
    "appointmen": 2704,
    "appointment": 2705,
    "appointment(s": 2706,
    "appointment(s):</w>": 2707,
    "appointment</w>": 2708,
    "appointment?</w>": 2709,
    "appointments:</w>": 2710,
    "appointments</w>": 2711,
    "ar": 2712,
    "are</w>": 2713,
    "arj": 2714,
    "arjun": 2715,
    "arjun's</w>": 2716,
    "arjun</w>": 2717,
    "arjun?</w>": 2718,
    "arr": 2719,
    "arrive</w>": 2720,
    "arth": 2721,
    "as": 2722,
    "as</w>": 2723,
    "ase</w>": 2724,
    "at": 2725,
    "at</w>": 2726,
    "at?</w>": 2727,
    "ave</w>": 2728,
    "average</w>": 2729,
    "ay": 2730,
    "b": 2731,
    "bad</w>": 2732,
    "be": 2733,
    "be</w>": 2734,
    "been</w>": 2735,
    "bel": 2736,
    "belon": 2737,
    "belongs</w>": 2738,
    "bet": 2739,
    "bett": 2740,
    "better": 2741,
    "better\".</w>": 2742,
    "better\"</w>": 2743,
    "c": 2744,
    "ca": 2745,
    "came</w>": 2746,
    "cancell": 2747,
    "cancelled</w>": 2748,
    "cancelled?</w>": 2749,
    "car</w>": 2750,
    "ce": 2751,
    "cel": 2752,
    "cell": 2753,
    "ch": 2754,
    "ched": 2755,
    "chedul": 2756,
    "chos": 2757,
    "chose</w>": 2758,
    "chosen</w>": 2759,
    "cit": 2760,
    "city</w>": 2761,
    "clos": 2762,
    "closed": 2763,
    "closed/": 2764,
    "closed/completed.</w>": 2765,
    "com": 2766,
    "come</w>": 2767,
    "compl": 2768,
    "compla": 2769,
    "complain?</w>": 2770,
    "comple": 2771,
    "completed.</w>": 2772,
    "completed</w>": 2773,
    "con": 2774,
    "conf": 2775,
    "confir": 2776,
    "confirm": 2777,
    "confirmed?</w>": 2778,
    "contac": 2779,
    "contact</w>": 2780,
    "curren": 2781,
    "current": 2782,
    "current</w>": 2783,
    "currentl": 2784,
    "currently</w>": 2785,
    "custom": 2786,
    "custome": 2787,
    "customer": 2788,
    "customer(s": 2789,
    "customer(s):</w>": 2790,
    "customer(s)</w>": 2791,
    "customer</w>": 2792,
    "customer?</w>": 2793,
    "customers</w>": 2794,
    "d": 2795,
    "dat": 2796,
    "date</w>": 2797,
    "de": 2798,
    "deal": 2799,
    "dealer": 2800,
    "dealers": 2801,
    "dealershi": 2802,
    "dealership</w>": 2803,
    "detail": 2804,
    "details": 2805,
    "details.</w>": 2806,
    "details</w>": 2807,
    "di": 2808,
    "did</w>": 2809,
    "divy": 2810,
    "divya's</w>": 2811,
    "divya</w>": 2812,
    "divya?</w>": 2813,
    "do": 2814,
    "do</w>": 2815,
    "does</w>": 2816,
    "don": 2817,
    "done?</w>": 2818,
    "e": 2819,
    "e.</w>": 2820,
    "e:</w>": 2821,
    "e?</w>": 2822,
    "ear": 2823,
    "early.</w>": 2824,
    "ed": 2825,
    "ed'": 2826,
    "ed'.</w>": 2827,
    "ed':</w>": 2828,
    "ed'</w>": 2829,
    "ed'?</w>": 2830,
    "ed.</w>": 2831,
    "ed</w>": 2832,
    "ed?</w>": 2833,
    "eed": 2834,
    "eedb": 2835,
    "eedbac": 2836,
    "eer": 2837,
    "ehi": 2838,
    "ehic": 2839,
    "el": 2840,
    "en": 2841,
    "en</w>": 2842,
    "ence": 2843,
    "enq": 2844,
    "enq0": 2845,
    "enq00": 2846,
    "enq001</w>": 2847,
    "enq001?</w>": 2848,
    "enq002</w>": 2849,
    "enq002?</w>": 2850,
    "enq003</w>": 2851,
    "enq003?</w>": 2852,
    "enq004</w>": 2853,
    "enq004?</w>": 2854,
    "enq005</w>": 2855,
    "enq005?</w>": 2856,
    "enq006</w>": 2857,
    "enq006?</w>": 2858,
    "enq007</w>": 2859,
    "enq007?</w>": 2860,
    "enq008</w>": 2861,
    "enq008?</w>": 2862,
    "enq009</w>": 2863,
    "enq009?</w>": 2864,
    "enq01": 2865,
    "enq010": 2866,
    "enq010</w>": 2867,
    "enq010?</w>": 2868,
    "enq011": 2869,
    "enq011</w>": 2870,
    "enq011?</w>": 2871,
    "enq012": 2872,
    "enq012</w>": 2873,
    "enq012?</w>": 2874,
    "enq013": 2875,
    "enq013</w>": 2876,
    "enq013?</w>": 2877,
    "enq014": 2878,
    "enq014</w>": 2879,
    "enq014?</w>": 2880,
    "enq015": 2881,
    "enq015</w>": 2882,
    "enq015?</w>": 2883,
    "enq016": 2884,
    "enq016</w>": 2885,
    "enq016?</w>": 2886,
    "enq017": 2887,
    "enq017</w>": 2888,
    "enq017?</w>": 2889,
    "enq018": 2890,
    "enq018</w>": 2891,
    "enq018?</w>": 2892,
    "enq019</w>": 2893,
    "enq019?</w>": 2894,
    "enq02": 2895,
    "enq020</w>": 2896,
    "enq020?</w>": 2897,
    "enq021</w>": 2898,
    "enq021?</w>": 2899,
    "enq022</w>": 2900,
    "enq022?</w>": 2901,
    "enq023</w>": 2902,
    "enq023?</w>": 2903,
    "enq024</w>": 2904,
    "enq024?</w>": 2905,
    "enq025</w>": 2906,
    "enq025?</w>": 2907,
    "enq026</w>": 2908,
    "enq026?</w>": 2909,
    "enq027</w>": 2910,
    "enq027?</w>": 2911,
    "enq028</w>": 2912,
    "enq028?</w>": 2913,
    "enq029</w>": 2914,
    "enq029?</w>": 2915,
    "enq03": 2916,
    "enq030": 2917,
    "enq030</w>": 2918,
    "enq030?</w>": 2919,
    "enq031</w>": 2920,
    "enq031?</w>": 2921,
    "enq032</w>": 2922,
    "enq032?</w>": 2923,
    "enq033</w>": 2924,
    "enq033?</w>": 2925,
    "enq034</w>": 2926,
    "enq034?</w>": 2927,
    "enq035</w>": 2928,
    "enq035?</w>": 2929,
    "enq036</w>": 2930,
    "enq036?</w>": 2931,
    "enq037</w>": 2932,
    "enq037?</w>": 2933,
    "enq038</w>": 2934,
    "enq038?</w>": 2935,
    "enq039</w>": 2936,
    "enq039?</w>": 2937,
    "enq04": 2938,
    "enq040</w>": 2939,
    "enq040?</w>": 2940,
    "enq041</w>": 2941,
    "enq041?</w>": 2942,
    "enq042</w>": 2943,
    "enq042?</w>": 2944,
    "enq043</w>": 2945,
    "enq043?</w>": 2946,
    "enq044</w>": 2947,
    "enq044?</w>": 2948,
    "enq045</w>": 2949,
    "enq045?</w>": 2950,
    "enq046</w>": 2951,
    "enq046?</w>": 2952,
    "enq047</w>": 2953,
    "enq047?</w>": 2954,
    "enq048</w>": 2955,
    "enq048?</w>": 2956,
    "enq049</w>": 2957,
    "enq049?</w>": 2958,
    "enq05": 2959,
    "enq050</w>": 2960,
    "enq050?</w>": 2961,
    "enq051</w>": 2962,
    "enq051?</w>": 2963,
    "enq052</w>": 2964,
    "enq052?</w>": 2965,
    "enq053</w>": 2966,
    "enq053?</w>": 2967,
    "enq054</w>": 2968,
    "enq054?</w>": 2969,
    "enq055</w>": 2970,
    "enq055?</w>": 2971,
    "enq056</w>": 2972,
    "enq056?</w>": 2973,
    "enq057</w>": 2974,
    "enq057?</w>": 2975,
    "enq058</w>": 2976,
    "enq058?</w>": 2977,
    "enq059</w>": 2978,
    "enq059?</w>": 2979,
    "enq06": 2980,
    "enq060</w>": 2981,
    "enq060?</w>": 2982,
    "enq061</w>": 2983,
    "enq061?</w>": 2984,
    "enq062</w>": 2985,
    "enq062?</w>": 2986,
    "enq063</w>": 2987,
    "enq063?</w>": 2988,
    "enq064</w>": 2989,
    "enq064?</w>": 2990,
    "enq065</w>": 2991,
    "enq065?</w>": 2992,
    "enq066</w>": 2993,
    "enq066?</w>": 2994,
    "enq067</w>": 2995,
    "enq067?</w>": 2996,
    "enq068</w>": 2997,
    "enq068?</w>": 2998,
    "enq069</w>": 2999,
    "enq069?</w>": 3000,
    "enq07": 3001,
    "enq070</w>": 3002,
    "enq070?</w>": 3003,
    "enq071</w>": 3004,
    "enq071?</w>": 3005,
    "enq072</w>": 3006,
    "enq072?</w>": 3007,
    "enq073</w>": 3008,
    "enq073?</w>": 3009,
    "enq074</w>": 3010,
    "enq074?</w>": 3011,
    "enq075</w>": 3012,
    "enq075?</w>": 3013,
    "enq076</w>": 3014,
    "enq076?</w>": 3015,
    "enq077</w>": 3016,
    "enq077?</w>": 3017,
    "enq078</w>": 3018,
    "enq078?</w>": 3019,
    "enq079</w>": 3020,
    "enq079?</w>": 3021,
    "enq08": 3022,
    "enq080</w>": 3023,
    "enq080?</w>": 3024,
    "enq081</w>": 3025,
    "enq081?</w>": 3026,
    "enq082</w>": 3027,
    "enq082?</w>": 3028,
    "enq083</w>": 3029,
    "enq083?</w>": 3030,
    "enq084</w>": 3031,
    "enq084?</w>": 3032,
    "enq085</w>": 3033,
    "enq085?</w>": 3034,
    "enq086</w>": 3035,
    "enq086?</w>": 3036,
    "enq087</w>": 3037,
    "enq087?</w>": 3038,
    "enq088</w>": 3039,
    "enq088?</w>": 3040,
    "enq089</w>": 3041,
    "enq089?</w>": 3042,
    "enq09": 3043,
    "enq090</w>": 3044,
    "enq090?</w>": 3045,
    "enq091</w>": 3046,
    "enq091?</w>": 3047,
    "enq092": 3048,
    "enq092</w>": 3049,
    "enq092?</w>": 3050,
    "enq093": 3051,
    "enq093</w>": 3052,
    "enq093?</w>": 3053,
    "enq094": 3054,
    "enq094</w>": 3055,
    "enq094?</w>": 3056,
    "enq095": 3057,
    "enq095</w>": 3058,
    "enq095?</w>": 3059,
    "enq096": 3060,
    "enq096</w>": 3061,
    "enq096?</w>": 3062,
    "enq097": 3063,
    "enq097</w>": 3064,
    "enq097?</w>": 3065,
    "enq098": 3066,
    "enq098</w>": 3067,
    "enq098?</w>": 3068,
    "enq099</w>": 3069,
    "enq099?</w>": 3070,
    "enq10": 3071,
    "enq100</w>": 3072,
    "enq100?</w>": 3073,
    "enquir": 3074,
    "enquire</w>": 3075,
    "enquired</w>": 3076,
    "enquiri": 3077,
    "enquiries</w>": 3078,
    "enquiry.</w>": 3079,
    "enquiry</w>": 3080,
    "er": 3081,
    "er:</w>": 3082,
    "er?</w>": 3083,
    "es": 3084,
    "es</w>": 3085,
    "est</w>": 3086,
    "et": 3087,
    "etail": 3088,
    "ever": 3089,
    "every": 3090,
    "everyth": 3091,
    "everything</w>": 3092,
    "ew": 3093,
    "ew</w>": 3094,
    "ex": 3095,
    "exp": 3096,
    "exper": 3097,
    "experi": 3098,
    "experience": 3099,
    "experience\".</w>": 3100,
    "experience\"</w>": 3101,
    "f": 3102,
    "feedbac": 3103,
    "feedback": 3104,
    "feedback</w>": 3105,
    "feedback?</w>": 3106,
    "fo": 3107,
    "for": 3108,
    "for</w>": 3109,
    "for?</w>": 3110,
    "fr": 3111,
    "from": 3112,
    "from</w>": 3113,
    "from?</w>": 3114,
    "ful": 3115,
    "full</w>": 3116,
    "g": 3117,
    "gave</w>": 3118,
    "give</w>": 3119,
    "give?</w>": 3120,
    "good</w>": 3121,
    "gs</w>": 3122,
    "h": 3123,
    "ha": 3124,
    "ha</w>": 3125,
    "hap": 3126,
    "happ": 3127,
    "happy": 3128,
    "happy\".</w>": 3129,
    "happy\"</w>": 3130,
    "has": 3131,
    "has</w>": 3132,
    "hasn": 3133,
    "hasn't</w>": 3134,
    "hat</w>": 3135,
    "hav": 3136,
    "have</w>": 3137,
    "have?</w>": 3138,
    "haven": 3139,
    "haven't</w>": 3140,
    "hi": 3141,
    "hig": 3142,
    "high</w>": 3143,
    "hon": 3144,
    "i": 3145,
    "i2": 3146,
    "i20": 3147,
    "i20).</w>": 3148,
    "i20):</w>": 3149,
    "i20,</w>": 3150,
    "i20.</w>": 3151,
    "i20:</w>": 3152,
    "i20</w>": 3153,
    "i20?</w>": 3154,
    "id": 3155,
    "ik": 3156,
    "ik</w>": 3157,
    "in": 3158,
    "in</w>": 3159,
    "in?</w>": 3160,
    "ing": 3161,
    "ing</w>": 3162,
    "int": 3163,
    "inter": 3164,
    "interes": 3165,
    "interested</w>": 3166,
    "ir": 3167,
    "is:</w>": 3168,
    "is</w>": 3169,
    "it": 3170,
    "it</w>": 3171,
    "iv": 3172,
    "ive</w>": 3173,
    "ive?</w>": 3174,
    "ivy": 3175,
    "j": 3176,
    "k": 3177,
    "karth": 3178,
    "karthik": 3179,
    "karthik's</w>": 3180,
    "karthik</w>": 3181,
    "karthik?</w>": 3182,
    "l": 3183,
    "le": 3184,
    "leave</w>": 3185,
    "lo": 3186,
    "loc": 3187,
    "locat": 3188,
    "located</w>": 3189,
    "look": 3190,
    "looking</w>": 3191,
    "los": 3192,
    "low</w>": 3193,
    "ly.</w>": 3194,
    "m": 3195,
    "mb": 3196,
    "me": 3197,
    "me</w>": 3198,
    "meer": 3199,
    "meera's</w>": 3200,
    "meera</w>": 3201,
    "meera?</w>": 3202,
    "men": 3203,
    "ment:</w>": 3204,
    "ment</w>": 3205,
    "meth": 3206,
    "metho": 3207,
    "method</w>": 3208,
    "min": 3209,
    "minut": 3210,
    "minutes</w>": 3211,
    "mo": 3212,
    "mode": 3213,
    "model</w>": 3214,
    "more": 3215,
    "more)</w>": 3216,
    "n": 3217,
    "ne": 3218,
    "neg": 3219,
    "negat": 3220,
    "negative</w>": 3221,
    "neut": 3222,
    "neutra": 3223,
    "neutral</w>": 3224,
    "new</w>": 3225,
    "no</w>": 3226,
    "nu": 3227,
    "num": 3228,
    "numb": 3229,
    "numbe": 3230,
    "number</w>": 3231,
    "number?</w>": 3232,
    "o": 3233,
    "of</w>": 3234,
    "om": 3235,
    "om</w>": 3236,
    "on": 3237,
    "on</w>": 3238,
    "ont": 3239,
    "ontac": 3240,
    "oo": 3241,
    "ood</w>": 3242,
    "ook": 3243,
    "op": 3244,
    "open": 3245,
    "open.</w>": 3246,
    "open?</w>": 3247,
    "or": 3248,
    "or</w>": 3249,
    "ore": 3250,
    "ore,</w>": 3251,
    "ore</w>": 3252,
    "ore?</w>": 3253,
    "os": 3254,
    "ot": 3255,
    "out?</w>": 3256,
    "ow</w>": 3257,
    "p": 3258,
    "pay": 3259,
    "pay?</w>": 3260,
    "paymen": 3261,
    "payment</w>": 3262,
    "payment?</w>": 3263,
    "phon": 3264,
    "phone</w>": 3265,
    "pl": 3266,
    "plan</w>": 3267,
    "ple": 3268,
    "please</w>": 3269,
    "po": 3270,
    "posit": 3271,
    "positive</w>": 3272,
    "positive?</w>": 3273,
    "ppo": 3274,
    "ppoint": 3275,
    "ppointmen": 3276,
    "pre": 3277,
    "pref": 3278,
    "prefer": 3279,
    "preference": 3280,
    "preference:</w>": 3281,
    "preference?</w>": 3282,
    "prefers</w>": 3283,
    "q": 3284,
    "qu": 3285,
    "quir": 3286,
    "quiry</w>": 3287,
    "r": 3288,
    "ra": 3289,
    "rat": 3290,
    "rated</w>": 3291,
    "ratin": 3292,
    "rating": 3293,
    "rating</w>": 3294,
    "rating?</w>": 3295,
    "ratings</w>": 3296,
    "ravi": 3297,
    "ravi's</w>": 3298,
    "ravi</w>": 3299,
    "ravi?</w>": 3300,
    "re": 3301,
    "reac": 3302,
    "reach</w>": 3303,
    "rece": 3304,
    "receiv": 3305,
    "received</w>": 3306,
    "rem": 3307,
    "rema": 3308,
    "remain": 3309,
    "remains</w>": 3310,
    "res": 3311,
    "resched": 3312,
    "reschedu": 3313,
    "reschedule": 3314,
    "reschedule.</w>": 3315,
    "respo": 3316,
    "respon": 3317,
    "respons": 3318,
    "responses": 3319,
    "responses.</w>": 3320,
    "ret": 3321,
    "returning</w>": 3322,
    "revi": 3323,
    "review": 3324,
    "review</w>": 3325,
    "review?</w>": 3326,
    "rid": 3327,
    "ride:</w>": 3328,
    "ride</w>": 3329,
    "ride?</w>": 3330,
    "s": 3331,
    "s:</w>": 3332,
    "sa": 3333,
    "sat": 3334,
    "sati": 3335,
    "satisf": 3336,
    "satisfi": 3337,
    "satisfied": 3338,
    "satisfied\".</w>": 3339,
    "satisfied\"</w>": 3340,
    "satisfied).</w>": 3341,
    "satisfied</w>": 3342,
    "say</w>": 3343,
    "schedul": 3344,
    "scheduled</w>": 3345,
    "ser": 3346,
    "servi": 3347,
    "servic": 3348,
    "service": 3349,
    "service\".</w>": 3350,
    "service\"</w>": 3351,
    "service,</w>": 3352,
    "service</w>": 3353,
    "sf": 3354,
    "sh": 3355,
    "show</w>": 3356,
    "sit": 3357,
    "sne": 3358,
    "sneha": 3359,
    "sneha's</w>": 3360,
    "sneha</w>": 3361,
    "sneha?</w>": 3362,
    "st": 3363,
    "statu": 3364,
    "status:</w>": 3365,
    "status</w>": 3366,
    "sti": 3367,
    "stil": 3368,
    "still</w>": 3369,
    "su": 3370,
    "sub": 3371,
    "subm": 3372,
    "submit": 3373,
    "submitted</w>": 3374,
    "suc": 3375,
    "succe": 3376,
    "succes": 3377,
    "successf": 3378,
    "successful": 3379,
    "successfully.</w>": 3380,
    "sum": 3381,
    "summ": 3382,
    "summar": 3383,
    "summary</w>": 3384,
    "t": 3385,
    "t:</w>": 3386,
    "t?</w>": 3387,
    "tak": 3388,
    "taken</w>": 3389,
    "tat": 3390,
    "tatu": 3391,
    "ted.</w>": 3392,
    "ted</w>": 3393,
    "test</w>": 3394,
    "th": 3395,
    "the": 3396,
    "the</w>": 3397,
    "thei": 3398,
    "their</w>": 3399,
    "ti": 3400,
    "time</w>": 3401,
    "to</w>": 3402,
    "tot": 3403,
    "total": 3404,
    "total):</w>": 3405,
    "tr": 3406,
    "try</w>": 3407,
    "typ": 3408,
    "type?</w>": 3409,
    "u": 3410,
    "ul": 3411,
    "un": 3412,
    "un</w>": 3413,
    "up": 3414,
    "update</w>": 3415,
    "ur": 3416,
    "urn": 3417,
    "urning</w>": 3418,
    "urr": 3419,
    "urren": 3420,
    "urrent</w>": 3421,
    "user": 3422,
    "user0@example.com.</w>": 3423,
    "user0@example.com</w>": 3424,
    "user1": 3425,
    "user10": 3426,
    "user10@example.com.</w>": 3427,
    "user10@example.com</w>": 3428,
    "user11": 3429,
    "user11@example.com.</w>": 3430,
    "user11@example.com</w>": 3431,
    "user12": 3432,
    "user12@example.com.</w>": 3433,
    "user12@example.com</w>": 3434,
    "user13": 3435,
    "user13@example.com.</w>": 3436,
    "user13@example.com</w>": 3437,
    "user14": 3438,
    "user14@example.com.</w>": 3439,
    "user14@example.com</w>": 3440,
    "user15": 3441,
    "user15@example.com.</w>": 3442,
    "user15@example.com</w>": 3443,
    "user16": 3444,
    "user16@example.com.</w>": 3445,
    "user16@example.com</w>": 3446,
    "user17": 3447,
    "user17@example.com.</w>": 3448,
    "user17@example.com</w>": 3449,
    "user18": 3450,
    "user18@example.com.</w>": 3451,
    "user18@example.com</w>": 3452,
    "user19": 3453,
    "user19@example.com.</w>": 3454,
    "user19@example.com</w>": 3455,
    "user1@example.com.</w>": 3456,
    "user1@example.com</w>": 3457,
    "user2": 3458,
    "user20@example.com.</w>": 3459,
    "user20@example.com</w>": 3460,
    "user21@example.com.</w>": 3461,
    "user21@example.com</w>": 3462,
    "user22@example.com.</w>": 3463,
    "user22@example.com</w>": 3464,
    "user23@example.com.</w>": 3465,
    "user23@example.com</w>": 3466,
    "user24@example.com.</w>": 3467,
    "user24@example.com</w>": 3468,
    "user25@example.com.</w>": 3469,
    "user25@example.com</w>": 3470,
    "user26@example.com.</w>": 3471,
    "user26@example.com</w>": 3472,
    "user27@example.com.</w>": 3473,
    "user27@example.com</w>": 3474,
    "user28@example.com.</w>": 3475,
    "user28@example.com</w>": 3476,
    "user29@example.com.</w>": 3477,
    "user29@example.com</w>": 3478,
    "user2@example.com.</w>": 3479,
    "user2@example.com</w>": 3480,
    "user3": 3481,
    "user30": 3482,
    "user30@example.com.</w>": 3483,
    "user30@example.com</w>": 3484,
    "user31@example.com.</w>": 3485,
    "user31@example.com</w>": 3486,
    "user32@example.com.</w>": 3487,
    "user32@example.com</w>": 3488,
    "user33@example.com.</w>": 3489,
    "user33@example.com</w>": 3490,
    "user34@example.com.</w>": 3491,
    "user34@example.com</w>": 3492,
    "user35": 3493,
    "user35@example.com.</w>": 3494,
    "user35@example.com</w>": 3495,
    "user36@example.com.</w>": 3496,
    "user36@example.com</w>": 3497,
    "user37@example.com.</w>": 3498,
    "user37@example.com</w>": 3499,
    "user38@example.com.</w>": 3500,
    "user38@example.com</w>": 3501,
    "user39@example.com.</w>": 3502,
    "user39@example.com</w>": 3503,
    "user3@example.com.</w>": 3504,
    "user3@example.com</w>": 3505,
    "user4": 3506,
    "user40@example.com.</w>": 3507,
    "user40@example.com</w>": 3508,
    "user41@example.com.</w>": 3509,
    "user41@example.com</w>": 3510,
    "user42@example.com.</w>": 3511,
    "user42@example.com</w>": 3512,
    "user43@example.com.</w>": 3513,
    "user43@example.com</w>": 3514,
    "user44@example.com.</w>": 3515,
    "user44@example.com</w>": 3516,
    "user45@example.com.</w>": 3517,
    "user45@example.com</w>": 3518,
    "user46@example.com.</w>": 3519,
    "user46@example.com</w>": 3520,
    "user47@example.com.</w>": 3521,
    "user47@example.com</w>": 3522,
    "user48@example.com.</w>": 3523,
    "user48@example.com</w>": 3524,
    "user49@example.com.</w>": 3525,
    "user49@example.com</w>": 3526,
    "user4@example.com.</w>": 3527,
    "user4@example.com</w>": 3528,
    "user5": 3529,
    "user50@example.com.</w>": 3530,
    "user50@example.com</w>": 3531,
    "user51@example.com.</w>": 3532,
    "user51@example.com</w>": 3533,
    "user52@example.com.</w>": 3534,
    "user52@example.com</w>": 3535,
    "user53@example.com.</w>": 3536,
    "user53@example.com</w>": 3537,
    "user54@example.com.</w>": 3538,
    "user54@example.com</w>": 3539,
    "user55@example.com.</w>": 3540,
    "user55@example.com</w>": 3541,
    "user56@example.com.</w>": 3542,
    "user56@example.com</w>": 3543,
    "user57@example.com.</w>": 3544,
    "user57@example.com</w>": 3545,
    "user58@example.com.</w>": 3546,
    "user58@example.com</w>": 3547,
    "user59@example.com.</w>": 3548,
    "user59@example.com</w>": 3549,
    "user5@example.com.</w>": 3550,
    "user5@example.com</w>": 3551,
    "user6": 3552,
    "user60@example.com.</w>": 3553,
    "user60@example.com</w>": 3554,
    "user61@example.com.</w>": 3555,
    "user61@example.com</w>": 3556,
    "user62@example.com.</w>": 3557,
    "user62@example.com</w>": 3558,
    "user63@example.com.</w>": 3559,
    "user63@example.com</w>": 3560,
    "user64@example.com.</w>": 3561,
    "user64@example.com</w>": 3562,
    "user65@example.com.</w>": 3563,
    "user65@example.com</w>": 3564,
    "user66@example.com.</w>": 3565,
    "user66@example.com</w>": 3566,
    "user67@example.com.</w>": 3567,
    "user67@example.com</w>": 3568,
    "user68@example.com.</w>": 3569,
    "user68@example.com</w>": 3570,
    "user69@example.com.</w>": 3571,
    "user69@example.com</w>": 3572,
    "user6@example.com.</w>": 3573,
    "user6@example.com</w>": 3574,
    "user7": 3575,
    "user70@example.com.</w>": 3576,
    "user70@example.com</w>": 3577,
    "user71@example.com.</w>": 3578,
    "user71@example.com</w>": 3579,
    "user72@example.com.</w>": 3580,
    "user72@example.com</w>": 3581,
    "user73@example.com.</w>": 3582,
    "user73@example.com</w>": 3583,
    "user74@example.com.</w>": 3584,
    "user74@example.com</w>": 3585,
    "user75@example.com.</w>": 3586,
    "user75@example.com</w>": 3587,
    "user76@example.com.</w>": 3588,
    "user76@example.com</w>": 3589,
    "user77@example.com.</w>": 3590,
    "user77@example.com</w>": 3591,
    "user78@example.com.</w>": 3592,
    "user78@example.com</w>": 3593,
    "user79@example.com.</w>": 3594,
    "user79@example.com</w>": 3595,
    "user7@example.com.</w>": 3596,
    "user7@example.com</w>": 3597,
    "user8": 3598,
    "user80@example.com.</w>": 3599,
    "user80@example.com</w>": 3600,
    "user81@example.com.</w>": 3601,
    "user81@example.com</w>": 3602,
    "user82@example.com.</w>": 3603,
    "user82@example.com</w>": 3604,
    "user83@example.com.</w>": 3605,
    "user83@example.com</w>": 3606,
    "user84@example.com.</w>": 3607,
    "user84@example.com</w>": 3608,
    "user85@example.com.</w>": 3609,
    "user85@example.com</w>": 3610,
    "user86@example.com.</w>": 3611,
    "user86@example.com</w>": 3612,
    "user87@example.com.</w>": 3613,
    "user87@example.com</w>": 3614,
    "user88@example.com.</w>": 3615,
    "user88@example.com</w>": 3616,
    "user89@example.com.</w>": 3617,
    "user89@example.com</w>": 3618,
    "user8@example.com.</w>": 3619,
    "user8@example.com</w>": 3620,
    "user9": 3621,
    "user90@example.com.</w>": 3622,
    "user90@example.com</w>": 3623,
    "user91": 3624,
    "user91@example.com.</w>": 3625,
    "user91@example.com</w>": 3626,
    "user92": 3627,
    "user92@example.com.</w>": 3628,
    "user92@example.com</w>": 3629,
    "user93": 3630,
    "user93@example.com.</w>": 3631,
    "user93@example.com</w>": 3632,
    "user94": 3633,
    "user94@example.com.</w>": 3634,
    "user94@example.com</w>": 3635,
    "user95": 3636,
    "user95@example.com.</w>": 3637,
    "user95@example.com</w>": 3638,
    "user96": 3639,
    "user96@example.com.</w>": 3640,
    "user96@example.com</w>": 3641,
    "user97": 3642,
    "user97@example.com.</w>": 3643,
    "user97@example.com</w>": 3644,
    "user98": 3645,
    "user98@example.com.</w>": 3646,
    "user98@example.com</w>": 3647,
    "user99": 3648,
    "user99@example.com.</w>": 3649,
    "user99@example.com</w>": 3650,
    "user9@example.com.</w>": 3651,
    "user9@example.com</w>": 3652,
    "ust": 3653,
    "ustom": 3654,
    "ut": 3655,
    "ut?</w>": 3656,
    "v": 3657,
    "ve</w>": 3658,
    "vehic": 3659,
    "vehicl": 3660,
    "vehicle</w>": 3661,
    "ver": 3662,
    "vera": 3663,
    "verag": 3664,
    "verage</w>": 3665,
    "very</w>": 3666,
    "vi": 3667,
    "vi</w>": 3668,
    "via</w>": 3669,
    "vik": 3670,
    "vikra": 3671,
    "vikram": 3672,
    "vikram's</w>": 3673,
    "vikram</w>": 3674,
    "vikram?</w>": 3675,
    "w": 3676,
    "was</w>": 3677,
    "wh": 3678,
    "what</w>": 3679,
    "when</w>": 3680,
    "wit": 3681,
    "with</w>": 3682,
    "wr": 3683,
    "wrot": 3684,
    "wrote:</w>": 3685,
    "x": 3686,
    "y": 3687,
    "y.</w>": 3688,
    "yet": 3689,
    "yet.</w>": 3690,
    "yp": 3691,
    "—": 3692,
    "≤": 3693,
    "≥": 3694,
    "★": 3695,
    "★★": 3696,
    "★☆☆": 3697,
    "☆": 3698,
    "☆].</w>": 3699,
    "☆]</w>": 3700,
    "☆☆": 3701
  },
  "merges": [
    [
      "e",
      "n"
    ],
    [
      "a",
      "t"
    ],
    [
      "t",
      "h"
    ],
    [
      "/",
      "2"
    ],
    [
      "m",
      "en"
    ],
    [
      "i",
      "n"
    ],
    [
      "e",
      "r"
    ],
    [
      "E",
      "N"
    ],
    [
      "EN",
      "Q"
    ],
    [
      "i",
      "r"
    ],
    [
      "q",
      "u"
    ],
    [
      "qu",
      "ir"
    ],
    [
      "ENQ",
      "0"
    ],
    [
      "i",
      "s</w>"
    ],
    [
      "/2",
      "0"
    ],
    [
      "e",
      "d"
    ],
    [
      "th",
      "e</w>"
    ],
    [
      "h",
      "a"
    ],
    [
      "/20",
      "2"
    ],
    [
      "quir",
      "y</w>"
    ],
    [
      "f",
      "o"
    ],
    [
      "p",
      "o"
    ],
    [
      "fo",
      "r</w>"
    ],
    [
      "in",
      "t"
    ],
    [
      "'",
      "s</w>"
    ],
    [
      "p",
      "po"
    ],
    [
      "ppo",
      "int"
    ],
    [
      "ppoint",
      "men"
    ],
    [
      "t",
      "at"
    ],
    [
      "tat",
      "u"
    ],
    [
      "a",
      "r"
    ],
    [
      "o",
      "n</w>"
    ],
    [
      "o",
      "n"
    ],
    [
      "ha",
      "t</w>"
    ],
    [
      "/202",
      "6</w>"
    ],
    [
      "e",
      "d</w>"
    ],
    [
      "a",
      "ppointmen"
    ],
    [
      "en",
      "quiry</w>"
    ],
    [
      "i",
      "v"
    ],
    [
      "a",
      "n"
    ],
    [
      "v",
      "i"
    ],
    [
      "o",
      "m"
    ],
    [
      "t",
      ":</w>"
    ],
    [
      "i",
      "t"
    ],
    [
      "W",
      "hat</w>"
    ],
    [
      "appointmen",
      "t</w>"
    ],
    [
      "c",
      "e"
    ],
    [
      "i",
      "k"
    ],
    [
      "men",
      "t:</w>"
    ],
    [
      "ar",
      "th"
    ],
    [
      "K",
      "arth"
    ],
    [
      "s",
      "tatu"
    ],
    [
      "l",
      "e"
    ],
    [
      "a",
      "c"
    ],
    [
      "E",
      "n"
    ],
    [
      "s",
      ":</w>"
    ],
    [
      "4",
      "/"
    ],
    [
      "r",
      "e"
    ],
    [
      ")",
      ".</w>"
    ],
    [
      "★",
      "★"
    ],
    [
      "statu",
      "s</w>"
    ],
    [
      "an",
      "y"
    ],
    [
      "n",
      "e"
    ],
    [
      "4",
      "/2"
    ],
    [
      "A",
      "n"
    ],
    [
      "An",
      "any"
    ],
    [
      "e",
      "x"
    ],
    [
      "u",
      "r"
    ],
    [
      "u",
      "n"
    ],
    [
      "e",
      ":</w>"
    ],
    [
      "e",
      "s"
    ],
    [
      "r",
      "a"
    ],
    [
      "6",
      ".</w>"
    ],
    [
      "a",
      "y"
    ],
    [
      "En",
      "quiry</w>"
    ],
    [
      "/202",
      "6.</w>"
    ],
    [
      "a",
      "'s</w>"
    ],
    [
      "s",
      "er"
    ],
    [
      "a",
      "l"
    ],
    [
      "d",
      "i"
    ],
    [
      "S",
      "tatu"
    ],
    [
      "e",
      "n</w>"
    ],
    [
      "C",
      "om"
    ],
    [
      "A",
      "r"
    ],
    [
      "Ar",
      "j"
    ],
    [
      "V",
      "ik"
    ],
    [
      "Vik",
      "ra"
    ],
    [
      "Statu",
      "s:</w>"
    ],
    [
      "a",
      "t</w>"
    ],
    [
      "in",
      "g</w>"
    ],
    [
      "i",
      "k</w>"
    ],
    [
      "es",
      "t</w>"
    ],
    [
      "i",
      "d"
    ],
    [
      "u",
      "t"
    ],
    [
      "Karth",
      "ik</w>"
    ],
    [
      "u",
      "l"
    ],
    [
      "R",
      "a"
    ],
    [
      "e",
      "er"
    ],
    [
      "C",
      "it"
    ],
    [
      "a",
      "i"
    ],
    [
      "p",
      "le"
    ],
    [
      "iv",
      "y"
    ],
    [
      "a",
      "s</w>"
    ],
    [
      "e",
      "l"
    ],
    [
      "di",
      "d</w>"
    ],
    [
      "(",
      "enquiry</w>"
    ],
    [
      "M",
      "eer"
    ],
    [
      "D",
      "ivy"
    ],
    [
      "S",
      "ne"
    ],
    [
      "ed",
      ".</w>"
    ],
    [
      "en",
      "quir"
    ],
    [
      "H",
      "y"
    ],
    [
      "ai",
      "l"
    ],
    [
      "r",
      "at"
    ],
    [
      "e",
      "ed"
    ],
    [
      "eed",
      "b"
    ],
    [
      "eedb",
      "ac"
    ],
    [
      "ur",
      "r"
    ],
    [
      "urr",
      "en"
    ],
    [
      "vi",
      "a</w>"
    ],
    [
      "P",
      "ay"
    ],
    [
      "Com",
      "ment:</w>"
    ],
    [
      "e",
      "t"
    ],
    [
      "(",
      "ENQ0"
    ],
    [
      "Karth",
      "ik"
    ],
    [
      "iv",
      "e</w>"
    ],
    [
      "s",
      "f"
    ],
    [
      "a",
      "b"
    ],
    [
      "H",
      "on"
    ],
    [
      "Hon",
      "d"
    ],
    [
      "Hond",
      "a</w>"
    ],
    [
      "c",
      "h"
    ],
    [
      "f",
      "eedbac"
    ],
    [
      "Pay",
      "ment:</w>"
    ],
    [
      "s",
      "at"
    ],
    [
      "sat",
      "i"
    ],
    [
      "sati",
      "sf"
    ],
    [
      "satisf",
      "i"
    ],
    [
      "o",
      "w</w>"
    ],
    [
      "/",
      "5</w>"
    ],
    [
      "☆",
      "☆"
    ],
    [
      "T",
      "est</w>"
    ],
    [
      "a",
      "i</w>"
    ],
    [
      "Hy",
      "un"
    ],
    [
      "Hyun",
      "d"
    ],
    [
      "Hyund",
      "ai</w>"
    ],
    [
      "i",
      "2"
    ],
    [
      "ser",
      "vi"
    ],
    [
      "v",
      "er"
    ],
    [
      "o",
      "s"
    ],
    [
      "W",
      "h"
    ],
    [
      "T",
      "at"
    ],
    [
      "Tat",
      "a</w>"
    ],
    [
      "N",
      "ex"
    ],
    [
      "Anany",
      "a</w>"
    ],
    [
      "o",
      "m</w>"
    ],
    [
      ":",
      "0"
    ],
    [
      "s",
      "it"
    ],
    [
      "ab",
      "o"
    ],
    [
      "4/",
      "1"
    ],
    [
      "ch",
      "ed"
    ],
    [
      "t",
      "ed</w>"
    ],
    [
      "e",
      "?</w>"
    ],
    [
      "feedbac",
      "k</w>"
    ],
    [
      "A",
      "ppointmen"
    ],
    [
      "a",
      "s"
    ],
    [
      "satisfi",
      "ed"
    ],
    [
      "y",
      ".</w>"
    ],
    [
      "ce",
      "l"
    ],
    [
      "cel",
      "l"
    ],
    [
      "0",
      ".</w>"
    ],
    [
      "s",
      "t"
    ],
    [
      "Karthik",
      "'s</w>"
    ],
    [
      "M",
      "ar"
    ],
    [
      "Mar",
      "ut"
    ],
    [
      "Marut",
      "i</w>"
    ],
    [
      "S",
      "w"
    ],
    [
      "Sw",
      "i"
    ],
    [
      "Swi",
      "f"
    ],
    [
      "Arj",
      "un"
    ],
    [
      "S",
      "h"
    ],
    [
      "abo",
      "u"
    ],
    [
      "abou",
      "t</w>"
    ],
    [
      "h",
      "i"
    ],
    [
      "w",
      "as</w>"
    ],
    [
      "ched",
      "ul"
    ],
    [
      "r",
      "id"
    ],
    [
      "m",
      "e</w>"
    ],
    [
      "K",
      "i"
    ],
    [
      "Ki",
      "a</w>"
    ],
    [
      "S",
      "el"
    ],
    [
      "Sel",
      "t"
    ],
    [
      "rat",
      "ing</w>"
    ],
    [
      "urren",
      "t</w>"
    ],
    [
      "h",
      "on"
    ],
    [
      "S",
      "chedul"
    ],
    [
      "[",
      "★★"
    ],
    [
      "Vikra",
      "m</w>"
    ],
    [
      ":",
      "3"
    ],
    [
      "o",
      "o"
    ],
    [
      "e",
      "w</w>"
    ],
    [
      "ha",
      "s</w>"
    ],
    [
      "u",
      "st"
    ],
    [
      "ust",
      "om"
    ],
    [
      "Vikra",
      "m"
    ],
    [
      "i",
      "n</w>"
    ],
    [
      "u",
      "n</w>"
    ],
    [
      "an",
      "cell"
    ],
    [
      "Ra",
      "vi"
    ],
    [
      "f",
      "r"
    ],
    [
      "on",
      "t"
    ],
    [
      "ont",
      "ac"
    ],
    [
      "Arj",
      "un</w>"
    ],
    [
      "v",
      "i</w>"
    ],
    [
      "Anany",
      "a's</w>"
    ],
    [
      "enquir",
      "ed</w>"
    ],
    [
      "h",
      "a</w>"
    ],
    [
      "Ra",
      "vi</w>"
    ],
    [
      "o",
      "f</w>"
    ],
    [
      "e",
      "hi"
    ],
    [
      "ehi",
      "c"
    ],
    [
      "E",
      "m"
    ],
    [
      "Em",
      "ail"
    ],
    [
      "Email",
      ":</w>"
    ],
    [
      "u",
      "ser"
    ],
    [
      "@",
      "ex"
    ],
    [
      "@ex",
      "a"
    ],
    [
      "@exa",
      "m"
    ],
    [
      "@exam",
      "ple"
    ],
    [
      "@example",
      "."
    ],
    [
      "@example.",
      "c"
    ],
    [
      "er",
      ":</w>"
    ],
    [
      "w",
      "hat</w>"
    ],
    [
      "Sne",
      "ha</w>"
    ],
    [
      "satisfied",
      ").</w>"
    ],
    [
      "T",
      "h"
    ],
    [
      "N",
      "o"
    ],
    [
      "s",
      "u"
    ],
    [
      "N",
      "o</w>"
    ],
    [
      "W",
      "al"
    ],
    [
      "Wal",
      "k"
    ],
    [
      "Walk",
      "-"
    ],
    [
      "Arjun",
      "'s</w>"
    ],
    [
      "Meer",
      "a</w>"
    ],
    [
      "3",
      "/2"
    ],
    [
      "Divy",
      "a</w>"
    ],
    [
      "R",
      "id"
    ],
    [
      "N",
      "ew</w>"
    ],
    [
      "Sne",
      "ha"
    ],
    [
      ":0",
      "0</w>"
    ],
    [
      "servi",
      "ce"
    ],
    [
      "t",
      "?</w>"
    ],
    [
      "ENQ0",
      "1"
    ],
    [
      "ENQ0",
      "2"
    ],
    [
      "ENQ0",
      "3"
    ],
    [
      "ENQ0",
      "4"
    ],
    [
      "ENQ0",
      "5"
    ],
    [
      "ENQ0",
      "6"
    ],
    [
      "ENQ0",
      "7"
    ],
    [
      "ENQ0",
      "8"
    ],
    [
      "ENQ0",
      "9"
    ],
    [
      "po",
      "sit"
    ],
    [
      ")",
      ":</w>"
    ],
    [
      "en",
      "ce"
    ],
    [
      "et",
      "ail"
    ],
    [
      "appointmen",
      "t?</w>"
    ],
    [
      "p",
      "ay"
    ],
    [
      "a",
      "k"
    ],
    [
      "t",
      "o</w>"
    ],
    [
      "'",
      ".</w>"
    ],
    [
      "d",
      "at"
    ],
    [
      "dat",
      "e</w>"
    ],
    [
      "I",
      "s</w>"
    ],
    [
      "men",
      "t</w>"
    ],
    [
      "H",
      "ow</w>"
    ],
    [
      "P",
      "hon"
    ],
    [
      "Phon",
      "e:</w>"
    ],
    [
      "@example.c",
      "om</w>"
    ],
    [
      "th",
      "e"
    ],
    [
      "the",
      "i"
    ],
    [
      "thei",
      "r</w>"
    ],
    [
      "rid",
      "e</w>"
    ],
    [
      "D",
      "at"
    ],
    [
      "Dat",
      "e:</w>"
    ],
    [
      "Appointmen",
      "t</w>"
    ],
    [
      "Wh",
      "en</w>"
    ],
    [
      "t",
      "i"
    ],
    [
      "C",
      "as"
    ],
    [
      "Cit",
      "y</w>"
    ],
    [
      "Vikram",
      "'s</w>"
    ],
    [
      "Cit",
      "y"
    ],
    [
      "8",
      "/2026</w>"
    ],
    [
      "ENQ0",
      "0"
    ],
    [
      "oo",
      "k"
    ],
    [
      "a",
      "d"
    ],
    [
      "Nex",
      "on"
    ],
    [
      "Ravi",
      "'s</w>"
    ],
    [
      "E",
      "M"
    ],
    [
      "i2",
      "0</w>"
    ],
    [
      ":3",
      "0</w>"
    ],
    [
      "c",
      "om"
    ],
    [
      "Divy",
      "a's</w>"
    ],
    [
      "Sh",
      "ow</w>"
    ],
    [
      "C",
      "o"
    ],
    [
      "L",
      "o"
    ],
    [
      "t",
      "ak"
    ],
    [
      "tak",
      "en</w>"
    ],
    [
      "Nex",
      "on</w>"
    ],
    [
      "Walk-",
      "in"
    ],
    [
      "Walk-in",
      ".</w>"
    ],
    [
      "Meer",
      "a's</w>"
    ],
    [
      "Schedul",
      "ed"
    ],
    [
      "b",
      "e"
    ],
    [
      "e",
      "s</w>"
    ],
    [
      "/",
      "1"
    ],
    [
      "ver",
      "a"
    ],
    [
      "vera",
      "g"
    ],
    [
      "C",
      "al"
    ],
    [
      "fr",
      "om</w>"
    ],
    [
      "l",
      "os"
    ],
    [
      "[★★",
      "★★"
    ],
    [
      "ver",
      "y</w>"
    ],
    [
      "posit",
      "ive</w>"
    ],
    [
      "ur",
      "n"
    ],
    [
      "Sneha",
      "'s</w>"
    ],
    [
      "C",
      "ancell"
    ],
    [
      "e",
      ".</w>"
    ],
    [
      "C",
      "ontac"
    ],
    [
      "as",
      "e</w>"
    ],
    [
      "Swif",
      "t"
    ],
    [
      "C",
      "ustom"
    ],
    [
      "d",
      "etail"
    ],
    [
      "t",
      "ed.</w>"
    ],
    [
      "No",
      "t</w>"
    ],
    [
      "Selt",
      "os"
    ],
    [
      "1",
      "0"
    ],
    [
      "g",
      "s</w>"
    ],
    [
      "t",
      "est</w>"
    ],
    [
      "L",
      "e"
    ],
    [
      "b",
      "el"
    ],
    [
      "bel",
      "on"
    ],
    [
      "belon",
      "gs</w>"
    ],
    [
      "C",
      "urrent</w>"
    ],
    [
      "statu",
      "s:</w>"
    ],
    [
      "En",
      "quir"
    ],
    [
      "Enquir",
      "ed</w>"
    ],
    [
      "Appointmen",
      "t:</w>"
    ],
    [
      "c",
      "urrent</w>"
    ],
    [
      "c",
      "urren"
    ],
    [
      "curren",
      "t"
    ],
    [
      "current",
      "l"
    ],
    [
      "currentl",
      "y</w>"
    ],
    [
      "Th",
      "e"
    ],
    [
      "The",
      "y</w>"
    ],
    [
      "v",
      "ehic"
    ],
    [
      "vehic",
      "l"
    ],
    [
      "vehicl",
      "e</w>"
    ],
    [
      "I",
      "D"
    ],
    [
      "ID",
      ":</w>"
    ],
    [
      "p",
      "re"
    ],
    [
      "pre",
      "f"
    ],
    [
      "pref",
      "er"
    ],
    [
      "Custom",
      "er:</w>"
    ],
    [
      "pay",
      "ment</w>"
    ],
    [
      "y",
      "p"
    ],
    [
      "su",
      "b"
    ],
    [
      "sub",
      "m"
    ],
    [
      "subm",
      "it"
    ],
    [
      "submit",
      "ted</w>"
    ],
    [
      "en",
      "q"
    ],
    [
      "Scheduled",
      ":</w>"
    ],
    [
      "iv",
      "e?</w>"
    ],
    [
      "rat",
      "ed</w>"
    ],
    [
      "servi",
      "c"
    ],
    [
      "servic",
      "e</w>"
    ],
    [
      "\"",
      ".</w>"
    ],
    [
      "S",
      "en"
    ],
    [
      "Sen",
      "ti"
    ],
    [
      "Senti",
      "ment:</w>"
    ],
    [
      "re",
      "ce"
    ],
    [
      "rece",
      "iv"
    ],
    [
      "receiv",
      "ed</w>"
    ],
    [
      "]",
      ".</w>"
    ],
    [
      "Selt",
      "o"
    ],
    [
      "Swif",
      "t</w>"
    ],
    [
      "Selto",
      "s</w>"
    ],
    [
      "enq",
      "0"
    ],
    [
      "W",
      "e"
    ],
    [
      "We",
      "b"
    ],
    [
      "Web",
      "sit"
    ],
    [
      "6",
      "/2026</w>"
    ],
    [
      "a",
      "n</w>"
    ],
    [
      "7",
      "/2026</w>"
    ],
    [
      "3",
      "/2026</w>"
    ],
    [
      "3",
      "0"
    ],
    [
      "B",
      "ook"
    ],
    [
      "C",
      "los"
    ],
    [
      "1",
      "3"
    ],
    [
      "(",
      "satisfied).</w>"
    ],
    [
      "ne",
      "g"
    ],
    [
      "neg",
      "at"
    ],
    [
      "negat",
      "ive</w>"
    ],
    [
      "1",
      "5"
    ],
    [
      "urn",
      "ing</w>"
    ],
    [
      "Sh",
      "o"
    ],
    [
      "Sho",
      "w"
    ],
    [
      "Cit",
      "y.</w>"
    ],
    [
      "Com",
      "ple"
    ],
    [
      "service",
      "\"</w>"
    ],
    [
      "\"",
      "Not</w>"
    ],
    [
      "ha",
      "p"
    ],
    [
      "hap",
      "p"
    ],
    [
      "happ",
      "y"
    ],
    [
      "o",
      "re"
    ],
    [
      "9",
      "/2026</w>"
    ],
    [
      "4/",
      "5</w>"
    ],
    [
      "ore",
      ",</w>"
    ],
    [
      "c",
      "ustom"
    ],
    [
      "ed",
      "'.</w>"
    ],
    [
      "Cal",
      "l"
    ],
    [
      "Call",
      ".</w>"
    ],
    [
      "be",
      "en</w>"
    ],
    [
      "5",
      "/2026</w>"
    ],
    [
      "2",
      "/5</w>"
    ],
    [
      "m",
      "b"
    ],
    [
      "5",
      ".</w>"
    ],
    [
      "\"",
      "Co"
    ],
    [
      "\"Co",
      "ul"
    ],
    [
      "\"Coul",
      "d</w>"
    ],
    [
      "b",
      "e</w>"
    ],
    [
      "b",
      "et"
    ],
    [
      "bet",
      "t"
    ],
    [
      "bett",
      "er"
    ],
    [
      "(",
      "di"
    ],
    [
      "(di",
      "s"
    ],
    [
      "(dis",
      "satisfied).</w>"
    ],
    [
      "★",
      "☆☆"
    ],
    [
      "1",
      "8"
    ],
    [
      ":0",
      "0.</w>"
    ],
    [
      "verag",
      "e</w>"
    ],
    [
      "Websit",
      "e.</w>"
    ],
    [
      "\"",
      "A"
    ],
    [
      "\"A",
      "verage</w>"
    ],
    [
      "v",
      "e</w>"
    ],
    [
      "a",
      "?</w>"
    ],
    [
      "R",
      "et"
    ],
    [
      "Cas",
      "h</w>"
    ],
    [
      "5",
      "/5</w>"
    ],
    [
      "Le",
      "ad"
    ],
    [
      "i2",
      "0.</w>"
    ],
    [
      "Cancell",
      "ed.</w>"
    ],
    [
      "c",
      "ancell"
    ],
    [
      "Show",
      ".</w>"
    ],
    [
      "oo",
      "d</w>"
    ],
    [
      "d",
      "e"
    ],
    [
      "c",
      "ontac"
    ],
    [
      "contac",
      "t</w>"
    ],
    [
      "P",
      "le"
    ],
    [
      "Ple",
      "ase</w>"
    ],
    [
      "a",
      "ve</w>"
    ],
    [
      "\"",
      "G"
    ],
    [
      "\"G",
      "ood</w>"
    ],
    [
      "ex",
      "p"
    ],
    [
      "exp",
      "er"
    ],
    [
      "exper",
      "i"
    ],
    [
      "experi",
      "ence"
    ],
    [
      "City",
      ":</w>"
    ],
    [
      "u",
      "p"
    ],
    [
      "up",
      "date</w>"
    ],
    [
      "enquir",
      "e</w>"
    ],
    [
      "ut",
      "?</w>"
    ],
    [
      "int",
      "er"
    ],
    [
      "inter",
      "es"
    ],
    [
      "interes",
      "ted</w>"
    ],
    [
      "c",
      "a"
    ],
    [
      "fo",
      "r"
    ],
    [
      "for",
      "?</w>"
    ],
    [
      "prefer",
      "ence"
    ],
    [
      "p",
      "hon"
    ],
    [
      "phon",
      "e</w>"
    ],
    [
      "n",
      "u"
    ],
    [
      "er",
      "?</w>"
    ],
    [
      "re",
      "ac"
    ],
    [
      "reac",
      "h</w>"
    ],
    [
      "(",
      "Enquiry</w>"
    ],
    [
      "p",
      "l"
    ],
    [
      "enquir",
      "y.</w>"
    ],
    [
      "H",
      "as</w>"
    ],
    [
      "D",
      "i"
    ],
    [
      "Di",
      "d</w>"
    ],
    [
      "Wh",
      "er"
    ],
    [
      "Wher",
      "e</w>"
    ],
    [
      "fr",
      "om"
    ],
    [
      "from",
      "?</w>"
    ],
    [
      "in",
      "?</w>"
    ],
    [
      "detail",
      "s</w>"
    ],
    [
      "ENQ",
      "U"
    ],
    [
      "ENQU",
      "I"
    ],
    [
      "ENQUI",
      "R"
    ],
    [
      "ENQUIR",
      "Y</w>"
    ],
    [
      "G",
      "en"
    ],
    [
      "Gen",
      "d"
    ],
    [
      "Gend",
      "er:</w>"
    ],
    [
      "al",
      "e</w>"
    ],
    [
      "V",
      "ehic"
    ],
    [
      "Vehic",
      "le"
    ],
    [
      "Vehicle",
      ":</w>"
    ],
    [
      "S",
      "o"
    ],
    [
      "So",
      "ur"
    ],
    [
      "Sour",
      "ce"
    ],
    [
      "Source",
      ":</w>"
    ],
    [
      "T",
      "yp"
    ],
    [
      "Typ",
      "e:</w>"
    ],
    [
      "Rid",
      "e:</w>"
    ],
    [
      "ed",
      "?</w>"
    ],
    [
      "Schedul",
      "ed.</w>"
    ],
    [
      "g",
      "ive?</w>"
    ],
    [
      "re",
      "vi"
    ],
    [
      "EM",
      "I</w>"
    ],
    [
      "Th",
      "e</w>"
    ],
    [
      "1",
      "7"
    ],
    [
      "Nexon",
      ".</w>"
    ],
    [
      "Lo",
      "an</w>"
    ],
    [
      "l",
      "y.</w>"
    ],
    [
      "happy",
      "\"</w>"
    ],
    [
      "☆",
      "]</w>"
    ],
    [
      "30",
      "/2026</w>"
    ],
    [
      "Swift",
      ".</w>"
    ],
    [
      "1",
      "4"
    ],
    [
      ":3",
      "0.</w>"
    ],
    [
      "\"",
      "V"
    ],
    [
      "\"V",
      "er"
    ],
    [
      "\"Ver",
      "y</w>"
    ],
    [
      "4/2",
      "2"
    ],
    [
      "Cas",
      "h"
    ],
    [
      "Cash",
      ".</w>"
    ],
    [
      "i2",
      "0"
    ],
    [
      "3",
      "/1"
    ],
    [
      "1",
      "6"
    ],
    [
      "better",
      "\"</w>"
    ],
    [
      "3",
      "/5</w>"
    ],
    [
      "EM",
      "I"
    ],
    [
      "EMI",
      ".</w>"
    ],
    [
      "Lo",
      "an"
    ],
    [
      "Comple",
      "ted.</w>"
    ],
    [
      "[★★",
      "☆☆"
    ],
    [
      "Loan",
      ".</w>"
    ],
    [
      "o",
      "p"
    ],
    [
      "op",
      "en"
    ],
    [
      "a",
      ")</w>"
    ],
    [
      "Seltos",
      ".</w>"
    ],
    [
      "Hy",
      "d"
    ],
    [
      "Hyd",
      "er"
    ],
    [
      "Hyder",
      "ab"
    ],
    [
      "Ret",
      "urning</w>"
    ],
    [
      "9",
      "/2026.</w>"
    ],
    [
      "com",
      "ple"
    ],
    [
      "5",
      "/"
    ],
    [
      "Hyderab",
      "ad"
    ],
    [
      "Hyderabad",
      ",</w>"
    ],
    [
      "4/2",
      "3/2026</w>"
    ],
    [
      "in",
      "g"
    ],
    [
      "experience",
      "\"</w>"
    ],
    [
      "4",
      "/2026</w>"
    ],
    [
      "6",
      "/2026.</w>"
    ],
    [
      "1",
      "/5</w>"
    ],
    [
      "e",
      "w"
    ],
    [
      "[★★★★",
      "★"
    ],
    [
      "9",
      "5"
    ],
    [
      "5",
      "/1"
    ],
    [
      "F",
      "e"
    ],
    [
      "Fe",
      "m"
    ],
    [
      "3",
      "/2026.</w>"
    ],
    [
      "T",
      "N</w>"
    ],
    [
      "3",
      "/"
    ],
    [
      "4/2",
      "8/2026</w>"
    ],
    [
      "9",
      "4"
    ],
    [
      "9",
      "3"
    ],
    [
      "☆",
      "].</w>"
    ],
    [
      "1",
      ")</w>"
    ],
    [
      "2",
      ")</w>"
    ],
    [
      "9",
      ")</w>"
    ],
    [
      "No",
      ",</w>"
    ],
    [
      "1",
      "/2026</w>"
    ],
    [
      "9",
      "8"
    ],
    [
      "0",
      ",</w>"
    ],
    [
      "satisfied",
      "\"</w>"
    ],
    [
      "Walk-",
      "in</w>"
    ],
    [
      "6",
      ")</w>"
    ],
    [
      "7",
      ")</w>"
    ],
    [
      "4/22",
      "/2026</w>"
    ],
    [
      "Co",
      "i"
    ],
    [
      "Coi",
      "mb"
    ],
    [
      "Coimb",
      "at"
    ],
    [
      "Coimbat",
      "ore,</w>"
    ],
    [
      "/20",
      "/2026</w>"
    ],
    [
      "8",
      "/2026.</w>"
    ],
    [
      "3",
      ")</w>"
    ],
    [
      "4",
      ")</w>"
    ],
    [
      "5",
      ")</w>"
    ],
    [
      "8",
      ")</w>"
    ],
    [
      "0",
      ")</w>"
    ],
    [
      "Y",
      "es</w>"
    ],
    [
      "4/",
      "30/2026</w>"
    ],
    [
      "7",
      "/2026.</w>"
    ],
    [
      "\"",
      "E"
    ],
    [
      "\"E",
      "x"
    ],
    [
      "\"Ex",
      "cell"
    ],
    [
      "\"Excell",
      "en"
    ],
    [
      "\"Excellen",
      "t</w>"
    ],
    [
      "4/2",
      "5/2026</w>"
    ],
    [
      "[★★",
      "★☆☆"
    ],
    [
      "ne",
      "ut"
    ],
    [
      "neut",
      "ra"
    ],
    [
      "neutra",
      "l</w>"
    ],
    [
      "Lead",
      ".</w>"
    ],
    [
      "C",
      "h"
    ],
    [
      "Ch",
      "en"
    ],
    [
      "Chen",
      "n"
    ],
    [
      "B",
      "an"
    ],
    [
      "Ban",
      "g"
    ],
    [
      "Bang",
      "al"
    ],
    [
      "Chenn",
      "ai"
    ],
    [
      "5",
      "/2026.</w>"
    ],
    [
      "Chennai",
      ",</w>"
    ],
    [
      "Bangal",
      "ore,</w>"
    ],
    [
      "4/1",
      "8/2026</w>"
    ],
    [
      "an",
      "d</w>"
    ],
    [
      "City",
      ").</w>"
    ],
    [
      "Y",
      "es"
    ],
    [
      "i20",
      ").</w>"
    ],
    [
      "cancell",
      "ed</w>"
    ],
    [
      "1",
      "0</w>"
    ],
    [
      "4/2",
      "6/2026</w>"
    ],
    [
      "ch",
      "os"
    ],
    [
      "Nexon",
      ").</w>"
    ],
    [
      "Book",
      "ed.</w>"
    ],
    [
      "Clos",
      "ed.</w>"
    ],
    [
      "re",
      "s"
    ],
    [
      "[",
      "★☆☆"
    ],
    [
      "[★☆☆",
      "☆☆"
    ],
    [
      "M",
      "ale</w>"
    ],
    [
      "N",
      "O"
    ],
    [
      "NO",
      "T</w>"
    ],
    [
      "ple",
      "ase</w>"
    ],
    [
      "res",
      "ched"
    ],
    [
      "resched",
      "u"
    ],
    [
      "reschedu",
      "le"
    ],
    [
      "reschedule",
      ".</w>"
    ],
    [
      "de",
      "al"
    ],
    [
      "deal",
      "er"
    ],
    [
      "dealer",
      "s"
    ],
    [
      "dealers",
      "hi"
    ],
    [
      "dealershi",
      "p</w>"
    ],
    [
      "detail",
      "s"
    ],
    [
      "details",
      ".</w>"
    ],
    [
      "o",
      "t"
    ],
    [
      "g",
      "ave</w>"
    ],
    [
      "ne",
      "w</w>"
    ],
    [
      "re",
      "t"
    ],
    [
      "ret",
      "urning</w>"
    ],
    [
      "(",
      "a"
    ],
    [
      "(a",
      "verag"
    ],
    [
      "(averag",
      "e"
    ],
    [
      "(average",
      ").</w>"
    ],
    [
      "feedbac",
      "k"
    ],
    [
      "feedback",
      "?</w>"
    ],
    [
      "rid",
      "e?</w>"
    ],
    [
      "custom",
      "e"
    ],
    [
      "custome",
      "r</w>"
    ],
    [
      "rid",
      "e:</w>"
    ],
    [
      "ha",
      "v"
    ],
    [
      "Statu",
      "s</w>"
    ],
    [
      "st",
      "i"
    ],
    [
      "sti",
      "l"
    ],
    [
      "stil",
      "l</w>"
    ],
    [
      "open",
      "?</w>"
    ],
    [
      "I",
      "t</w>"
    ],
    [
      "abo",
      "ut?</w>"
    ],
    [
      "(",
      "ID:</w>"
    ],
    [
      "Wh",
      "i"
    ],
    [
      "Whi",
      "c"
    ],
    [
      "Whic",
      "h</w>"
    ],
    [
      "ca",
      "r</w>"
    ],
    [
      "l",
      "ook"
    ],
    [
      "look",
      "ing</w>"
    ],
    [
      "at",
      "?</w>"
    ],
    [
      "m",
      "o"
    ],
    [
      "mo",
      "de"
    ],
    [
      "mode",
      "l</w>"
    ],
    [
      "preference",
      "?</w>"
    ],
    [
      "Pay",
      "ment</w>"
    ],
    [
      "preference",
      ":</w>"
    ],
    [
      "nu",
      "mb"
    ],
    [
      "numb",
      "er?</w>"
    ],
    [
      "nu",
      "m"
    ],
    [
      "num",
      "be"
    ],
    [
      "numbe",
      "r</w>"
    ],
    [
      "@example.c",
      "om"
    ],
    [
      "@example.com",
      ".</w>"
    ],
    [
      "d",
      "o</w>"
    ],
    [
      "Contac",
      "t</w>"
    ],
    [
      "t",
      "yp"
    ],
    [
      "typ",
      "e?</w>"
    ],
    [
      "prefer",
      "s</w>"
    ],
    [
      "d",
      "o"
    ],
    [
      "do",
      "es</w>"
    ],
    [
      "pl",
      "an</w>"
    ],
    [
      "pay",
      "?</w>"
    ],
    [
      "chos",
      "en</w>"
    ],
    [
      "m",
      "e"
    ],
    [
      "me",
      "th"
    ],
    [
      "meth",
      "o"
    ],
    [
      "metho",
      "d</w>"
    ],
    [
      "t",
      "r"
    ],
    [
      "tr",
      "y</w>"
    ],
    [
      "c",
      "it"
    ],
    [
      "cit",
      "y</w>"
    ],
    [
      "l",
      "o"
    ],
    [
      "lo",
      "c"
    ],
    [
      "loc",
      "at"
    ],
    [
      "locat",
      "ed</w>"
    ],
    [
      "o",
      "r</w>"
    ],
    [
      "custom",
      "er?</w>"
    ],
    [
      "o",
      "ut?</w>"
    ],
    [
      "com",
      "e</w>"
    ],
    [
      "ca",
      "me</w>"
    ],
    [
      "f",
      "ul"
    ],
    [
      "ful",
      "l</w>"
    ],
    [
      "T",
      "el"
    ],
    [
      "Tel",
      "l</w>"
    ],
    [
      "e",
      "ver"
    ],
    [
      "ever",
      "y"
    ],
    [
      "every",
      "th"
    ],
    [
      "everyth",
      "ing</w>"
    ],
    [
      "G",
      "ive</w>"
    ],
    [
      "su",
      "m"
    ],
    [
      "sum",
      "m"
    ],
    [
      "summ",
      "ar"
    ],
    [
      "summar",
      "y</w>"
    ],
    [
      "(",
      "I"
    ],
    [
      "(I",
      "D</w>"
    ],
    [
      "a",
      "le"
    ],
    [
      "ale",
      ",</w>"
    ],
    [
      "hav",
      "e?</w>"
    ],
    [
      "c",
      "on"
    ],
    [
      "con",
      "f"
    ],
    [
      "conf",
      "ir"
    ],
    [
      "confir",
      "m"
    ],
    [
      "confirm",
      "ed?</w>"
    ],
    [
      "ti",
      "me</w>"
    ],
    [
      "cancell",
      "ed?</w>"
    ],
    [
      "d",
      "on"
    ],
    [
      "don",
      "e?</w>"
    ],
    [
      "D",
      "etail"
    ],
    [
      "Detail",
      "s:</w>"
    ],
    [
      "w",
      "h"
    ],
    [
      "wh",
      "en</w>"
    ],
    [
      "ar",
      "r"
    ],
    [
      "arr",
      "ive</w>"
    ],
    [
      "m",
      "in"
    ],
    [
      "min",
      "ut"
    ],
    [
      "minut",
      "es</w>"
    ],
    [
      "e",
      "ar"
    ],
    [
      "ear",
      "ly.</w>"
    ],
    [
      "satisfi",
      "ed</w>"
    ],
    [
      "w",
      "it"
    ],
    [
      "wit",
      "h</w>"
    ],
    [
      "service",
      ",</w>"
    ],
    [
      "i",
      "t</w>"
    ],
    [
      "s",
      "a"
    ],
    [
      "sa",
      "y</w>"
    ],
    [
      "revi",
      "ew"
    ],
    [
      "review",
      "?</w>"
    ],
    [
      "w",
      "r"
    ],
    [
      "wr",
      "ot"
    ],
    [
      "wrot",
      "e:</w>"
    ],
    [
      "W",
      "as</w>"
    ],
    [
      "posit",
      "ive?</w>"
    ],
    [
      "R",
      "at"
    ],
    [
      "Rat",
      "ing"
    ],
    [
      "Rating",
      ":</w>"
    ],
    [
      "com",
      "pl"
    ],
    [
      "compl",
      "a"
    ],
    [
      "compla",
      "in?</w>"
    ],
    [
      "F",
      "eedbac"
    ],
    [
      "Feedbac",
      "k</w>"
    ],
    [
      "revi",
      "ew</w>"
    ],
    [
      "le",
      "ave</w>"
    ],
    [
      "g",
      "ive</w>"
    ],
    [
      "ed",
      "'</w>"
    ],
    [
      "4/2",
      "9/2026</w>"
    ],
    [
      "Fem",
      "ale</w>"
    ],
    [
      "T",
      "N"
    ],
    [
      "4/2",
      "7/2026</w>"
    ],
    [
      "comple",
      "ted</w>"
    ],
    [
      "[★★★★",
      "☆]</w>"
    ],
    [
      "9",
      "2"
    ],
    [
      "Rid",
      "e.</w>"
    ],
    [
      "T",
      "S</w>"
    ],
    [
      "1",
      "2"
    ],
    [
      "TN",
      ".</w>"
    ],
    [
      "4",
      "/2026.</w>"
    ],
    [
      "'",
      "New</w>"
    ],
    [
      "a",
      "d</w>"
    ],
    [
      "Lead",
      "'.</w>"
    ],
    [
      "Le",
      "ad</w>"
    ],
    [
      "(",
      "Karthik"
    ],
    [
      "su",
      "c"
    ],
    [
      "suc",
      "ce"
    ],
    [
      "succe",
      "s"
    ],
    [
      "succes",
      "sf"
    ],
    [
      "successf",
      "ul"
    ],
    [
      "successful",
      "ly.</w>"
    ],
    [
      "[★★☆☆",
      "☆]</w>"
    ],
    [
      "Anany",
      "a"
    ],
    [
      "Seltos",
      ").</w>"
    ],
    [
      "(ENQ0",
      "2"
    ],
    [
      "(ENQ0",
      "4"
    ],
    [
      "(ENQ0",
      "5"
    ],
    [
      "(ENQ0",
      "6"
    ],
    [
      "(ENQ0",
      "7"
    ],
    [
      "(ENQ0",
      "8"
    ],
    [
      "5",
      "/2"
    ],
    [
      "(",
      "Honda</w>"
    ],
    [
      "13",
      ":00</w>"
    ],
    [
      "Cal",
      "l</w>"
    ],
    [
      "Swift",
      ").</w>"
    ],
    [
      "4/2",
      "1/2026</w>"
    ],
    [
      "'",
      "Book"
    ],
    [
      "'",
      "Clos"
    ],
    [
      "(",
      "Hyundai</w>"
    ],
    [
      "9",
      "6"
    ],
    [
      "'Book",
      "ed'.</w>"
    ],
    [
      "Book",
      "ed</w>"
    ],
    [
      "(",
      "Tata</w>"
    ],
    [
      "'Clos",
      "ed'.</w>"
    ],
    [
      "Clos",
      "ed</w>"
    ],
    [
      "service",
      "\".</w>"
    ],
    [
      "[★★★★★",
      "]</w>"
    ],
    [
      "5/1",
      "/2026</w>"
    ],
    [
      "(ENQ0",
      "0"
    ],
    [
      "Websit",
      "e</w>"
    ],
    [
      "(ENQ0",
      "3"
    ],
    [
      "Contac",
      "ted.</w>"
    ],
    [
      "Karthik",
      "?</w>"
    ],
    [
      "1",
      "1"
    ],
    [
      "'",
      "Test</w>"
    ],
    [
      "Rid",
      "e"
    ],
    [
      "4/1",
      "7/2026</w>"
    ],
    [
      "i",
      "s:</w>"
    ],
    [
      "Ride",
      "'.</w>"
    ],
    [
      "Rid",
      "e</w>"
    ],
    [
      "/",
      "5.</w>"
    ],
    [
      "(Karthik",
      ")</w>"
    ],
    [
      "4/",
      "3/2026</w>"
    ],
    [
      "4",
      "/20/2026</w>"
    ],
    [
      "15",
      ":00</w>"
    ],
    [
      "10",
      ":00</w>"
    ],
    [
      "[★★★★",
      "☆].</w>"
    ],
    [
      "(",
      "Kia</w>"
    ],
    [
      "(",
      "Divy"
    ],
    [
      "k",
      "arth"
    ],
    [
      "9",
      "7"
    ],
    [
      "9",
      "?</w>"
    ],
    [
      "(",
      "Maruti</w>"
    ],
    [
      "5/2",
      "/2026.</w>"
    ],
    [
      "4/2",
      "9/2026.</w>"
    ],
    [
      "[★★☆☆",
      "☆].</w>"
    ],
    [
      "1",
      "?</w>"
    ],
    [
      "(",
      "Meer"
    ],
    [
      "[★★★☆☆",
      "]</w>"
    ],
    [
      "K",
      "A</w>"
    ],
    [
      "2",
      "?</w>"
    ],
    [
      "4/1",
      "6/2026</w>"
    ],
    [
      "'",
      "Contac"
    ],
    [
      "'Contac",
      "t"
    ],
    [
      "3",
      "?</w>"
    ],
    [
      "4",
      "?</w>"
    ],
    [
      "5",
      "?</w>"
    ],
    [
      "3/",
      "30/2026</w>"
    ],
    [
      "6",
      "?</w>"
    ],
    [
      "7",
      "?</w>"
    ],
    [
      "8",
      "?</w>"
    ],
    [
      "0",
      "?</w>"
    ],
    [
      "'Contact",
      "ed'.</w>"
    ],
    [
      "Contac",
      "ted</w>"
    ],
    [
      "18",
      ":30</w>"
    ],
    [
      "15",
      ":30</w>"
    ],
    [
      "T",
      "S"
    ],
    [
      "comple",
      "ted.</w>"
    ],
    [
      "happy",
      "\".</w>"
    ],
    [
      "[★★★★★",
      "].</w>"
    ],
    [
      "5/1",
      "/2026.</w>"
    ],
    [
      "4/2",
      "7/2026.</w>"
    ],
    [
      "TS",
      ".</w>"
    ],
    [
      "Yes",
      ",</w>"
    ],
    [
      "re",
      "m"
    ],
    [
      "rem",
      "a"
    ],
    [
      "rema",
      "in"
    ],
    [
      "remain",
      "s</w>"
    ],
    [
      "open",
      ".</w>"
    ],
    [
      "4/",
      "6/2026</w>"
    ],
    [
      "3",
      "5"
    ],
    [
      "[★☆☆☆☆",
      "]</w>"
    ],
    [
      "Anany",
      "a?</w>"
    ],
    [
      "an",
      "any"
    ],
    [
      "(",
      "Sneha"
    ],
    [
      "(",
      "Vikram"
    ],
    [
      "3/1",
      "8/2026</w>"
    ],
    [
      "3/2",
      "6/2026</w>"
    ],
    [
      "better",
      "\".</w>"
    ],
    [
      "4/2",
      "6/2026.</w>"
    ],
    [
      "ar",
      "j"
    ],
    [
      "(Divy",
      "a)</w>"
    ],
    [
      "user",
      "2"
    ],
    [
      "user",
      "4"
    ],
    [
      "user",
      "5"
    ],
    [
      "user",
      "6"
    ],
    [
      "user",
      "7"
    ],
    [
      "user",
      "8"
    ],
    [
      ":0",
      "0,</w>"
    ],
    [
      "4/1",
      "/2026</w>"
    ],
    [
      "karth",
      "ik"
    ],
    [
      "4/1",
      "0"
    ],
    [
      "Ret",
      "urn"
    ],
    [
      "Return",
      "ing"
    ],
    [
      "Returning",
      ")</w>"
    ],
    [
      "(Meer",
      "a)</w>"
    ],
    [
      "(",
      "Anany"
    ],
    [
      "(Anany",
      "a)</w>"
    ],
    [
      "M",
      "ale,</w>"
    ],
    [
      "y",
      "et"
    ],
    [
      "yet",
      ".</w>"
    ],
    [
      "No",
      ".</w>"
    ],
    [
      "4/2",
      "4/2026</w>"
    ],
    [
      "'",
      "Cancell"
    ],
    [
      "'Cancell",
      "ed'</w>"
    ],
    [
      "Cancell",
      "ed</w>"
    ],
    [
      "'",
      "No</w>"
    ],
    [
      "Show",
      "'</w>"
    ],
    [
      "3/2",
      "7/2026</w>"
    ],
    [
      "1",
      "/2026.</w>"
    ],
    [
      "3",
      "/20/2026</w>"
    ],
    [
      "(ENQ0",
      "9"
    ],
    [
      "ENQ",
      "10"
    ],
    [
      "[★★★☆☆",
      "].</w>"
    ],
    [
      "experience",
      "\".</w>"
    ],
    [
      "4/22",
      "/2026.</w>"
    ],
    [
      "'",
      "Scheduled"
    ],
    [
      "'Scheduled",
      "'</w>"
    ],
    [
      "Schedul",
      "ed</w>"
    ],
    [
      "5/",
      "3/2026.</w>"
    ],
    [
      "T",
      "ak"
    ],
    [
      "Tak",
      "en"
    ],
    [
      "Taken",
      ".</w>"
    ],
    [
      "Yes",
      ".</w>"
    ],
    [
      "Arjun",
      "?</w>"
    ],
    [
      "Fem",
      "ale,</w>"
    ],
    [
      "4/1",
      "2"
    ],
    [
      "16",
      ":30</w>"
    ],
    [
      "10",
      ":30</w>"
    ],
    [
      "4/",
      "5.</w>"
    ],
    [
      "N",
      "ew"
    ],
    [
      "New",
      ")</w>"
    ],
    [
      "arj",
      "un"
    ],
    [
      "d",
      "ivy"
    ],
    [
      "Vikram",
      "?</w>"
    ],
    [
      "(",
      "Ravi"
    ],
    [
      "/20",
      "/2026.</w>"
    ],
    [
      "(Vikram",
      ")</w>"
    ],
    [
      "(Sneha",
      ")</w>"
    ],
    [
      "'",
      "Comple"
    ],
    [
      "'Comple",
      "t"
    ],
    [
      "'Complet",
      "ed'</w>"
    ],
    [
      "Comple",
      "ted</w>"
    ],
    [
      "2",
      "/5.</w>"
    ],
    [
      "user",
      "3"
    ],
    [
      "K",
      "A"
    ],
    [
      "m",
      "eer"
    ],
    [
      "4/1",
      "5/2026</w>"
    ],
    [
      "4/2",
      "5/2026.</w>"
    ],
    [
      ":3",
      "0,</w>"
    ],
    [
      "satisfied",
      "\".</w>"
    ],
    [
      "[★☆☆☆☆",
      "].</w>"
    ],
    [
      "30",
      "/2026.</w>"
    ],
    [
      "vi",
      "k"
    ],
    [
      "vik",
      "ra"
    ],
    [
      "9",
      ",</w>"
    ],
    [
      "KA",
      ".</w>"
    ],
    [
      "13",
      ":00.</w>"
    ],
    [
      "(",
      "Arjun"
    ],
    [
      "Divy",
      "a?</w>"
    ],
    [
      "Ravi",
      "?</w>"
    ],
    [
      "4/",
      "9/2026</w>"
    ],
    [
      "3/2",
      "1/2026</w>"
    ],
    [
      "3/2",
      "5/2026</w>"
    ],
    [
      "Meer",
      "a?</w>"
    ],
    [
      "4/1",
      "9/2026</w>"
    ],
    [
      "4/2",
      "8/2026.</w>"
    ],
    [
      "5/",
      "5.</w>"
    ],
    [
      "4/1",
      "9/2026.</w>"
    ],
    [
      "9",
      "9"
    ],
    [
      "1",
      ").</w>"
    ],
    [
      "1",
      ",</w>"
    ],
    [
      "2",
      ").</w>"
    ],
    [
      "3",
      ").</w>"
    ],
    [
      "2",
      "2"
    ],
    [
      "4",
      ").</w>"
    ],
    [
      "c",
      "los"
    ],
    [
      "clos",
      "ed"
    ],
    [
      "closed",
      "/"
    ],
    [
      "closed/",
      "completed.</w>"
    ],
    [
      "5",
      ").</w>"
    ],
    [
      "6",
      ").</w>"
    ],
    [
      "7",
      ").</w>"
    ],
    [
      "8",
      ").</w>"
    ],
    [
      "9",
      ").</w>"
    ],
    [
      "0",
      ").</w>"
    ],
    [
      "Sneha",
      "?</w>"
    ],
    [
      "4",
      "4"
    ],
    [
      "14",
      ":30</w>"
    ],
    [
      "16",
      ":00</w>"
    ],
    [
      "14",
      ":00</w>"
    ],
    [
      "13",
      ":30</w>"
    ],
    [
      "17",
      ":00</w>"
    ],
    [
      "17",
      ":30</w>"
    ],
    [
      "karthik",
      "?</w>"
    ],
    [
      "3/2",
      "8/2026</w>"
    ],
    [
      "4",
      ",</w>"
    ],
    [
      "(Ravi",
      ")</w>"
    ],
    [
      "s",
      "ne"
    ],
    [
      "4/2",
      "3/2026.</w>"
    ],
    [
      "4/2",
      "4/2026.</w>"
    ],
    [
      "7",
      "8"
    ],
    [
      "5",
      ",</w>"
    ],
    [
      "Meer",
      "a"
    ],
    [
      "1",
      "@example.com</w>"
    ],
    [
      "3/2",
      "4/2026</w>"
    ],
    [
      "6",
      ",</w>"
    ],
    [
      "7",
      ",</w>"
    ],
    [
      "3/1",
      "9/2026</w>"
    ],
    [
      "9",
      "@example.com</w>"
    ],
    [
      "4/10",
      "/2026</w>"
    ],
    [
      "2",
      "3"
    ],
    [
      "4/",
      "4/2026</w>"
    ],
    [
      "3/1",
      "7/2026</w>"
    ],
    [
      "15",
      ":00.</w>"
    ],
    [
      "10",
      ":00.</w>"
    ],
    [
      "Ananya",
      ",</w>"
    ],
    [
      "(Arjun",
      ")</w>"
    ],
    [
      "5",
      "5"
    ],
    [
      "Karthik",
      ".</w>"
    ],
    [
      "3/",
      "5.</w>"
    ],
    [
      "Ravi",
      ",</w>"
    ],
    [
      "2",
      ",</w>"
    ],
    [
      "3",
      ",</w>"
    ],
    [
      "vikra",
      "m"
    ],
    [
      "4/",
      "3/2026.</w>"
    ],
    [
      "ra",
      "vi"
    ],
    [
      "3/2",
      "7/2026.</w>"
    ],
    [
      "4/12",
      "/2026</w>"
    ],
    [
      "0",
      "@example.com</w>"
    ],
    [
      "8",
      ",</w>"
    ],
    [
      "11",
      ":00</w>"
    ],
    [
      "18",
      ":30.</w>"
    ],
    [
      "18",
      ":00</w>"
    ],
    [
      "15",
      ":30.</w>"
    ],
    [
      "custom",
      "er"
    ],
    [
      "1",
      ".</w>"
    ],
    [
      "anany",
      "a?</w>"
    ],
    [
      "6",
      "4"
    ],
    [
      "9",
      ".</w>"
    ],
    [
      "a",
      "):</w>"
    ],
    [
      "1",
      ":</w>"
    ],
    [
      "2",
      ":</w>"
    ],
    [
      "4/1",
      "6/2026.</w>"
    ],
    [
      "3",
      ":</w>"
    ],
    [
      "Divy",
      "a"
    ],
    [
      "4",
      ":</w>"
    ],
    [
      "8",
      "0"
    ],
    [
      "5",
      ":</w>"
    ],
    [
      "3/",
      "30/2026.</w>"
    ],
    [
      "4/",
      "8/2026</w>"
    ],
    [
      "4/",
      "6/2026.</w>"
    ],
    [
      "6",
      ":</w>"
    ],
    [
      "7",
      ":</w>"
    ],
    [
      "8",
      ":</w>"
    ],
    [
      "9",
      ":</w>"
    ],
    [
      "0",
      ":</w>"
    ],
    [
      "4/",
      "7/2026</w>"
    ],
    [
      "enq0",
      "2"
    ],
    [
      "7",
      "6"
    ],
    [
      "enq0",
      "4"
    ],
    [
      "enq0",
      "5"
    ],
    [
      "enq0",
      "6"
    ],
    [
      "enq0",
      "7"
    ],
    [
      "enq0",
      "8"
    ],
    [
      "1",
      "/5.</w>"
    ],
    [
      "(",
      "s"
    ],
    [
      "arjun",
      "?</w>"
    ],
    [
      "4",
      ".</w>"
    ],
    [
      "City",
      ",</w>"
    ],
    [
      "7",
      ".</w>"
    ],
    [
      "2",
      "@example.com</w>"
    ],
    [
      "3",
      "@example.com</w>"
    ],
    [
      "4",
      "@example.com</w>"
    ],
    [
      "6",
      "@example.com</w>"
    ],
    [
      "7",
      "@example.com</w>"
    ],
    [
      "8",
      "@example.com</w>"
    ],
    [
      "enq0",
      "3"
    ],
    [
      "enq0",
      "0"
    ],
    [
      "3/2",
      "8/2026.</w>"
    ],
    [
      "3",
      "/20/2026.</w>"
    ],
    [
      "Ananya",
      ".</w>"
    ],
    [
      "sne",
      "ha"
    ],
    [
      "customer",
      "(s"
    ],
    [
      "2",
      ".</w>"
    ],
    [
      "3",
      ".</w>"
    ],
    [
      "8",
      "8"
    ],
    [
      "(ENQ0",
      "1"
    ],
    [
      "93",
      "6"
    ],
    [
      "5",
      "4"
    ],
    [
      "4/1",
      "/2026.</w>"
    ],
    [
      "3/2",
      "9/2026</w>"
    ],
    [
      "Karthik",
      ":</w>"
    ],
    [
      "4/",
      "9/2026.</w>"
    ],
    [
      "8",
      ".</w>"
    ],
    [
      "7",
      "9"
    ],
    [
      "4/2",
      "1/2026.</w>"
    ],
    [
      "4/1",
      "4/2026</w>"
    ],
    [
      "5",
      "@example.com</w>"
    ],
    [
      "16",
      ":30.</w>"
    ],
    [
      "12",
      ":00</w>"
    ],
    [
      "10",
      ":30.</w>"
    ],
    [
      "Wh",
      "o</w>"
    ],
    [
      "customer(s",
      ")</w>"
    ],
    [
      "Nexon",
      "?</w>"
    ],
    [
      "vikram",
      "?</w>"
    ],
    [
      "i20",
      "?</w>"
    ],
    [
      "Nexon",
      "):</w>"
    ],
    [
      "i20",
      "):</w>"
    ],
    [
      "ravi",
      "?</w>"
    ],
    [
      "5",
      "):</w>"
    ],
    [
      "Arjun",
      ",</w>"
    ],
    [
      "City",
      "?</w>"
    ],
    [
      "4/",
      "5/2026</w>"
    ],
    [
      "3/1",
      "8/2026.</w>"
    ],
    [
      "4/1",
      "5/2026.</w>"
    ],
    [
      "4/1",
      "3/2026</w>"
    ],
    [
      "3/2",
      "6/2026.</w>"
    ],
    [
      "3/2",
      "3/2026</w>"
    ],
    [
      "Vikram",
      ",</w>"
    ],
    [
      "Karthik",
      ",</w>"
    ],
    [
      "2",
      "0"
    ],
    [
      "City",
      "):</w>"
    ],
    [
      "Seltos",
      "?</w>"
    ],
    [
      "98",
      "4"
    ],
    [
      "6",
      "3"
    ],
    [
      "5",
      "7"
    ],
    [
      "8",
      "6"
    ],
    [
      "1",
      "9"
    ],
    [
      "96",
      "5"
    ],
    [
      "93",
      "3"
    ],
    [
      "92",
      "2"
    ],
    [
      "4",
      "/20/2026.</w>"
    ],
    [
      "1",
      "):</w>"
    ],
    [
      "i20",
      ",</w>"
    ],
    [
      "2",
      "):</w>"
    ],
    [
      "14",
      ":30.</w>"
    ],
    [
      "3",
      "):</w>"
    ],
    [
      "16",
      ":00.</w>"
    ],
    [
      "4",
      "):</w>"
    ],
    [
      "14",
      ":00.</w>"
    ],
    [
      "13",
      ":30.</w>"
    ],
    [
      "6",
      "):</w>"
    ],
    [
      "7",
      "):</w>"
    ],
    [
      "8",
      "):</w>"
    ],
    [
      "9",
      "):</w>"
    ],
    [
      "0",
      "):</w>"
    ],
    [
      "17",
      ":00.</w>"
    ],
    [
      "17",
      ":30.</w>"
    ],
    [
      "5/2",
      "/2026</w>"
    ],
    [
      "Seltos",
      "):</w>"
    ],
    [
      "5",
      "6"
    ],
    [
      "divy",
      "a?</w>"
    ],
    [
      "meer",
      "a?</w>"
    ],
    [
      "Swift",
      ",</w>"
    ],
    [
      "ENQ00",
      "1</w>"
    ],
    [
      "4/2",
      "/2026</w>"
    ],
    [
      "ENQ00",
      "2</w>"
    ],
    [
      "ENQ00",
      "3</w>"
    ],
    [
      "ENQ00",
      "4</w>"
    ],
    [
      "ENQ00",
      "5</w>"
    ],
    [
      "4/",
      "8/2026.</w>"
    ],
    [
      "ENQ00",
      "6</w>"
    ],
    [
      "ENQ00",
      "7</w>"
    ],
    [
      "ENQ00",
      "8</w>"
    ],
    [
      "ENQ00",
      "9</w>"
    ],
    [
      "ENQ01",
      "0</w>"
    ],
    [
      "3/2",
      "5/2026.</w>"
    ],
    [
      "3/2",
      "1/2026.</w>"
    ],
    [
      "ENQ01",
      "1</w>"
    ],
    [
      "Swif",
      "t?</w>"
    ],
    [
      "ENQ01",
      "2</w>"
    ],
    [
      "ENQ01",
      "3</w>"
    ],
    [
      "4/10",
      "/2026.</w>"
    ],
    [
      "ENQ01",
      "4</w>"
    ],
    [
      "ENQ01",
      "5</w>"
    ],
    [
      "ENQ01",
      "6</w>"
    ],
    [
      "sneha",
      "?</w>"
    ],
    [
      "ENQ01",
      "7</w>"
    ],
    [
      "ENQ01",
      "8</w>"
    ],
    [
      "ENQ01",
      "9</w>"
    ],
    [
      "ENQ02",
      "0</w>"
    ],
    [
      "ENQ02",
      "1</w>"
    ],
    [
      "ENQ02",
      "2</w>"
    ],
    [
      "ENQ02",
      "3</w>"
    ],
    [
      "ENQ02",
      "4</w>"
    ],
    [
      "ENQ02",
      "5</w>"
    ],
    [
      "ENQ02",
      "6</w>"
    ],
    [
      "ENQ02",
      "7</w>"
    ],
    [
      "ENQ02",
      "8</w>"
    ],
    [
      "ENQ02",
      "9</w>"
    ],
    [
      "ENQ03",
      "0</w>"
    ],
    [
      "ENQ03",
      "1</w>"
    ],
    [
      "ENQ03",
      "2</w>"
    ],
    [
      "ENQ03",
      "3</w>"
    ],
    [
      "ENQ03",
      "4</w>"
    ],
    [
      "ENQ03",
      "5</w>"
    ],
    [
      "ENQ03",
      "6</w>"
    ],
    [
      "ENQ03",
      "7</w>"
    ],
    [
      "4/",
      "4/2026.</w>"
    ],
    [
      "ENQ03",
      "8</w>"
    ],
    [
      "ENQ03",
      "9</w>"
    ],
    [
      "ENQ04",
      "0</w>"
    ],
    [
      "ENQ04",
      "1</w>"
    ],
    [
      "ENQ04",
      "2</w>"
    ],
    [
      "ENQ04",
      "3</w>"
    ],
    [
      "ENQ04",
      "4</w>"
    ],
    [
      "ENQ04",
      "5</w>"
    ],
    [
      "ENQ04",
      "6</w>"
    ],
    [
      "ENQ04",
      "7</w>"
    ],
    [
      "ENQ04",
      "8</w>"
    ],
    [
      "ENQ04",
      "9</w>"
    ],
    [
      "ENQ05",
      "0</w>"
    ],
    [
      "ENQ05",
      "1</w>"
    ],
    [
      "ENQ05",
      "2</w>"
    ],
    [
      "ENQ05",
      "3</w>"
    ],
    [
      "ENQ05",
      "4</w>"
    ],
    [
      "ENQ05",
      "5</w>"
    ],
    [
      "ENQ05",
      "6</w>"
    ],
    [
      "ENQ05",
      "7</w>"
    ],
    [
      "ENQ05",
      "8</w>"
    ],
    [
      "ENQ05",
      "9</w>"
    ],
    [
      "ENQ06",
      "0</w>"
    ],
    [
      "ENQ06",
      "1</w>"
    ],
    [
      "ENQ06",
      "2</w>"
    ],
    [
      "ENQ06",
      "3</w>"
    ],
    [
      "ENQ06",
      "4</w>"
    ],
    [
      "ENQ06",
      "5</w>"
    ],
    [
      "ENQ06",
      "6</w>"
    ],
    [
      "ENQ06",
      "7</w>"
    ],
    [
      "ENQ06",
      "8</w>"
    ],
    [
      "ENQ06",
      "9</w>"
    ],
    [
      "ENQ07",
      "0</w>"
    ],
    [
      "ENQ07",
      "1</w>"
    ],
    [
      "ENQ07",
      "2</w>"
    ],
    [
      "ENQ07",
      "3</w>"
    ],
    [
      "ENQ07",
      "4</w>"
    ],
    [
      "ENQ07",
      "5</w>"
    ],
    [
      "ENQ07",
      "6</w>"
    ],
    [
      "ENQ07",
      "7</w>"
    ],
    [
      "ENQ07",
      "8</w>"
    ],
    [
      "ENQ07",
      "9</w>"
    ],
    [
      "ENQ08",
      "0</w>"
    ],
    [
      "ENQ08",
      "1</w>"
    ],
    [
      "ENQ08",
      "2</w>"
    ],
    [
      "ENQ08",
      "3</w>"
    ],
    [
      "ENQ08",
      "4</w>"
    ],
    [
      "ENQ08",
      "5</w>"
    ],
    [
      "ENQ08",
      "6</w>"
    ],
    [
      "ENQ08",
      "7</w>"
    ],
    [
      "ENQ08",
      "8</w>"
    ],
    [
      "ENQ08",
      "9</w>"
    ],
    [
      "ENQ09",
      "0</w>"
    ],
    [
      "ENQ09",
      "1</w>"
    ],
    [
      "ENQ09",
      "2</w>"
    ],
    [
      "ENQ09",
      "3</w>"
    ],
    [
      "ENQ09",
      "4</w>"
    ],
    [
      "ENQ09",
      "5</w>"
    ],
    [
      "ENQ09",
      "6</w>"
    ],
    [
      "ENQ09",
      "7</w>"
    ],
    [
      "ENQ09",
      "8</w>"
    ],
    [
      "ENQ09",
      "9</w>"
    ],
    [
      "ENQ10",
      "0</w>"
    ],
    [
      "arjun",
      "'s</w>"
    ],
    [
      "Nexon",
      ",</w>"
    ],
    [
      "Meera",
      ",</w>"
    ],
    [
      "Ravi",
      ".</w>"
    ],
    [
      "Swift",
      "):</w>"
    ],
    [
      "4/1",
      "8/2026.</w>"
    ],
    [
      "(Karthik",
      "):</w>"
    ],
    [
      "karth",
      "ik</w>"
    ],
    [
      "Ananya",
      ":</w>"
    ],
    [
      "enq0",
      "9"
    ],
    [
      "11",
      ":00.</w>"
    ],
    [
      "18",
      ":00.</w>"
    ],
    [
      "(Divy",
      "a):</w>"
    ],
    [
      "divy",
      "a</w>"
    ],
    [
      "4/",
      "5/2026.</w>"
    ],
    [
      "6",
      "8"
    ],
    [
      "96",
      "0"
    ],
    [
      "3",
      "4"
    ],
    [
      "7",
      "3"
    ],
    [
      "7",
      "0"
    ],
    [
      "4/1",
      "3/2026.</w>"
    ],
    [
      "30",
      "6"
    ],
    [
      "4/12",
      "/2026.</w>"
    ],
    [
      "95",
      "5"
    ],
    [
      "95",
      "6"
    ],
    [
      "95",
      "2"
    ],
    [
      "9",
      "92"
    ],
    [
      "anany",
      "a's</w>"
    ],
    [
      "karthik",
      "'s</w>"
    ],
    [
      "(Meer",
      "a):</w>"
    ],
    [
      "meer",
      "a</w>"
    ],
    [
      "Divya",
      ",</w>"
    ],
    [
      "Arjun",
      ".</w>"
    ],
    [
      "Vikram",
      ".</w>"
    ],
    [
      "ENQ10",
      "0)</w>"
    ],
    [
      "Seltos",
      ",</w>"
    ],
    [
      "5/",
      "3/2026</w>"
    ],
    [
      "5/",
      "5/2026.</w>"
    ],
    [
      "4/",
      "30/2026.</w>"
    ],
    [
      "5/",
      "6/2026.</w>"
    ],
    [
      "5/",
      "4/2026.</w>"
    ],
    [
      "Vikram",
      ":</w>"
    ],
    [
      "4/2",
      "/2026.</w>"
    ],
    [
      "3/2",
      "9/2026.</w>"
    ],
    [
      "3/2",
      "4/2026.</w>"
    ],
    [
      "3/1",
      "9/2026.</w>"
    ],
    [
      "4/",
      "7/2026.</w>"
    ],
    [
      "4/1",
      "4/2026.</w>"
    ],
    [
      "3/",
      "3"
    ],
    [
      "3/1",
      "7/2026.</w>"
    ],
    [
      "divy",
      "a's</w>"
    ],
    [
      "12",
      ":00.</w>"
    ],
    [
      "(Sneha",
      "):</w>"
    ],
    [
      "sne",
      "ha</w>"
    ],
    [
      "(",
      "Ananya"
    ],
    [
      "(Ananya",
      "):</w>"
    ],
    [
      "anany",
      "a</w>"
    ],
    [
      "appointmen",
      "t"
    ],
    [
      "Arjun",
      ":</w>"
    ],
    [
      "Ravi",
      ":</w>"
    ],
    [
      "9",
      "1"
    ],
    [
      "Meera",
      ".</w>"
    ],
    [
      "enq0",
      "1"
    ],
    [
      "ravi",
      "'s</w>"
    ],
    [
      "meer",
      "a's</w>"
    ],
    [
      "13",
      ":00,</w>"
    ],
    [
      "(Vikram",
      "):</w>"
    ],
    [
      "vikra",
      "m</w>"
    ],
    [
      "9",
      "94"
    ],
    [
      "20",
      "6"
    ],
    [
      "8",
      "1"
    ],
    [
      "17",
      "2"
    ],
    [
      "97",
      "6"
    ],
    [
      "3",
      "3"
    ],
    [
      "96",
      "94"
    ],
    [
      "user",
      "9"
    ],
    [
      "17",
      "0"
    ],
    [
      "95",
      "8"
    ],
    [
      "Sneha",
      ":</w>"
    ],
    [
      "Sneha",
      ".</w>"
    ],
    [
      "9",
      "965"
    ],
    [
      "9",
      "95"
    ],
    [
      "92",
      "3"
    ],
    [
      "98",
      "0"
    ],
    [
      "98",
      "8"
    ],
    [
      "2",
      "94"
    ],
    [
      "2",
      "5"
    ],
    [
      "14",
      "8"
    ],
    [
      "7",
      "4"
    ],
    [
      "93",
      "94"
    ],
    [
      "35",
      "44"
    ],
    [
      "94",
      "0"
    ],
    [
      "98",
      "2"
    ],
    [
      "98",
      "94"
    ],
    [
      "18",
      "3"
    ],
    [
      "93",
      "5"
    ],
    [
      "78",
      "4"
    ],
    [
      "5",
      "9"
    ],
    [
      "0",
      "23"
    ],
    [
      "98",
      "936"
    ],
    [
      "95",
      "86"
    ],
    [
      "4",
      "57"
    ],
    [
      "vikram",
      "'s</w>"
    ],
    [
      "(",
      "and</w>"
    ],
    [
      "m",
      "ore"
    ],
    [
      "more",
      ")</w>"
    ],
    [
      "(ENQ0",
      "10"
    ],
    [
      "(ENQ0",
      "13"
    ],
    [
      "(ENQ0",
      "14"
    ],
    [
      "(ENQ0",
      "15"
    ],
    [
      "(ENQ0",
      "16"
    ],
    [
      "(ENQ0",
      "17"
    ],
    [
      "(ENQ0",
      "18"
    ],
    [
      "3/2",
      "3/2026.</w>"
    ],
    [
      "(ENQ0",
      "30"
    ],
    [
      "1",
      "5</w>"
    ],
    [
      "(ENQ0",
      "93"
    ],
    [
      "(ENQ0",
      "94"
    ],
    [
      "(ENQ0",
      "95"
    ],
    [
      "(ENQ0",
      "98"
    ],
    [
      "15",
      ":00,</w>"
    ],
    [
      "10",
      ":00,</w>"
    ],
    [
      "(Ravi",
      "):</w>"
    ],
    [
      "ra",
      "vi</w>"
    ],
    [
      "ha",
      "ve</w>"
    ],
    [
      "(ENQ00",
      "1)</w>"
    ],
    [
      "0",
      "@example.com.</w>"
    ],
    [
      "(ENQ00",
      "2)</w>"
    ],
    [
      "1",
      "@example.com.</w>"
    ],
    [
      "(ENQ00",
      "3)</w>"
    ],
    [
      "Divya",
      ".</w>"
    ],
    [
      "(ENQ00",
      "4)</w>"
    ],
    [
      "(ENQ00",
      "5)</w>"
    ],
    [
      "(ENQ00",
      "6)</w>"
    ],
    [
      "(ENQ00",
      "7)</w>"
    ],
    [
      "(ENQ00",
      "8)</w>"
    ],
    [
      "(ENQ00",
      "9)</w>"
    ],
    [
      "(ENQ010",
      ")</w>"
    ],
    [
      "(ENQ01",
      "1)</w>"
    ],
    [
      "Meera",
      ":</w>"
    ],
    [
      "(ENQ01",
      "2)</w>"
    ],
    [
      "(ENQ013",
      ")</w>"
    ],
    [
      "(ENQ014",
      ")</w>"
    ],
    [
      "(ENQ015",
      ")</w>"
    ],
    [
      "(ENQ016",
      ")</w>"
    ],
    [
      "(ENQ017",
      ")</w>"
    ],
    [
      "(ENQ018",
      ")</w>"
    ],
    [
      "(ENQ01",
      "9)</w>"
    ],
    [
      "(ENQ02",
      "0)</w>"
    ],
    [
      "(ENQ02",
      "1)</w>"
    ],
    [
      "(ENQ02",
      "2)</w>"
    ],
    [
      "(ENQ02",
      "3)</w>"
    ],
    [
      "22",
      "2"
    ],
    [
      "(ENQ02",
      "4)</w>"
    ],
    [
      "(ENQ02",
      "5)</w>"
    ],
    [
      "(ENQ02",
      "6)</w>"
    ],
    [
      "(ENQ02",
      "7)</w>"
    ],
    [
      "(ENQ02",
      "8)</w>"
    ],
    [
      "(ENQ02",
      "9)</w>"
    ],
    [
      "(ENQ030",
      ")</w>"
    ],
    [
      "(ENQ03",
      "1)</w>"
    ],
    [
      "(ENQ03",
      "2)</w>"
    ],
    [
      "(ENQ03",
      "3)</w>"
    ],
    [
      "(ENQ03",
      "4)</w>"
    ],
    [
      "(ENQ03",
      "5)</w>"
    ],
    [
      "(ENQ03",
      "6)</w>"
    ],
    [
      "(ENQ03",
      "7)</w>"
    ],
    [
      "(ENQ03",
      "8)</w>"
    ],
    [
      "(ENQ03",
      "9)</w>"
    ],
    [
      "(ENQ04",
      "0)</w>"
    ],
    [
      "(ENQ04",
      "1)</w>"
    ],
    [
      "(ENQ04",
      "2)</w>"
    ],
    [
      "(ENQ04",
      "3)</w>"
    ],
    [
      "(ENQ04",
      "4)</w>"
    ],
    [
      "(ENQ04",
      "5)</w>"
    ],
    [
      "(ENQ04",
      "6)</w>"
    ],
    [
      "(ENQ04",
      "7)</w>"
    ],
    [
      "(ENQ04",
      "8)</w>"
    ],
    [
      "(ENQ04",
      "9)</w>"
    ],
    [
      "(ENQ05",
      "0)</w>"
    ],
    [
      "(ENQ05",
      "1)</w>"
    ],
    [
      "(ENQ05",
      "2)</w>"
    ],
    [
      "(ENQ05",
      "3)</w>"
    ],
    [
      "(ENQ05",
      "4)</w>"
    ],
    [
      "(ENQ05",
      "5)</w>"
    ],
    [
      "(ENQ05",
      "6)</w>"
    ],
    [
      "(ENQ05",
      "7)</w>"
    ],
    [
      "(ENQ05",
      "8)</w>"
    ],
    [
      "(ENQ05",
      "9)</w>"
    ],
    [
      "(ENQ06",
      "0)</w>"
    ],
    [
      "(ENQ06",
      "1)</w>"
    ],
    [
      "(ENQ06",
      "2)</w>"
    ],
    [
      "(ENQ06",
      "3)</w>"
    ],
    [
      "(ENQ06",
      "4)</w>"
    ],
    [
      "(ENQ06",
      "5)</w>"
    ],
    [
      "(ENQ06",
      "6)</w>"
    ],
    [
      "(ENQ06",
      "7)</w>"
    ],
    [
      "(ENQ06",
      "8)</w>"
    ],
    [
      "(ENQ06",
      "9)</w>"
    ],
    [
      "(ENQ07",
      "0)</w>"
    ],
    [
      "(ENQ07",
      "1)</w>"
    ],
    [
      "(ENQ07",
      "2)</w>"
    ],
    [
      "(ENQ07",
      "3)</w>"
    ],
    [
      "(ENQ07",
      "4)</w>"
    ],
    [
      "(ENQ07",
      "5)</w>"
    ],
    [
      "(ENQ07",
      "6)</w>"
    ],
    [
      "(ENQ07",
      "7)</w>"
    ],
    [
      "(ENQ07",
      "8)</w>"
    ],
    [
      "(ENQ07",
      "9)</w>"
    ],
    [
      "(ENQ08",
      "0)</w>"
    ],
    [
      "(ENQ08",
      "1)</w>"
    ],
    [
      "(ENQ08",
      "2)</w>"
    ],
    [
      "(ENQ08",
      "3)</w>"
    ],
    [
      "(ENQ08",
      "4)</w>"
    ],
    [
      "(ENQ08",
      "5)</w>"
    ],
    [
      "(ENQ08",
      "6)</w>"
    ],
    [
      "(ENQ08",
      "7)</w>"
    ],
    [
      "(ENQ08",
      "8)</w>"
    ],
    [
      "(ENQ08",
      "9)</w>"
    ],
    [
      "(ENQ09",
      "0)</w>"
    ],
    [
      "(ENQ09",
      "1)</w>"
    ],
    [
      "(ENQ09",
      "2)</w>"
    ],
    [
      "(ENQ093",
      ")</w>"
    ],
    [
      "(ENQ094",
      ")</w>"
    ],
    [
      "(ENQ095",
      ")</w>"
    ],
    [
      "(ENQ09",
      "6)</w>"
    ],
    [
      "(ENQ09",
      "7)</w>"
    ],
    [
      "(ENQ098",
      ")</w>"
    ],
    [
      "(ENQ09",
      "9)</w>"
    ],
    [
      "(",
      "ENQ100)</w>"
    ],
    [
      "18",
      ":30,</w>"
    ],
    [
      "sneha",
      "'s</w>"
    ],
    [
      "15",
      ":30,</w>"
    ],
    [
      "11",
      ":30</w>"
    ],
    [
      "12",
      ":30</w>"
    ],
    [
      "(Arjun",
      "):</w>"
    ],
    [
      "arj",
      "un</w>"
    ],
    [
      "Sneha",
      ",</w>"
    ],
    [
      "Divya",
      ":</w>"
    ],
    [
      "19",
      "11"
    ],
    [
      "2",
      "@example.com.</w>"
    ],
    [
      "3",
      "@example.com.</w>"
    ],
    [
      "4",
      "@example.com.</w>"
    ],
    [
      "6",
      "@example.com.</w>"
    ],
    [
      "9",
      "97"
    ],
    [
      "7",
      "@example.com.</w>"
    ],
    [
      "8",
      "@example.com.</w>"
    ],
    [
      "9",
      "@example.com.</w>"
    ],
    [
      "2",
      "15"
    ],
    [
      "2",
      "5</w>"
    ],
    [
      "ENQ00",
      "1)</w>"
    ],
    [
      "ENQ00",
      "2)</w>"
    ],
    [
      "9",
      "8</w>"
    ],
    [
      "ENQ00",
      "3)</w>"
    ],
    [
      "ENQ00",
      "4)</w>"
    ],
    [
      "ENQ00",
      "5)</w>"
    ],
    [
      "ENQ00",
      "6)</w>"
    ],
    [
      "ENQ00",
      "7)</w>"
    ],
    [
      "ENQ00",
      "8)</w>"
    ],
    [
      "9",
      "1</w>"
    ],
    [
      "ENQ00",
      "9)</w>"
    ],
    [
      "ENQ01",
      "0)</w>"
    ],
    [
      "18",
      "4</w>"
    ],
    [
      "ENQ01",
      "1)</w>"
    ],
    [
      "ENQ01",
      "2)</w>"
    ],
    [
      "ENQ01",
      "3)</w>"
    ],
    [
      "ENQ01",
      "4)</w>"
    ],
    [
      "3",
      "9</w>"
    ],
    [
      "ENQ01",
      "5)</w>"
    ],
    [
      "9",
      "0</w>"
    ],
    [
      "ENQ01",
      "6)</w>"
    ],
    [
      "ENQ01",
      "7)</w>"
    ],
    [
      "ENQ01",
      "8)</w>"
    ],
    [
      "ENQ01",
      "9)</w>"
    ],
    [
      "ENQ02",
      "0)</w>"
    ],
    [
      "ENQ02",
      "1)</w>"
    ],
    [
      "ENQ02",
      "2)</w>"
    ],
    [
      "ENQ02",
      "3)</w>"
    ],
    [
      "ENQ02",
      "4)</w>"
    ],
    [
      "3/3",
      "1/2026.</w>"
    ],
    [
      "ENQ02",
      "5)</w>"
    ],
    [
      "3/3",
      "1/2026</w>"
    ],
    [
      "ENQ02",
      "6)</w>"
    ],
    [
      "5",
      "@example.com.</w>"
    ],
    [
      "ENQ02",
      "7)</w>"
    ],
    [
      "ENQ02",
      "8)</w>"
    ],
    [
      "ENQ02",
      "9)</w>"
    ],
    [
      "ENQ03",
      "0)</w>"
    ],
    [
      "6",
      "1"
    ],
    [
      "ENQ03",
      "1)</w>"
    ],
    [
      "ENQ03",
      "2)</w>"
    ],
    [
      "ENQ03",
      "3)</w>"
    ],
    [
      "ENQ03",
      "4)</w>"
    ],
    [
      "ENQ03",
      "5)</w>"
    ],
    [
      "ENQ03",
      "6)</w>"
    ],
    [
      "ENQ03",
      "7)</w>"
    ],
    [
      "ENQ03",
      "8)</w>"
    ],
    [
      "ENQ03",
      "9)</w>"
    ],
    [
      "ENQ04",
      "0)</w>"
    ],
    [
      "ENQ04",
      "1)</w>"
    ],
    [
      "7",
      "7</w>"
    ],
    [
      "ENQ04",
      "2)</w>"
    ],
    [
      "7",
      "2</w>"
    ],
    [
      "ENQ04",
      "3)</w>"
    ],
    [
      "ENQ04",
      "4)</w>"
    ],
    [
      "ENQ04",
      "5)</w>"
    ],
    [
      "ENQ04",
      "6)</w>"
    ],
    [
      "ENQ04",
      "7)</w>"
    ],
    [
      "ENQ04",
      "8)</w>"
    ],
    [
      "ENQ04",
      "9)</w>"
    ],
    [
      "ENQ05",
      "0)</w>"
    ],
    [
      "ENQ05",
      "1)</w>"
    ],
    [
      "ENQ05",
      "2)</w>"
    ],
    [
      "ENQ05",
      "3)</w>"
    ],
    [
      "7",
      "96"
    ],
    [
      "ENQ05",
      "4)</w>"
    ],
    [
      "ENQ05",
      "5)</w>"
    ],
    [
      "1",
      "3</w>"
    ],
    [
      "ENQ05",
      "6)</w>"
    ],
    [
      "ENQ05",
      "7)</w>"
    ],
    [
      "ENQ05",
      "8)</w>"
    ],
    [
      "ENQ05",
      "9)</w>"
    ],
    [
      "ENQ06",
      "0)</w>"
    ],
    [
      "ENQ06",
      "1)</w>"
    ],
    [
      "ENQ06",
      "2)</w>"
    ],
    [
      "1",
      "2</w>"
    ],
    [
      "ENQ06",
      "3)</w>"
    ],
    [
      "ENQ06",
      "4)</w>"
    ],
    [
      "9",
      "9</w>"
    ],
    [
      "ENQ06",
      "5)</w>"
    ],
    [
      "ENQ06",
      "6)</w>"
    ],
    [
      "ENQ06",
      "7)</w>"
    ],
    [
      "ENQ06",
      "8)</w>"
    ],
    [
      "ENQ06",
      "9)</w>"
    ],
    [
      "ENQ07",
      "0)</w>"
    ],
    [
      "ENQ07",
      "1)</w>"
    ],
    [
      "ENQ07",
      "2)</w>"
    ],
    [
      "ENQ07",
      "3)</w>"
    ],
    [
      "ENQ07",
      "4)</w>"
    ],
    [
      "ENQ07",
      "5)</w>"
    ],
    [
      "ENQ07",
      "6)</w>"
    ],
    [
      "ENQ07",
      "7)</w>"
    ],
    [
      "ENQ07",
      "8)</w>"
    ],
    [
      "ENQ07",
      "9)</w>"
    ],
    [
      "ENQ08",
      "0)</w>"
    ],
    [
      "ENQ08",
      "1)</w>"
    ],
    [
      "ENQ08",
      "2)</w>"
    ],
    [
      "ENQ08",
      "3)</w>"
    ],
    [
      "ENQ08",
      "4)</w>"
    ],
    [
      "ENQ08",
      "5)</w>"
    ],
    [
      "ENQ08",
      "6)</w>"
    ],
    [
      "ENQ08",
      "7)</w>"
    ],
    [
      "ENQ08",
      "8)</w>"
    ],
    [
      "ENQ08",
      "9)</w>"
    ],
    [
      "ENQ09",
      "0)</w>"
    ],
    [
      "ENQ09",
      "1)</w>"
    ],
    [
      "ENQ09",
      "2)</w>"
    ],
    [
      "ENQ09",
      "3)</w>"
    ],
    [
      "ENQ09",
      "4)</w>"
    ],
    [
      "ENQ09",
      "5)</w>"
    ],
    [
      "ENQ09",
      "6)</w>"
    ],
    [
      "ENQ09",
      "7)</w>"
    ],
    [
      "ENQ09",
      "8)</w>"
    ],
    [
      "ENQ09",
      "9)</w>"
    ],
    [
      "16",
      ":30,</w>"
    ],
    [
      "10",
      ":30,</w>"
    ],
    [
      "ed",
      "'"
    ],
    [
      "customer",
      "s</w>"
    ],
    [
      "2",
      "2</w>"
    ],
    [
      "chos",
      "e</w>"
    ],
    [
      "al",
      "l</w>"
    ],
    [
      "ENQ00",
      "1?</w>"
    ],
    [
      "994",
      "5"
    ],
    [
      "9945",
      "206"
    ],
    [
      "9945206",
      "13"
    ],
    [
      "ENQ00",
      "2?</w>"
    ],
    [
      "93",
      "81"
    ],
    [
      "9381",
      "17"
    ],
    [
      "938117",
      "78"
    ],
    [
      "ENQ00",
      "3?</w>"
    ],
    [
      "984",
      "56"
    ],
    [
      "98456",
      "6"
    ],
    [
      "984566",
      "12"
    ],
    [
      "ENQ00",
      "4?</w>"
    ],
    [
      "94",
      "64"
    ],
    [
      "9464",
      "22"
    ],
    [
      "946422",
      "80"
    ],
    [
      "94642280",
      "8"
    ],
    [
      "ENQ00",
      "5?</w>"
    ],
    [
      "95",
      "172"
    ],
    [
      "95172",
      "63"
    ],
    [
      "9517263",
      "14"
    ],
    [
      "ENQ00",
      "6?</w>"
    ],
    [
      "976",
      "93"
    ],
    [
      "97693",
      "93"
    ],
    [
      "9769393",
      "64"
    ],
    [
      "ENQ00",
      "7?</w>"
    ],
    [
      "976",
      "68"
    ],
    [
      "97668",
      "2"
    ],
    [
      "976682",
      "88"
    ],
    [
      "97668288",
      "2"
    ],
    [
      "ENQ00",
      "8?</w>"
    ],
    [
      "91",
      "13"
    ],
    [
      "9113",
      "57"
    ],
    [
      "911357",
      "33"
    ],
    [
      "ENQ00",
      "9?</w>"
    ],
    [
      "984",
      "12"
    ],
    [
      "98412",
      "9694"
    ],
    [
      "ENQ01",
      "0?</w>"
    ],
    [
      "95",
      "80"
    ],
    [
      "9580",
      "80"
    ],
    [
      "958080",
      "6"
    ],
    [
      "ENQ01",
      "1?</w>"
    ],
    [
      "936",
      "170"
    ],
    [
      "936170",
      "960"
    ],
    [
      "user",
      "10"
    ],
    [
      "ENQ01",
      "2?</w>"
    ],
    [
      "98",
      "16"
    ],
    [
      "9816",
      "4"
    ],
    [
      "98164",
      "34"
    ],
    [
      "9816434",
      "97"
    ],
    [
      "user",
      "11"
    ],
    [
      "ENQ01",
      "3?</w>"
    ],
    [
      "93",
      "73"
    ],
    [
      "9373",
      "79"
    ],
    [
      "937379",
      "0"
    ],
    [
      "9373790",
      "70"
    ],
    [
      "user",
      "12"
    ],
    [
      "ENQ01",
      "4?</w>"
    ],
    [
      "98",
      "63"
    ],
    [
      "9863",
      "86"
    ],
    [
      "986386",
      "23"
    ],
    [
      "user",
      "13"
    ],
    [
      "ENQ01",
      "5?</w>"
    ],
    [
      "92",
      "35"
    ],
    [
      "9235",
      "1911"
    ],
    [
      "user",
      "14"
    ],
    [
      "ENQ01",
      "6?</w>"
    ],
    [
      "958",
      "936"
    ],
    [
      "958936",
      "64"
    ],
    [
      "95893664",
      "3"
    ],
    [
      "user",
      "15"
    ],
    [
      "ENQ01",
      "7?</w>"
    ],
    [
      "965",
      "9965"
    ],
    [
      "9659965",
      "93"
    ],
    [
      "user",
      "16"
    ],
    [
      "ENQ01",
      "8?</w>"
    ],
    [
      "960",
      "984"
    ],
    [
      "960984",
      "1"
    ],
    [
      "9609841",
      "17"
    ],
    [
      "user",
      "17"
    ],
    [
      "ENQ01",
      "9?</w>"
    ],
    [
      "995",
      "13"
    ],
    [
      "99513",
      "16"
    ],
    [
      "9951316",
      "5"
    ],
    [
      "99513165",
      "3"
    ],
    [
      "user",
      "18"
    ],
    [
      "ENQ02",
      "0?</w>"
    ],
    [
      "94",
      "6"
    ],
    [
      "946",
      "0"
    ],
    [
      "9460",
      "78"
    ],
    [
      "946078",
      "10"
    ],
    [
      "94607810",
      "4"
    ],
    [
      "ENQ02",
      "1?</w>"
    ],
    [
      "994",
      "4"
    ],
    [
      "9944",
      "10"
    ],
    [
      "994410",
      "10"
    ],
    [
      "ENQ02",
      "2?</w>"
    ],
    [
      "923",
      "35"
    ],
    [
      "92335",
      "10"
    ],
    [
      "ENQ02",
      "3?</w>"
    ],
    [
      "980",
      "17"
    ],
    [
      "98017",
      "8"
    ],
    [
      "ENQ02",
      "4?</w>"
    ],
    [
      "988",
      "206"
    ],
    [
      "988206",
      "20"
    ],
    [
      "ENQ02",
      "5?</w>"
    ],
    [
      "9",
      "306"
    ],
    [
      "9306",
      "30"
    ],
    [
      "930630",
      "76"
    ],
    [
      "93063076",
      "7"
    ],
    [
      "ENQ02",
      "6?</w>"
    ],
    [
      "97",
      "955"
    ],
    [
      "97955",
      "3"
    ],
    [
      "979553",
      "13"
    ],
    [
      "ENQ02",
      "7?</w>"
    ],
    [
      "98",
      "93"
    ],
    [
      "9893",
      "23"
    ],
    [
      "989323",
      "4"
    ],
    [
      "9893234",
      "95"
    ],
    [
      "ENQ02",
      "8?</w>"
    ],
    [
      "995",
      "54"
    ],
    [
      "99554",
      "86"
    ],
    [
      "ENQ02",
      "9?</w>"
    ],
    [
      "955",
      "22"
    ],
    [
      "95522",
      "0"
    ],
    [
      "955220",
      "35"
    ],
    [
      "95522035",
      "2"
    ],
    [
      "ENQ03",
      "0?</w>"
    ],
    [
      "933",
      "294"
    ],
    [
      "933294",
      "3"
    ],
    [
      "ENQ03",
      "1?</w>"
    ],
    [
      "922",
      "64"
    ],
    [
      "92264",
      "25"
    ],
    [
      "9226425",
      "64"
    ],
    [
      "user",
      "30"
    ],
    [
      "ENQ03",
      "2?</w>"
    ],
    [
      "9",
      "148"
    ],
    [
      "9148",
      "12"
    ],
    [
      "914812",
      "44"
    ],
    [
      "91481244",
      "4"
    ],
    [
      "ENQ03",
      "3?</w>"
    ],
    [
      "93",
      "79"
    ],
    [
      "9379",
      "17"
    ],
    [
      "937917",
      "7"
    ],
    [
      "9379177",
      "92"
    ],
    [
      "ENQ03",
      "4?</w>"
    ],
    [
      "922",
      "78"
    ],
    [
      "92278",
      "170"
    ],
    [
      "ENQ03",
      "5?</w>"
    ],
    [
      "936",
      "6"
    ],
    [
      "9366",
      "294"
    ],
    [
      "9366294",
      "97"
    ],
    [
      "ENQ03",
      "6?</w>"
    ],
    [
      "95",
      "0"
    ],
    [
      "950",
      "30"
    ],
    [
      "95030",
      "54"
    ],
    [
      "9503054",
      "7"
    ],
    [
      "95030547",
      "5"
    ],
    [
      "user",
      "35"
    ],
    [
      "ENQ03",
      "7?</w>"
    ],
    [
      "94",
      "35"
    ],
    [
      "9435",
      "55"
    ],
    [
      "943555",
      "74"
    ],
    [
      "ENQ03",
      "8?</w>"
    ],
    [
      "9394",
      "960"
    ],
    [
      "9394960",
      "96"
    ],
    [
      "ENQ03",
      "9?</w>"
    ],
    [
      "958",
      "4"
    ],
    [
      "9584",
      "74"
    ],
    [
      "958474",
      "80"
    ],
    [
      "95847480",
      "0"
    ],
    [
      "ENQ04",
      "0?</w>"
    ],
    [
      "93",
      "44"
    ],
    [
      "9344",
      "0"
    ],
    [
      "93440",
      "54"
    ],
    [
      "ENQ04",
      "1?</w>"
    ],
    [
      "94",
      "76"
    ],
    [
      "9476",
      "73"
    ],
    [
      "947673",
      "22"
    ],
    [
      "ENQ04",
      "2?</w>"
    ],
    [
      "96",
      "2"
    ],
    [
      "962",
      "61"
    ],
    [
      "96261",
      "306"
    ],
    [
      "ENQ04",
      "3?</w>"
    ],
    [
      "99",
      "10"
    ],
    [
      "9910",
      "6"
    ],
    [
      "99106",
      "3544"
    ],
    [
      "ENQ04",
      "4?</w>"
    ],
    [
      "940",
      "5"
    ],
    [
      "9405",
      "222"
    ],
    [
      "9405222",
      "30"
    ],
    [
      "ENQ04",
      "5?</w>"
    ],
    [
      "99",
      "92"
    ],
    [
      "9992",
      "80"
    ],
    [
      "999280",
      "2"
    ],
    [
      "9992802",
      "73"
    ],
    [
      "ENQ04",
      "6?</w>"
    ],
    [
      "99",
      "0"
    ],
    [
      "990",
      "5"
    ],
    [
      "9905",
      "982"
    ],
    [
      "9905982",
      "95"
    ],
    [
      "ENQ04",
      "7?</w>"
    ],
    [
      "98",
      "55"
    ],
    [
      "9855",
      "3"
    ],
    [
      "98553",
      "76"
    ],
    [
      "9855376",
      "5"
    ],
    [
      "98553765",
      "2"
    ],
    [
      "ENQ04",
      "8?</w>"
    ],
    [
      "9894",
      "2"
    ],
    [
      "98942",
      "4"
    ],
    [
      "989424",
      "982"
    ],
    [
      "ENQ04",
      "9?</w>"
    ],
    [
      "93",
      "183"
    ],
    [
      "93183",
      "16"
    ],
    [
      "9318316",
      "6"
    ],
    [
      "93183166",
      "5"
    ],
    [
      "ENQ05",
      "0?</w>"
    ],
    [
      "956",
      "10"
    ],
    [
      "95610",
      "5"
    ],
    [
      "956105",
      "952"
    ],
    [
      "ENQ05",
      "1?</w>"
    ],
    [
      "980",
      "35"
    ],
    [
      "98035",
      "70"
    ],
    [
      "ENQ05",
      "2?</w>"
    ],
    [
      "95",
      "10"
    ],
    [
      "9510",
      "78"
    ],
    [
      "951078",
      "6"
    ],
    [
      "9510786",
      "92"
    ],
    [
      "ENQ05",
      "3?</w>"
    ],
    [
      "9",
      "15"
    ],
    [
      "915",
      "0"
    ],
    [
      "9150",
      "63"
    ],
    [
      "915063",
      "796"
    ],
    [
      "ENQ05",
      "4?</w>"
    ],
    [
      "92",
      "34"
    ],
    [
      "9234",
      "3"
    ],
    [
      "92343",
      "23"
    ],
    [
      "9234323",
      "35"
    ],
    [
      "ENQ05",
      "5?</w>"
    ],
    [
      "992",
      "5"
    ],
    [
      "9925",
      "3544"
    ],
    [
      "ENQ05",
      "6?</w>"
    ],
    [
      "94",
      "79"
    ],
    [
      "9479",
      "306"
    ],
    [
      "9479306",
      "56"
    ],
    [
      "ENQ05",
      "7?</w>"
    ],
    [
      "992",
      "13"
    ],
    [
      "99213",
      "3"
    ],
    [
      "992133",
      "88"
    ],
    [
      "99213388",
      "5"
    ],
    [
      "ENQ05",
      "8?</w>"
    ],
    [
      "922",
      "4"
    ],
    [
      "9224",
      "70"
    ],
    [
      "ENQ05",
      "9?</w>"
    ],
    [
      "935",
      "44"
    ],
    [
      "93544",
      "18"
    ],
    [
      "9354418",
      "79"
    ],
    [
      "ENQ06",
      "0?</w>"
    ],
    [
      "92",
      "5"
    ],
    [
      "925",
      "956"
    ],
    [
      "925956",
      "2"
    ],
    [
      "ENQ06",
      "1?</w>"
    ],
    [
      "98",
      "7"
    ],
    [
      "987",
      "7"
    ],
    [
      "9877",
      "13"
    ],
    [
      "987713",
      "784"
    ],
    [
      "ENQ06",
      "2?</w>"
    ],
    [
      "94",
      "784"
    ],
    [
      "94784",
      "59"
    ],
    [
      "9478459",
      "0"
    ],
    [
      "ENQ06",
      "3?</w>"
    ],
    [
      "94",
      "92"
    ],
    [
      "9492",
      "0"
    ],
    [
      "94920",
      "4"
    ],
    [
      "949204",
      "8"
    ],
    [
      "9492048",
      "7"
    ],
    [
      "ENQ06",
      "4?</w>"
    ],
    [
      "922",
      "7"
    ],
    [
      "9227",
      "44"
    ],
    [
      "922744",
      "5"
    ],
    [
      "9227445",
      "8"
    ],
    [
      "ENQ06",
      "5?</w>"
    ],
    [
      "97",
      "14"
    ],
    [
      "9714",
      "55"
    ],
    [
      "971455",
      "5"
    ],
    [
      "9714555",
      "88"
    ],
    [
      "ENQ06",
      "6?</w>"
    ],
    [
      "94",
      "215"
    ],
    [
      "94215",
      "19"
    ],
    [
      "9421519",
      "18"
    ],
    [
      "ENQ06",
      "7?</w>"
    ],
    [
      "9",
      "18"
    ],
    [
      "918",
      "023"
    ],
    [
      "918023",
      "33"
    ],
    [
      "ENQ06",
      "8?</w>"
    ],
    [
      "95",
      "13"
    ],
    [
      "9513",
      "1"
    ],
    [
      "95131",
      "13"
    ],
    [
      "9513113",
      "4"
    ],
    [
      "ENQ06",
      "9?</w>"
    ],
    [
      "97",
      "98936"
    ],
    [
      "9798936",
      "94"
    ],
    [
      "ENQ07",
      "0?</w>"
    ],
    [
      "92",
      "17"
    ],
    [
      "9217",
      "12"
    ],
    [
      "921712",
      "88"
    ],
    [
      "92171288",
      "7"
    ],
    [
      "ENQ07",
      "1?</w>"
    ],
    [
      "9586",
      "55"
    ],
    [
      "958655",
      "0"
    ],
    [
      "9586550",
      "94"
    ],
    [
      "ENQ07",
      "2?</w>"
    ],
    [
      "95",
      "98936"
    ],
    [
      "9598936",
      "0"
    ],
    [
      "ENQ07",
      "3?</w>"
    ],
    [
      "933",
      "76"
    ],
    [
      "93376",
      "64"
    ],
    [
      "9337664",
      "68"
    ],
    [
      "ENQ07",
      "4?</w>"
    ],
    [
      "94",
      "15"
    ],
    [
      "9415",
      "7"
    ],
    [
      "94157",
      "20"
    ],
    [
      "9415720",
      "8"
    ],
    [
      "94157208",
      "4"
    ],
    [
      "ENQ07",
      "5?</w>"
    ],
    [
      "94",
      "63"
    ],
    [
      "9463",
      "2"
    ],
    [
      "94632",
      "81"
    ],
    [
      "9463281",
      "18"
    ],
    [
      "ENQ07",
      "6?</w>"
    ],
    [
      "99",
      "15"
    ],
    [
      "9915",
      "183"
    ],
    [
      "ENQ07",
      "7?</w>"
    ],
    [
      "97",
      "023"
    ],
    [
      "97023",
      "8"
    ],
    [
      "970238",
      "18"
    ],
    [
      "ENQ07",
      "8?</w>"
    ],
    [
      "97",
      "96"
    ],
    [
      "9796",
      "6"
    ],
    [
      "97966",
      "14"
    ],
    [
      "9796614",
      "23"
    ],
    [
      "ENQ07",
      "9?</w>"
    ],
    [
      "91",
      "148"
    ],
    [
      "91148",
      "7"
    ],
    [
      "911487",
      "54"
    ],
    [
      "91148754",
      "0"
    ],
    [
      "ENQ08",
      "0?</w>"
    ],
    [
      "93",
      "4"
    ],
    [
      "934",
      "68"
    ],
    [
      "93468",
      "98"
    ],
    [
      "ENQ08",
      "1?</w>"
    ],
    [
      "9",
      "933"
    ],
    [
      "9933",
      "9694"
    ],
    [
      "ENQ08",
      "2?</w>"
    ],
    [
      "9394",
      "8"
    ],
    [
      "93948",
      "93"
    ],
    [
      "9394893",
      "25"
    ],
    [
      "ENQ08",
      "3?</w>"
    ],
    [
      "933",
      "3"
    ],
    [
      "9333",
      "12"
    ],
    [
      "933312",
      "7"
    ],
    [
      "9333127",
      "35"
    ],
    [
      "ENQ08",
      "4?</w>"
    ],
    [
      "97",
      "7"
    ],
    [
      "977",
      "18"
    ],
    [
      "97718",
      "6"
    ],
    [
      "977186",
      "99"
    ],
    [
      "97718699",
      "1"
    ],
    [
      "ENQ08",
      "5?</w>"
    ],
    [
      "99",
      "98"
    ],
    [
      "9998",
      "955"
    ],
    [
      "9998955",
      "13"
    ],
    [
      "ENQ08",
      "6?</w>"
    ],
    [
      "98",
      "1"
    ],
    [
      "981",
      "14"
    ],
    [
      "98114",
      "4"
    ],
    [
      "981144",
      "956"
    ],
    [
      "ENQ08",
      "7?</w>"
    ],
    [
      "988",
      "35"
    ],
    [
      "98835",
      "6"
    ],
    [
      "988356",
      "952"
    ],
    [
      "ENQ08",
      "8?</w>"
    ],
    [
      "9894",
      "997"
    ],
    [
      "9894997",
      "34"
    ],
    [
      "ENQ08",
      "9?</w>"
    ],
    [
      "965",
      "2"
    ],
    [
      "9652",
      "14"
    ],
    [
      "965214",
      "7"
    ],
    [
      "9652147",
      "56"
    ],
    [
      "ENQ09",
      "0?</w>"
    ],
    [
      "940",
      "2"
    ],
    [
      "9402",
      "35"
    ],
    [
      "940235",
      "172"
    ],
    [
      "ENQ09",
      "1?</w>"
    ],
    [
      "97",
      "88"
    ],
    [
      "9788",
      "22"
    ],
    [
      "978822",
      "992"
    ],
    [
      "ENQ09",
      "2?</w>"
    ],
    [
      "9586",
      "98"
    ],
    [
      "958698",
      "12"
    ],
    [
      "ENQ09",
      "3?</w>"
    ],
    [
      "95",
      "457"
    ],
    [
      "95457",
      "57"
    ],
    [
      "9545757",
      "5"
    ],
    [
      "user",
      "92"
    ],
    [
      "ENQ09",
      "4?</w>"
    ],
    [
      "952",
      "457"
    ],
    [
      "952457",
      "30"
    ],
    [
      "user",
      "93"
    ],
    [
      "ENQ09",
      "5?</w>"
    ],
    [
      "923",
      "8"
    ],
    [
      "9238",
      "44"
    ],
    [
      "923844",
      "76"
    ],
    [
      "92384476",
      "6"
    ],
    [
      "user",
      "94"
    ],
    [
      "ENQ09",
      "6?</w>"
    ],
    [
      "9965",
      "0"
    ],
    [
      "99650",
      "984"
    ],
    [
      "99650984",
      "6"
    ],
    [
      "user",
      "95"
    ],
    [
      "ENQ09",
      "7?</w>"
    ],
    [
      "96",
      "17"
    ],
    [
      "9617",
      "54"
    ],
    [
      "961754",
      "8"
    ],
    [
      "9617548",
      "59"
    ],
    [
      "user",
      "96"
    ],
    [
      "ENQ09",
      "8?</w>"
    ],
    [
      "95",
      "7"
    ],
    [
      "957",
      "55"
    ],
    [
      "95755",
      "2"
    ],
    [
      "957552",
      "80"
    ],
    [
      "95755280",
      "5"
    ],
    [
      "user",
      "97"
    ],
    [
      "ENQ09",
      "9?</w>"
    ],
    [
      "935",
      "94"
    ],
    [
      "93594",
      "96"
    ],
    [
      "9359496",
      "76"
    ],
    [
      "user",
      "98"
    ],
    [
      "ENQ10",
      "0?</w>"
    ],
    [
      "93",
      "55"
    ],
    [
      "9355",
      "95"
    ],
    [
      "935595",
      "78"
    ],
    [
      "user",
      "99"
    ],
    [
      "14",
      ":30,</w>"
    ],
    [
      "16",
      ":00,</w>"
    ],
    [
      "14",
      ":00,</w>"
    ],
    [
      "13",
      ":30,</w>"
    ],
    [
      "17",
      ":00,</w>"
    ],
    [
      "17",
      ":30,</w>"
    ],
    [
      "2",
      "6</w>"
    ],
    [
      "user",
      "0@example.com</w>"
    ],
    [
      "ENQ00",
      "1).</w>"
    ],
    [
      "user",
      "1@example.com</w>"
    ],
    [
      "ENQ00",
      "2).</w>"
    ],
    [
      "98456612",
      "9"
    ],
    [
      "user2",
      "@example.com</w>"
    ],
    [
      "ENQ00",
      "3).</w>"
    ],
    [
      "user3",
      "@example.com</w>"
    ],
    [
      "ENQ00",
      "4).</w>"
    ],
    [
      "user4",
      "@example.com</w>"
    ],
    [
      "ENQ00",
      "5).</w>"
    ],
    [
      "user5",
      "@example.com</w>"
    ],
    [
      "ENQ00",
      "6).</w>"
    ],
    [
      "user6",
      "@example.com</w>"
    ],
    [
      "ENQ00",
      "7).</w>"
    ],
    [
      "user7",
      "@example.com</w>"
    ],
    [
      "ENQ00",
      "8).</w>"
    ],
    [
      "user8",
      "@example.com</w>"
    ],
    [
      "ENQ00",
      "9).</w>"
    ],
    [
      "user",
      "9@example.com</w>"
    ],
    [
      "ENQ01",
      "0).</w>"
    ],
    [
      "user10",
      "@example.com</w>"
    ],
    [
      "ENQ01",
      "1).</w>"
    ],
    [
      "user11",
      "@example.com</w>"
    ],
    [
      "ENQ01",
      "2).</w>"
    ],
    [
      "user12",
      "@example.com</w>"
    ],
    [
      "ENQ01",
      "3).</w>"
    ],
    [
      "user13",
      "@example.com</w>"
    ],
    [
      "ENQ01",
      "4).</w>"
    ],
    [
      "user14",
      "@example.com</w>"
    ],
    [
      "ENQ01",
      "5).</w>"
    ],
    [
      "user15",
      "@example.com</w>"
    ],
    [
      "ENQ01",
      "6).</w>"
    ],
    [
      "user16",
      "@example.com</w>"
    ],
    [
      "ENQ01",
      "7).</w>"
    ],
    [
      "user17",
      "@example.com</w>"
    ],
    [
      "ENQ01",
      "8).</w>"
    ],
    [
      "user18",
      "@example.com</w>"
    ],
    [
      "ENQ01",
      "9).</w>"
    ],
    [
      "user",
      "1"
    ],
    [
      "user1",
      "9@example.com</w>"
    ],
    [
      "ENQ02",
      "0).</w>"
    ],
    [
      "user2",
      "0@example.com</w>"
    ],
    [
      "ENQ02",
      "1).</w>"
    ],
    [
      "9233510",
      "23"
    ],
    [
      "user2",
      "1@example.com</w>"
    ],
    [
      "ENQ02",
      "2).</w>"
    ],
    [
      "user2",
      "2@example.com</w>"
    ],
    [
      "ENQ02",
      "3).</w>"
    ],
    [
      "user2",
      "3@example.com</w>"
    ],
    [
      "ENQ02",
      "4).</w>"
    ],
    [
      "user2",
      "4@example.com</w>"
    ],
    [
      "ENQ02",
      "5).</w>"
    ],
    [
      "user2",
      "5@example.com</w>"
    ],
    [
      "ENQ02",
      "6).</w>"
    ],
    [
      "user2",
      "6@example.com</w>"
    ],
    [
      "ENQ02",
      "7).</w>"
    ],
    [
      "user2",
      "7@example.com</w>"
    ],
    [
      "ENQ02",
      "8).</w>"
    ],
    [
      "user2",
      "8@example.com</w>"
    ],
    [
      "ENQ02",
      "9).</w>"
    ],
    [
      "9332943",
      "6"
    ],
    [
      "user2",
      "9@example.com</w>"
    ],
    [
      "ENQ03",
      "0).</w>"
    ],
    [
      "user30",
      "@example.com</w>"
    ],
    [
      "ENQ03",
      "1).</w>"
    ],
    [
      "user3",
      "1@example.com</w>"
    ],
    [
      "ENQ03",
      "2).</w>"
    ],
    [
      "user3",
      "2@example.com</w>"
    ],
    [
      "ENQ03",
      "3).</w>"
    ],
    [
      "user3",
      "3@example.com</w>"
    ],
    [
      "ENQ03",
      "4).</w>"
    ],
    [
      "user3",
      "4@example.com</w>"
    ],
    [
      "ENQ03",
      "5).</w>"
    ],
    [
      "user35",
      "@example.com</w>"
    ],
    [
      "ENQ03",
      "6).</w>"
    ],
    [
      "user3",
      "6@example.com</w>"
    ],
    [
      "ENQ03",
      "7).</w>"
    ],
    [
      "user3",
      "7@example.com</w>"
    ],
    [
      "ENQ03",
      "8).</w>"
    ],
    [
      "user3",
      "8@example.com</w>"
    ],
    [
      "ENQ03",
      "9).</w>"
    ],
    [
      "9344054",
      "19"
    ],
    [
      "user3",
      "9@example.com</w>"
    ],
    [
      "ENQ04",
      "0).</w>"
    ],
    [
      "user4",
      "0@example.com</w>"
    ],
    [
      "ENQ04",
      "1).</w>"
    ],
    [
      "user4",
      "1@example.com</w>"
    ],
    [
      "ENQ04",
      "2).</w>"
    ],
    [
      "user4",
      "2@example.com</w>"
    ],
    [
      "ENQ04",
      "3).</w>"
    ],
    [
      "user4",
      "3@example.com</w>"
    ],
    [
      "ENQ04",
      "4).</w>"
    ],
    [
      "user4",
      "4@example.com</w>"
    ],
    [
      "ENQ04",
      "5).</w>"
    ],
    [
      "user4",
      "5@example.com</w>"
    ],
    [
      "ENQ04",
      "6).</w>"
    ],
    [
      "user4",
      "6@example.com</w>"
    ],
    [
      "ENQ04",
      "7).</w>"
    ],
    [
      "user4",
      "7@example.com</w>"
    ],
    [
      "ENQ04",
      "8).</w>"
    ],
    [
      "user4",
      "8@example.com</w>"
    ],
    [
      "ENQ04",
      "9).</w>"
    ],
    [
      "user4",
      "9@example.com</w>"
    ],
    [
      "ENQ05",
      "0).</w>"
    ],
    [
      "user5",
      "0@example.com</w>"
    ],
    [
      "ENQ05",
      "1).</w>"
    ],
    [
      "user5",
      "1@example.com</w>"
    ],
    [
      "ENQ05",
      "2).</w>"
    ],
    [
      "user5",
      "2@example.com</w>"
    ],
    [
      "ENQ05",
      "3).</w>"
    ],
    [
      "user5",
      "3@example.com</w>"
    ],
    [
      "ENQ05",
      "4).</w>"
    ],
    [
      "user5",
      "4@example.com</w>"
    ],
    [
      "ENQ05",
      "5).</w>"
    ],
    [
      "user5",
      "5@example.com</w>"
    ],
    [
      "ENQ05",
      "6).</w>"
    ],
    [
      "user5",
      "6@example.com</w>"
    ],
    [
      "ENQ05",
      "7).</w>"
    ],
    [
      "user5",
      "7@example.com</w>"
    ],
    [
      "ENQ05",
      "8).</w>"
    ],
    [
      "1",
      "1</w>"
    ],
    [
      "user5",
      "8@example.com</w>"
    ],
    [
      "ENQ05",
      "9).</w>"
    ],
    [
      "user5",
      "9@example.com</w>"
    ],
    [
      "ENQ06",
      "0).</w>"
    ],
    [
      "user6",
      "0@example.com</w>"
    ],
    [
      "ENQ06",
      "1).</w>"
    ],
    [
      "user6",
      "1@example.com</w>"
    ],
    [
      "ENQ06",
      "2).</w>"
    ],
    [
      "user6",
      "2@example.com</w>"
    ],
    [
      "ENQ06",
      "3).</w>"
    ],
    [
      "user6",
      "3@example.com</w>"
    ],
    [
      "ENQ06",
      "4).</w>"
    ],
    [
      "user6",
      "4@example.com</w>"
    ],
    [
      "ENQ06",
      "5).</w>"
    ],
    [
      "user6",
      "5@example.com</w>"
    ],
    [
      "ENQ06",
      "6).</w>"
    ],
    [
      "user6",
      "6@example.com</w>"
    ],
    [
      "ENQ06",
      "7).</w>"
    ],
    [
      "user6",
      "7@example.com</w>"
    ],
    [
      "ENQ06",
      "8).</w>"
    ],
    [
      "user6",
      "8@example.com</w>"
    ],
    [
      "ENQ06",
      "9).</w>"
    ],
    [
      "user6",
      "9@example.com</w>"
    ],
    [
      "ENQ07",
      "0).</w>"
    ],
    [
      "user7",
      "0@example.com</w>"
    ],
    [
      "ENQ07",
      "1).</w>"
    ],
    [
      "user7",
      "1@example.com</w>"
    ],
    [
      "ENQ07",
      "2).</w>"
    ],
    [
      "user7",
      "2@example.com</w>"
    ],
    [
      "ENQ07",
      "3).</w>"
    ],
    [
      "user7",
      "3@example.com</w>"
    ],
    [
      "ENQ07",
      "4).</w>"
    ],
    [
      "user7",
      "4@example.com</w>"
    ],
    [
      "ENQ07",
      "5).</w>"
    ],
    [
      "9915183",
      "79"
    ],
    [
      "user7",
      "5@example.com</w>"
    ],
    [
      "ENQ07",
      "6).</w>"
    ],
    [
      "user7",
      "6@example.com</w>"
    ],
    [
      "ENQ07",
      "7).</w>"
    ],
    [
      "user7",
      "7@example.com</w>"
    ],
    [
      "ENQ07",
      "8).</w>"
    ],
    [
      "user7",
      "8@example.com</w>"
    ],
    [
      "ENQ07",
      "9).</w>"
    ],
    [
      "9346898",
      "56"
    ],
    [
      "user7",
      "9@example.com</w>"
    ],
    [
      "ENQ08",
      "0).</w>"
    ],
    [
      "user8",
      "0@example.com</w>"
    ],
    [
      "ENQ08",
      "1).</w>"
    ],
    [
      "user8",
      "1@example.com</w>"
    ],
    [
      "ENQ08",
      "2).</w>"
    ],
    [
      "user8",
      "2@example.com</w>"
    ],
    [
      "ENQ08",
      "3).</w>"
    ],
    [
      "user8",
      "3@example.com</w>"
    ],
    [
      "ENQ08",
      "4).</w>"
    ],
    [
      "user8",
      "4@example.com</w>"
    ],
    [
      "ENQ08",
      "5).</w>"
    ],
    [
      "user8",
      "5@example.com</w>"
    ],
    [
      "ENQ08",
      "6).</w>"
    ],
    [
      "user8",
      "6@example.com</w>"
    ],
    [
      "ENQ08",
      "7).</w>"
    ],
    [
      "user8",
      "7@example.com</w>"
    ],
    [
      "ENQ08",
      "8).</w>"
    ],
    [
      "user8",
      "8@example.com</w>"
    ],
    [
      "ENQ08",
      "9).</w>"
    ],
    [
      "user8",
      "9@example.com</w>"
    ],
    [
      "ENQ09",
      "0).</w>"
    ],
    [
      "user9",
      "0@example.com</w>"
    ],
    [
      "ENQ09",
      "1).</w>"
    ],
    [
      "user9",
      "1@example.com</w>"
    ],
    [
      "ENQ09",
      "2).</w>"
    ],
    [
      "user92",
      "@example.com</w>"
    ],
    [
      "ENQ09",
      "3).</w>"
    ],
    [
      "user93",
      "@example.com</w>"
    ],
    [
      "ENQ09",
      "4).</w>"
    ],
    [
      "user94",
      "@example.com</w>"
    ],
    [
      "ENQ09",
      "5).</w>"
    ],
    [
      "user95",
      "@example.com</w>"
    ],
    [
      "ENQ09",
      "6).</w>"
    ],
    [
      "user96",
      "@example.com</w>"
    ],
    [
      "ENQ09",
      "7).</w>"
    ],
    [
      "user97",
      "@example.com</w>"
    ],
    [
      "ENQ09",
      "8).</w>"
    ],
    [
      "user98",
      "@example.com</w>"
    ],
    [
      "ENQ09",
      "9).</w>"
    ],
    [
      "user99",
      "@example.com</w>"
    ],
    [
      "ENQ10",
      "0).</w>"
    ],
    [
      "11",
      ":00,</w>"
    ],
    [
      "18",
      ":00,</w>"
    ],
    [
      "11",
      ":30.</w>"
    ],
    [
      "12",
      ":30.</w>"
    ],
    [
      "5/",
      "5/2026</w>"
    ],
    [
      "5/",
      "6/2026</w>"
    ],
    [
      "5/",
      "4/2026</w>"
    ],
    [
      "ar",
      "e</w>"
    ],
    [
      "L",
      "i"
    ],
    [
      "Li",
      "s"
    ],
    [
      "Lis",
      "t</w>"
    ],
    [
      "enquir",
      "i"
    ],
    [
      "enquiri",
      "es</w>"
    ],
    [
      "Custom",
      "er"
    ],
    [
      "Customer",
      "s</w>"
    ],
    [
      "t",
      "ot"
    ],
    [
      "tot",
      "al"
    ],
    [
      "total",
      "):</w>"
    ],
    [
      "appointment",
      "s</w>"
    ],
    [
      "appointment",
      "(s"
    ],
    [
      "appointment(s",
      "):</w>"
    ],
    [
      "appointment",
      "s:</w>"
    ],
    [
      "s",
      "chedul"
    ],
    [
      "schedul",
      "ed</w>"
    ],
    [
      "n",
      "o</w>"
    ],
    [
      "s",
      "h"
    ],
    [
      "sh",
      "ow</w>"
    ],
    [
      "ENQ00",
      "1:</w>"
    ],
    [
      "994520613",
      "2</w>"
    ],
    [
      "ENQ00",
      "2:</w>"
    ],
    [
      "93811778",
      "98</w>"
    ],
    [
      "ENQ00",
      "3:</w>"
    ],
    [
      "984566129",
      "6</w>"
    ],
    [
      "ENQ00",
      "4:</w>"
    ],
    [
      "946422808",
      "4</w>"
    ],
    [
      "ENQ00",
      "5:</w>"
    ],
    [
      "951726314",
      "1</w>"
    ],
    [
      "ENQ00",
      "6:</w>"
    ],
    [
      "976939364",
      "9</w>"
    ],
    [
      "ENQ00",
      "7:</w>"
    ],
    [
      "976682882",
      "7</w>"
    ],
    [
      "ENQ00",
      "8:</w>"
    ],
    [
      "91135733",
      "91</w>"
    ],
    [
      "ENQ00",
      "9:</w>"
    ],
    [
      "984129694",
      "6</w>"
    ],
    [
      "ENQ01",
      "0:</w>"
    ],
    [
      "9580806",
      "184</w>"
    ],
    [
      "ENQ01",
      "1:</w>"
    ],
    [
      "936170960",
      "9</w>"
    ],
    [
      "ENQ01",
      "2:</w>"
    ],
    [
      "981643497",
      "1</w>"
    ],
    [
      "12",
      ",</w>"
    ],
    [
      "ENQ01",
      "3:</w>"
    ],
    [
      "937379070",
      "2</w>"
    ],
    [
      "ENQ01",
      "4:</w>"
    ],
    [
      "98638623",
      "39</w>"
    ],
    [
      "ENQ01",
      "5:</w>"
    ],
    [
      "92351911",
      "90</w>"
    ],
    [
      "ENQ01",
      "6:</w>"
    ],
    [
      "958936643",
      "8</w>"
    ],
    [
      "ENQ01",
      "7:</w>"
    ],
    [
      "965996593",
      "8</w>"
    ],
    [
      "ENQ01",
      "8:</w>"
    ],
    [
      "960984117",
      "9</w>"
    ],
    [
      "ENQ01",
      "9:</w>"
    ],
    [
      "995131653",
      "3</w>"
    ],
    [
      "ENQ02",
      "0:</w>"
    ],
    [
      "946078104",
      "7</w>"
    ],
    [
      "ENQ02",
      "1:</w>"
    ],
    [
      "99441010",
      "90</w>"
    ],
    [
      "ENQ02",
      "2:</w>"
    ],
    [
      "923351023",
      "0</w>"
    ],
    [
      "ENQ02",
      "3:</w>"
    ],
    [
      "980178",
      "222"
    ],
    [
      "980178222",
      "3</w>"
    ],
    [
      "ENQ02",
      "4:</w>"
    ],
    [
      "98820620",
      "91</w>"
    ],
    [
      "ENQ02",
      "5:</w>"
    ],
    [
      "930630767",
      "4</w>"
    ],
    [
      "ENQ02",
      "6:</w>"
    ],
    [
      "97955313",
      "7"
    ],
    [
      "979553137",
      "8</w>"
    ],
    [
      "ENQ02",
      "7:</w>"
    ],
    [
      "989323495",
      "3</w>"
    ],
    [
      "ENQ02",
      "8:</w>"
    ],
    [
      "9955486",
      "99"
    ],
    [
      "995548699",
      "7</w>"
    ],
    [
      "ENQ02",
      "9:</w>"
    ],
    [
      "955220352",
      "8</w>"
    ],
    [
      "ENQ03",
      "0:</w>"
    ],
    [
      "93329436",
      "10</w>"
    ],
    [
      "ENQ03",
      "1:</w>"
    ],
    [
      "922642564",
      "5</w>"
    ],
    [
      "ENQ03",
      "2:</w>"
    ],
    [
      "914812444",
      "0</w>"
    ],
    [
      "ENQ03",
      "3:</w>"
    ],
    [
      "937917792",
      "2</w>"
    ],
    [
      "ENQ03",
      "4:</w>"
    ],
    [
      "92278170",
      "15</w>"
    ],
    [
      "ENQ03",
      "5:</w>"
    ],
    [
      "936629497",
      "6</w>"
    ],
    [
      "ENQ03",
      "6:</w>"
    ],
    [
      "950305475",
      "1</w>"
    ],
    [
      "ENQ03",
      "7:</w>"
    ],
    [
      "94355574",
      "9"
    ],
    [
      "943555749",
      "2</w>"
    ],
    [
      "ENQ03",
      "8:</w>"
    ],
    [
      "939496096",
      "9</w>"
    ],
    [
      "ENQ03",
      "9:</w>"
    ],
    [
      "958474800",
      "6</w>"
    ],
    [
      "ENQ04",
      "0:</w>"
    ],
    [
      "99",
      ".</w>"
    ],
    [
      "934405419",
      "9</w>"
    ],
    [
      "ENQ04",
      "1:</w>"
    ],
    [
      "94767322",
      "77</w>"
    ],
    [
      "ENQ04",
      "2:</w>"
    ],
    [
      "96261306",
      "72</w>"
    ],
    [
      "ENQ04",
      "3:</w>"
    ],
    [
      "991063544",
      "5</w>"
    ],
    [
      "ENQ04",
      "4:</w>"
    ],
    [
      "940522230",
      "6</w>"
    ],
    [
      "ENQ04",
      "5:</w>"
    ],
    [
      "999280273",
      "7</w>"
    ],
    [
      "ENQ04",
      "6:</w>"
    ],
    [
      "990598295",
      "0</w>"
    ],
    [
      "ENQ04",
      "7:</w>"
    ],
    [
      "985537652",
      "1</w>"
    ],
    [
      "4/1",
      "1/2026.</w>"
    ],
    [
      "ENQ04",
      "8:</w>"
    ],
    [
      "989424982",
      "0</w>"
    ],
    [
      "4/1",
      "1/2026</w>"
    ],
    [
      "ENQ04",
      "9:</w>"
    ],
    [
      "931831665",
      "8</w>"
    ],
    [
      "ENQ05",
      "0:</w>"
    ],
    [
      "956105952",
      "5</w>"
    ],
    [
      "ENQ05",
      "1:</w>"
    ],
    [
      "9803570",
      "2"
    ],
    [
      "98035702",
      "15</w>"
    ],
    [
      "ENQ05",
      "2:</w>"
    ],
    [
      "951078692",
      "6</w>"
    ],
    [
      "ENQ05",
      "3:</w>"
    ],
    [
      "915063796",
      "1</w>"
    ],
    [
      "ENQ05",
      "4:</w>"
    ],
    [
      "923432335",
      "4</w>"
    ],
    [
      "ENQ05",
      "5:</w>"
    ],
    [
      "99253544",
      "13</w>"
    ],
    [
      "ENQ05",
      "6:</w>"
    ],
    [
      "947930656",
      "6</w>"
    ],
    [
      "ENQ05",
      "7:</w>"
    ],
    [
      "992133885",
      "3</w>"
    ],
    [
      "ENQ05",
      "8:</w>"
    ],
    [
      "922470",
      "19"
    ],
    [
      "92247019",
      "11</w>"
    ],
    [
      "ENQ05",
      "9:</w>"
    ],
    [
      "935441879",
      "1</w>"
    ],
    [
      "ENQ06",
      "0:</w>"
    ],
    [
      "9259562",
      "184</w>"
    ],
    [
      "ENQ06",
      "1:</w>"
    ],
    [
      "987713784",
      "9</w>"
    ],
    [
      "ENQ06",
      "2:</w>"
    ],
    [
      "94784590",
      "12</w>"
    ],
    [
      "ENQ06",
      "3:</w>"
    ],
    [
      "94920487",
      "25</w>"
    ],
    [
      "ENQ06",
      "4:</w>"
    ],
    [
      "92274458",
      "99</w>"
    ],
    [
      "ENQ06",
      "5:</w>"
    ],
    [
      "971455588",
      "1</w>"
    ],
    [
      "ENQ06",
      "6:</w>"
    ],
    [
      "942151918",
      "9</w>"
    ],
    [
      "ENQ06",
      "7:</w>"
    ],
    [
      "91802333",
      "13</w>"
    ],
    [
      "ENQ06",
      "8:</w>"
    ],
    [
      "95131134",
      "72</w>"
    ],
    [
      "ENQ06",
      "9:</w>"
    ],
    [
      "979893694",
      "4</w>"
    ],
    [
      "ENQ07",
      "0:</w>"
    ],
    [
      "921712887",
      "9</w>"
    ],
    [
      "ENQ07",
      "1:</w>"
    ],
    [
      "958655094",
      "1</w>"
    ],
    [
      "ENQ07",
      "2:</w>"
    ],
    [
      "95989360",
      "77</w>"
    ],
    [
      "ENQ07",
      "3:</w>"
    ],
    [
      "933766468",
      "3</w>"
    ],
    [
      "ENQ07",
      "4:</w>"
    ],
    [
      "941572084",
      "5</w>"
    ],
    [
      "ENQ07",
      "5:</w>"
    ],
    [
      "946328118",
      "6</w>"
    ],
    [
      "ENQ07",
      "6:</w>"
    ],
    [
      "991518379",
      "6</w>"
    ],
    [
      "ENQ07",
      "7:</w>"
    ],
    [
      "97023818",
      "99</w>"
    ],
    [
      "ENQ07",
      "8:</w>"
    ],
    [
      "979661423",
      "4</w>"
    ],
    [
      "ENQ07",
      "9:</w>"
    ],
    [
      "911487540",
      "4</w>"
    ],
    [
      "ENQ08",
      "0:</w>"
    ],
    [
      "934689856",
      "4</w>"
    ],
    [
      "ENQ08",
      "1:</w>"
    ],
    [
      "99339694",
      "15</w>"
    ],
    [
      "ENQ08",
      "2:</w>"
    ],
    [
      "939489325",
      "5</w>"
    ],
    [
      "ENQ08",
      "3:</w>"
    ],
    [
      "933312735",
      "7</w>"
    ],
    [
      "ENQ08",
      "4:</w>"
    ],
    [
      "977186991",
      "9</w>"
    ],
    [
      "ENQ08",
      "5:</w>"
    ],
    [
      "999895513",
      "4</w>"
    ],
    [
      "ENQ08",
      "6:</w>"
    ],
    [
      "981144956",
      "5</w>"
    ],
    [
      "ENQ08",
      "7:</w>"
    ],
    [
      "988356952",
      "7</w>"
    ],
    [
      "ENQ08",
      "8:</w>"
    ],
    [
      "989499734",
      "1</w>"
    ],
    [
      "ENQ08",
      "9:</w>"
    ],
    [
      "965214756",
      "7</w>"
    ],
    [
      "ENQ09",
      "0:</w>"
    ],
    [
      "940235172",
      "0</w>"
    ],
    [
      "ENQ09",
      "1:</w>"
    ],
    [
      "978822992",
      "3</w>"
    ],
    [
      "ENQ09",
      "2:</w>"
    ],
    [
      "95869812",
      "10</w>"
    ],
    [
      "ENQ09",
      "3:</w>"
    ],
    [
      "95457575",
      "12</w>"
    ],
    [
      "ENQ09",
      "4:</w>"
    ],
    [
      "95245730",
      "98</w>"
    ],
    [
      "ENQ09",
      "5:</w>"
    ],
    [
      "923844766",
      "9</w>"
    ],
    [
      "ENQ09",
      "6:</w>"
    ],
    [
      "996509846",
      "5</w>"
    ],
    [
      "ENQ09",
      "7:</w>"
    ],
    [
      "961754859",
      "0</w>"
    ],
    [
      "ENQ09",
      "8:</w>"
    ],
    [
      "957552805",
      "5</w>"
    ],
    [
      "ENQ09",
      "9:</w>"
    ],
    [
      "935949676",
      "6</w>"
    ],
    [
      "ENQ10",
      "0:</w>"
    ],
    [
      "93559578",
      "39</w>"
    ],
    [
      "ENQ10",
      "0,</w>"
    ],
    [
      "enq",
      "10"
    ],
    [
      "12",
      ":00,</w>"
    ],
    [
      "ed'",
      "?</w>"
    ],
    [
      "ed'",
      ":</w>"
    ],
    [
      "1",
      "6</w>"
    ],
    [
      "2",
      "3</w>"
    ],
    [
      "1",
      "7</w>"
    ],
    [
      "pay",
      "men"
    ],
    [
      "paymen",
      "t?</w>"
    ],
    [
      "ENQ00",
      "1,</w>"
    ],
    [
      "ENQ00",
      "1.</w>"
    ],
    [
      "enq00",
      "1?</w>"
    ],
    [
      "93811778",
      "98"
    ],
    [
      "ENQ00",
      "2,</w>"
    ],
    [
      "ENQ00",
      "2.</w>"
    ],
    [
      "enq00",
      "2?</w>"
    ],
    [
      "96",
      ",</w>"
    ],
    [
      "ENQ00",
      "3,</w>"
    ],
    [
      "ENQ00",
      "3.</w>"
    ],
    [
      "enq00",
      "3?</w>"
    ],
    [
      "ENQ00",
      "4,</w>"
    ],
    [
      "ENQ00",
      "4.</w>"
    ],
    [
      "enq00",
      "4?</w>"
    ],
    [
      "ENQ00",
      "5,</w>"
    ],
    [
      "ENQ00",
      "5.</w>"
    ],
    [
      "enq00",
      "5?</w>"
    ],
    [
      "ENQ00",
      "6,</w>"
    ],
    [
      "ENQ00",
      "6.</w>"
    ],
    [
      "enq00",
      "6?</w>"
    ],
    [
      "ENQ00",
      "7,</w>"
    ],
    [
      "ENQ00",
      "7.</w>"
    ],
    [
      "enq00",
      "7?</w>"
    ],
    [
      "91135733",
      "9"
    ],
    [
      "ENQ00",
      "8,</w>"
    ],
    [
      "ENQ00",
      "8.</w>"
    ],
    [
      "enq00",
      "8?</w>"
    ],
    [
      "ENQ00",
      "9,</w>"
    ],
    [
      "ENQ00",
      "9.</w>"
    ],
    [
      "enq00",
      "9?</w>"
    ],
    [
      "9580806",
      "18"
    ],
    [
      "ENQ01",
      "0,</w>"
    ],
    [
      "ENQ01",
      "0.</w>"
    ],
    [
      "enq0",
      "10"
    ],
    [
      "enq010",
      "?</w>"
    ],
    [
      "ENQ01",
      "1,</w>"
    ],
    [
      "ENQ01",
      "1.</w>"
    ],
    [
      "enq0",
      "11"
    ],
    [
      "enq011",
      "?</w>"
    ],
    [
      "ENQ01",
      "2,</w>"
    ],
    [
      "ENQ01",
      "2.</w>"
    ],
    [
      "enq0",
      "12"
    ],
    [
      "enq012",
      "?</w>"
    ],
    [
      "ENQ01",
      "3,</w>"
    ],
    [
      "ENQ01",
      "3.</w>"
    ],
    [
      "enq0",
      "13"
    ],
    [
      "enq013",
      "?</w>"
    ],
    [
      "98638623",
      "3"
    ],
    [
      "ENQ01",
      "4,</w>"
    ],
    [
      "ENQ01",
      "4.</w>"
    ],
    [
      "enq0",
      "14"
    ],
    [
      "enq014",
      "?</w>"
    ],
    [
      "92351911",
      "9"
    ],
    [
      "ENQ01",
      "5,</w>"
    ],
    [
      "ENQ01",
      "5.</w>"
    ],
    [
      "enq0",
      "15"
    ],
    [
      "enq015",
      "?</w>"
    ],
    [
      "ENQ01",
      "6,</w>"
    ],
    [
      "ENQ01",
      "6.</w>"
    ],
    [
      "enq0",
      "16"
    ],
    [
      "enq016",
      "?</w>"
    ],
    [
      "ENQ01",
      "7,</w>"
    ],
    [
      "ENQ01",
      "7.</w>"
    ],
    [
      "enq0",
      "17"
    ],
    [
      "enq017",
      "?</w>"
    ],
    [
      "ENQ01",
      "8,</w>"
    ],
    [
      "ENQ01",
      "8.</w>"
    ],
    [
      "enq0",
      "18"
    ],
    [
      "enq018",
      "?</w>"
    ],
    [
      "ENQ01",
      "9,</w>"
    ],
    [
      "ENQ01",
      "9.</w>"
    ],
    [
      "enq01",
      "9?</w>"
    ],
    [
      "ENQ02",
      "0,</w>"
    ],
    [
      "ENQ02",
      "0.</w>"
    ],
    [
      "enq02",
      "0?</w>"
    ],
    [
      "99441010",
      "9"
    ],
    [
      "ENQ02",
      "1,</w>"
    ],
    [
      "ENQ02",
      "1.</w>"
    ],
    [
      "enq02",
      "1?</w>"
    ],
    [
      "ENQ02",
      "2,</w>"
    ],
    [
      "ENQ02",
      "2.</w>"
    ],
    [
      "enq02",
      "2?</w>"
    ],
    [
      "980178",
      "22"
    ],
    [
      "98017822",
      "23"
    ],
    [
      "ENQ02",
      "3,</w>"
    ],
    [
      "ENQ02",
      "3.</w>"
    ],
    [
      "enq02",
      "3?</w>"
    ],
    [
      "98820620",
      "9"
    ],
    [
      "ENQ02",
      "4,</w>"
    ],
    [
      "ENQ02",
      "4.</w>"
    ],
    [
      "enq02",
      "4?</w>"
    ],
    [
      "ENQ02",
      "5,</w>"
    ],
    [
      "ENQ02",
      "5.</w>"
    ],
    [
      "enq02",
      "5?</w>"
    ],
    [
      "97955313",
      "78"
    ],
    [
      "ENQ02",
      "6,</w>"
    ],
    [
      "ENQ02",
      "6.</w>"
    ],
    [
      "enq02",
      "6?</w>"
    ],
    [
      "ENQ02",
      "7,</w>"
    ],
    [
      "ENQ02",
      "7.</w>"
    ],
    [
      "enq02",
      "7?</w>"
    ],
    [
      "9955486",
      "997"
    ],
    [
      "ENQ02",
      "8,</w>"
    ],
    [
      "ENQ02",
      "8.</w>"
    ],
    [
      "enq02",
      "8?</w>"
    ],
    [
      "ENQ02",
      "9,</w>"
    ],
    [
      "ENQ02",
      "9.</w>"
    ],
    [
      "enq02",
      "9?</w>"
    ],
    [
      "10",
      ",</w>"
    ],
    [
      "ENQ03",
      "0,</w>"
    ],
    [
      "ENQ03",
      "0.</w>"
    ],
    [
      "enq0",
      "30"
    ],
    [
      "enq030",
      "?</w>"
    ],
    [
      "ENQ03",
      "1,</w>"
    ],
    [
      "ENQ03",
      "1.</w>"
    ],
    [
      "enq03",
      "1?</w>"
    ],
    [
      "ENQ03",
      "2,</w>"
    ],
    [
      "ENQ03",
      "2.</w>"
    ],
    [
      "enq03",
      "2?</w>"
    ],
    [
      "ENQ03",
      "3,</w>"
    ],
    [
      "ENQ03",
      "3.</w>"
    ],
    [
      "enq03",
      "3?</w>"
    ],
    [
      "92278170",
      "15"
    ],
    [
      "ENQ03",
      "4,</w>"
    ],
    [
      "ENQ03",
      "4.</w>"
    ],
    [
      "enq03",
      "4?</w>"
    ],
    [
      "ENQ03",
      "5,</w>"
    ],
    [
      "ENQ03",
      "5.</w>"
    ],
    [
      "enq03",
      "5?</w>"
    ],
    [
      "ENQ03",
      "6,</w>"
    ],
    [
      "ENQ03",
      "6.</w>"
    ],
    [
      "enq03",
      "6?</w>"
    ],
    [
      "94355574",
      "92"
    ],
    [
      "ENQ03",
      "7,</w>"
    ],
    [
      "ENQ03",
      "7.</w>"
    ],
    [
      "enq03",
      "7?</w>"
    ],
    [
      "ENQ03",
      "8,</w>"
    ],
    [
      "ENQ03",
      "8.</w>"
    ],
    [
      "enq03",
      "8?</w>"
    ],
    [
      "ENQ03",
      "9,</w>"
    ],
    [
      "ENQ03",
      "9.</w>"
    ],
    [
      "enq03",
      "9?</w>"
    ],
    [
      "ENQ04",
      "0,</w>"
    ],
    [
      "ENQ04",
      "0.</w>"
    ],
    [
      "enq04",
      "0?</w>"
    ],
    [
      "94767322",
      "7"
    ],
    [
      "ENQ04",
      "1,</w>"
    ],
    [
      "ENQ04",
      "1.</w>"
    ],
    [
      "enq04",
      "1?</w>"
    ],
    [
      "96261306",
      "7"
    ],
    [
      "ENQ04",
      "2,</w>"
    ],
    [
      "ENQ04",
      "2.</w>"
    ],
    [
      "enq04",
      "2?</w>"
    ],
    [
      "ENQ04",
      "3,</w>"
    ],
    [
      "ENQ04",
      "3.</w>"
    ],
    [
      "enq04",
      "3?</w>"
    ],
    [
      "ENQ04",
      "4,</w>"
    ],
    [
      "ENQ04",
      "4.</w>"
    ],
    [
      "enq04",
      "4?</w>"
    ],
    [
      "ENQ04",
      "5,</w>"
    ],
    [
      "ENQ04",
      "5.</w>"
    ],
    [
      "enq04",
      "5?</w>"
    ],
    [
      "ENQ04",
      "6,</w>"
    ],
    [
      "ENQ04",
      "6.</w>"
    ],
    [
      "enq04",
      "6?</w>"
    ],
    [
      "ENQ04",
      "7,</w>"
    ],
    [
      "ENQ04",
      "7.</w>"
    ],
    [
      "enq04",
      "7?</w>"
    ],
    [
      "ENQ04",
      "8,</w>"
    ],
    [
      "ENQ04",
      "8.</w>"
    ],
    [
      "enq04",
      "8?</w>"
    ],
    [
      "ENQ04",
      "9,</w>"
    ],
    [
      "ENQ04",
      "9.</w>"
    ],
    [
      "enq04",
      "9?</w>"
    ],
    [
      "ENQ05",
      "0,</w>"
    ],
    [
      "ENQ05",
      "0.</w>"
[...]
