{
  "vocab": {
    "<pad>": 0,
    "<unk>": 1,
    "<bos>": 2,
    "<eos>": 3,
    "<sep>": 4,
    "<TASK=SALES_QA>": 5,
    "<TASK=DOCUMENT_SUMMARY>": 6,
    "<TASK=SHORT_SUMMARY>": 7,
    "<TASK=KEY_POINTS>": 8,
    "<TASK=DETAILED_SUMMARY>": 9,
    "<TASK=DOCUMENT_TYPE>": 10,
    "<TASK=DOCUMENT_PURPOSE>": 11,
    "<TASK=DOCUMENT_TOPIC>": 12,
    "<TASK=SECTION_SUMMARY>": 13,
    "<TASK=SECTION_UNDERSTANDING>": 14,
    "<TASK=SECTION_FACTS>": 15,
    "<TASK=FACTS_EXTRACTION>": 16,
    "<TASK=CLAIMS_EXTRACTION>": 17,
    "<TASK=EVIDENCE_EXTRACTION>": 18,
    "<TASK=CONCLUSIONS>": 19,
    "<TASK=ENTITY_EXTRACTION>": 20,
    "<TASK=CROSS_SECTION_REASONING>": 21,
    "<TASK=DOCUMENT_QA>": 22,
    "<TASK=DOCUMENT_ANSWER>": 23,
    "\n": 24,
    " ": 25,
    "\"": 26,
    "\".</w>": 27,
    "\"A": 28,
    "\"Average</w>": 29,
    "\"C": 30,
    "\"Cou": 31,
    "\"Could</w>": 32,
    "\"Ex": 33,
    "\"Exc": 34,
    "\"Excell": 35,
    "\"Excellent</w>": 36,
    "\"Goo": 37,
    "\"Good</w>": 38,
    "\"Not</w>": 39,
    "\"Software": 40,
    "\"Software\"": 41,
    "\"Software\"),</w>": 42,
    "\"Ver": 43,
    "\"Very</w>": 44,
    "\"{{</w>": 45,
    "#": 46,
    "$": 47,
    "$0.": 48,
    "$0.8": 49,
    "$0.8M": 50,
    "$0.8M.</w>": 51,
    "$3": 52,
    "$3.2": 53,
    "$3.2M": 54,
    "$3.2M,</w>": 55,
    "$45": 56,
    "$45.2": 57,
    "$45.2</w>": 58,
    "$45.2M</w>": 59,
    "$45.</w>": 60,
    "$5": 61,
    "$50": 62,
    "$50–": 63,
    "$50–5": 64,
    "$50–52M</w>": 65,
    "$5M</w>": 66,
    "$6": 67,
    "$6.1": 68,
    "$6.1M</w>": 69,
    "$8": 70,
    "$8.3": 71,
    "$8.3M</w>": 72,
    "%": 73,
    "%.</w>": 74,
    "%}": 75,
    "%}**.</w>": 76,
    "%}*</w>": 77,
    "%},</w>": 78,
    "%}.</w>": 79,
    "%}:</w>": 80,
    "%}</w>": 81,
    "%}D": 82,
    "%}Django</w>": 83,
    "%}During</w>": 84,
    "%}Ex": 85,
    "%}Excep": 86,
    "%}Exception</w>": 87,
    "%}F": 88,
    "%}File</w>": 89,
    "%}None{%</w>": 90,
    "%}P": 91,
    "%}Passwor": 92,
    "%}Password</w>": 93,
    "%}Ra": 94,
    "%}Rais": 95,
    "%}Raised</w>": 96,
    "%}Request</w>": 97,
    "%}Template</w>": 98,
    "%}The</w>": 99,
    "%}Trace": 100,
    "%}Traceback": 101,
    "%}Traceback:</w>": 102,
    "%}USE": 103,
    "%}USER": 104,
    "%}USER:</w>": 105,
    "%}{%</w>": 106,
    "%}{{</w>": 107,
    "&": 108,
    "'": 109,
    "'.</w>": 110,
    "':</w>": 111,
    "'?</w>": 112,
    "'Book": 113,
    "'Booked": 114,
    "'Booked'.</w>": 115,
    "'Booked':</w>": 116,
    "'Booked'?</w>": 117,
    "'Cancell": 118,
    "'Cancelled'</w>": 119,
    "'Clos": 120,
    "'Closed": 121,
    "'Closed'.</w>": 122,
    "'Closed':</w>": 123,
    "'Closed'?</w>": 124,
    "'Comple": 125,
    "'Completed": 126,
    "'Completed'</w>": 127,
    "'Contac": 128,
    "'Contacted": 129,
    "'Contacted'.</w>": 130,
    "'Contacted':</w>": 131,
    "'Contacted'?</w>": 132,
    "'New</w>": 133,
    "'No</w>": 134,
    "'Repor": 135,
    "'Report": 136,
    "'Report'</w>": 137,
    "'Scheduled": 138,
    "'Scheduled'</w>": 139,
    "'Test</w>": 140,
    "'no</w>": 141,
    "'s</w>": 142,
    "'t</w>": 143,
    "(": 144,
    "(+": 145,
    "(+12%</w>": 146,
    "(+2": 147,
    "(+28%</w>": 148,
    "(+31": 149,
    "(+31%</w>": 150,
    "(+8%</w>": 151,
    "(1.</w>": 152,
    "(10</w>": 153,
    "(15</w>": 154,
    "(18": 155,
    "(18%": 156,
    "(18%):</w>": 157,
    "(20": 158,
    "(2018": 159,
    "(2018–": 160,
    "(2018–202": 161,
    "(2018–2021)</w>": 162,
    "(2021": 163,
    "(2021–": 164,
    "(2021–P": 165,
    "(2021–Pres": 166,
    "(2021–Present": 167,
    "(2021–Present)</w>": 168,
    "(22</w>": 169,
    "(25</w>": 170,
    "(31</w>": 171,
    "(40</w>": 172,
    "(Abstract": 173,
    "(Abstract):</w>": 174,
    "(Anany": 175,
    "(Ananya):</w>": 176,
    "(Ananya)</w>": 177,
    "(Arjun": 178,
    "(Arjun):</w>": 179,
    "(Arjun)</w>": 180,
    "(D": 181,
    "(Divy": 182,
    "(Divya):</w>": 183,
    "(Divya)</w>": 184,
    "(Do": 185,
    "(Doso": 186,
    "(Dosov": 187,
    "(Dosovit": 188,
    "(Dosovits": 189,
    "(Dosovitski": 190,
    "(Dosovitskiy</w>": 191,
    "(E": 192,
    "(EC": 193,
    "(EC2,</w>": 194,
    "(ENQ0": 195,
    "(ENQ00": 196,
    "(ENQ001)</w>": 197,
    "(ENQ001,</w>": 198,
    "(ENQ002": 199,
    "(ENQ002)</w>": 200,
    "(ENQ002,</w>": 201,
    "(ENQ003)</w>": 202,
    "(ENQ003,</w>": 203,
    "(ENQ004)</w>": 204,
    "(ENQ004,</w>": 205,
    "(ENQ005)</w>": 206,
    "(ENQ005,</w>": 207,
    "(ENQ006)</w>": 208,
    "(ENQ006,</w>": 209,
    "(ENQ007)</w>": 210,
    "(ENQ007,</w>": 211,
    "(ENQ008)</w>": 212,
    "(ENQ008,</w>": 213,
    "(ENQ009)</w>": 214,
    "(ENQ009,</w>": 215,
    "(ENQ01": 216,
    "(ENQ010": 217,
    "(ENQ010)</w>": 218,
    "(ENQ010,</w>": 219,
    "(ENQ011": 220,
    "(ENQ011)</w>": 221,
    "(ENQ011,</w>": 222,
    "(ENQ012": 223,
    "(ENQ012)</w>": 224,
    "(ENQ012,</w>": 225,
    "(ENQ013": 226,
    "(ENQ013)</w>": 227,
    "(ENQ013,</w>": 228,
    "(ENQ014": 229,
    "(ENQ014)</w>": 230,
    "(ENQ014,</w>": 231,
    "(ENQ015": 232,
    "(ENQ015)</w>": 233,
    "(ENQ015,</w>": 234,
    "(ENQ016": 235,
    "(ENQ016)</w>": 236,
    "(ENQ016,</w>": 237,
    "(ENQ017": 238,
    "(ENQ017)</w>": 239,
    "(ENQ017,</w>": 240,
    "(ENQ018": 241,
    "(ENQ018)</w>": 242,
    "(ENQ018,</w>": 243,
    "(ENQ019)</w>": 244,
    "(ENQ019,</w>": 245,
    "(ENQ02": 246,
    "(ENQ020)</w>": 247,
    "(ENQ020,</w>": 248,
    "(ENQ021)</w>": 249,
    "(ENQ021,</w>": 250,
    "(ENQ022)</w>": 251,
    "(ENQ022,</w>": 252,
    "(ENQ023)</w>": 253,
    "(ENQ023,</w>": 254,
    "(ENQ024)</w>": 255,
    "(ENQ024,</w>": 256,
    "(ENQ025)</w>": 257,
    "(ENQ025,</w>": 258,
    "(ENQ026)</w>": 259,
    "(ENQ026,</w>": 260,
    "(ENQ027)</w>": 261,
    "(ENQ027,</w>": 262,
    "(ENQ028)</w>": 263,
    "(ENQ028,</w>": 264,
    "(ENQ029)</w>": 265,
    "(ENQ029,</w>": 266,
    "(ENQ03": 267,
    "(ENQ030": 268,
    "(ENQ030)</w>": 269,
    "(ENQ030,</w>": 270,
    "(ENQ031)</w>": 271,
    "(ENQ031,</w>": 272,
    "(ENQ032": 273,
    "(ENQ032)</w>": 274,
    "(ENQ032,</w>": 275,
    "(ENQ033)</w>": 276,
    "(ENQ033,</w>": 277,
    "(ENQ034": 278,
    "(ENQ034)</w>": 279,
    "(ENQ034,</w>": 280,
    "(ENQ035)</w>": 281,
    "(ENQ035,</w>": 282,
    "(ENQ036)</w>": 283,
    "(ENQ036,</w>": 284,
    "(ENQ037)</w>": 285,
    "(ENQ037,</w>": 286,
    "(ENQ038)</w>": 287,
    "(ENQ038,</w>": 288,
    "(ENQ039)</w>": 289,
    "(ENQ039,</w>": 290,
    "(ENQ04": 291,
    "(ENQ040)</w>": 292,
    "(ENQ040,</w>": 293,
    "(ENQ041)</w>": 294,
    "(ENQ041,</w>": 295,
    "(ENQ042)</w>": 296,
    "(ENQ042,</w>": 297,
    "(ENQ043)</w>": 298,
    "(ENQ043,</w>": 299,
    "(ENQ044)</w>": 300,
    "(ENQ044,</w>": 301,
    "(ENQ045": 302,
    "(ENQ045)</w>": 303,
    "(ENQ045,</w>": 304,
    "(ENQ046)</w>": 305,
    "(ENQ046,</w>": 306,
    "(ENQ047)</w>": 307,
    "(ENQ047,</w>": 308,
    "(ENQ048)</w>": 309,
    "(ENQ048,</w>": 310,
    "(ENQ049)</w>": 311,
    "(ENQ049,</w>": 312,
    "(ENQ05": 313,
    "(ENQ050)</w>": 314,
    "(ENQ050,</w>": 315,
    "(ENQ051)</w>": 316,
    "(ENQ051,</w>": 317,
    "(ENQ052)</w>": 318,
    "(ENQ052,</w>": 319,
    "(ENQ053)</w>": 320,
    "(ENQ053,</w>": 321,
    "(ENQ054": 322,
    "(ENQ054)</w>": 323,
    "(ENQ054,</w>": 324,
    "(ENQ055)</w>": 325,
    "(ENQ055,</w>": 326,
    "(ENQ056)</w>": 327,
    "(ENQ056,</w>": 328,
    "(ENQ057)</w>": 329,
    "(ENQ057,</w>": 330,
    "(ENQ058)</w>": 331,
    "(ENQ058,</w>": 332,
    "(ENQ059)</w>": 333,
    "(ENQ059,</w>": 334,
    "(ENQ06": 335,
    "(ENQ060": 336,
    "(ENQ060)</w>": 337,
    "(ENQ060,</w>": 338,
    "(ENQ061)</w>": 339,
    "(ENQ061,</w>": 340,
    "(ENQ062)</w>": 341,
    "(ENQ062,</w>": 342,
    "(ENQ063)</w>": 343,
    "(ENQ063,</w>": 344,
    "(ENQ064)</w>": 345,
    "(ENQ064,</w>": 346,
    "(ENQ065)</w>": 347,
    "(ENQ065,</w>": 348,
    "(ENQ066)</w>": 349,
    "(ENQ066,</w>": 350,
    "(ENQ067)</w>": 351,
    "(ENQ067,</w>": 352,
    "(ENQ068)</w>": 353,
    "(ENQ068,</w>": 354,
    "(ENQ069)</w>": 355,
    "(ENQ069,</w>": 356,
    "(ENQ07": 357,
    "(ENQ070)</w>": 358,
    "(ENQ070,</w>": 359,
    "(ENQ071)</w>": 360,
    "(ENQ071,</w>": 361,
    "(ENQ072)</w>": 362,
    "(ENQ072,</w>": 363,
    "(ENQ073)</w>": 364,
    "(ENQ073,</w>": 365,
    "(ENQ074)</w>": 366,
    "(ENQ074,</w>": 367,
    "(ENQ075)</w>": 368,
    "(ENQ075,</w>": 369,
    "(ENQ076)</w>": 370,
    "(ENQ076,</w>": 371,
    "(ENQ077)</w>": 372,
    "(ENQ077,</w>": 373,
    "(ENQ078)</w>": 374,
    "(ENQ078,</w>": 375,
    "(ENQ079)</w>": 376,
    "(ENQ079,</w>": 377,
    "(ENQ08": 378,
    "(ENQ080)</w>": 379,
    "(ENQ080,</w>": 380,
    "(ENQ081)</w>": 381,
    "(ENQ081,</w>": 382,
    "(ENQ082)</w>": 383,
    "(ENQ082,</w>": 384,
    "(ENQ083)</w>": 385,
    "(ENQ083,</w>": 386,
    "(ENQ084)</w>": 387,
    "(ENQ084,</w>": 388,
    "(ENQ085)</w>": 389,
    "(ENQ085,</w>": 390,
    "(ENQ086)</w>": 391,
    "(ENQ086,</w>": 392,
    "(ENQ087)</w>": 393,
    "(ENQ087,</w>": 394,
    "(ENQ088)</w>": 395,
    "(ENQ088,</w>": 396,
    "(ENQ089": 397,
    "(ENQ089)</w>": 398,
    "(ENQ089,</w>": 399,
    "(ENQ09": 400,
    "(ENQ090)</w>": 401,
    "(ENQ090,</w>": 402,
    "(ENQ091)</w>": 403,
    "(ENQ091,</w>": 404,
    "(ENQ092": 405,
    "(ENQ092)</w>": 406,
    "(ENQ092,</w>": 407,
    "(ENQ093)</w>": 408,
    "(ENQ093,</w>": 409,
    "(ENQ094": 410,
    "(ENQ094)</w>": 411,
    "(ENQ094,</w>": 412,
    "(ENQ095": 413,
    "(ENQ095)</w>": 414,
    "(ENQ095,</w>": 415,
    "(ENQ096)</w>": 416,
    "(ENQ096,</w>": 417,
    "(ENQ097)</w>": 418,
    "(ENQ097,</w>": 419,
    "(ENQ098": 420,
    "(ENQ098)</w>": 421,
    "(ENQ098,</w>": 422,
    "(ENQ099)</w>": 423,
    "(ENQ099,</w>": 424,
    "(ENQ100)</w>": 425,
    "(ENQ100,</w>": 426,
    "(Enquiry</w>": 427,
    "(Executive</w>": 428,
    "(Financial</w>": 429,
    "(GST:</w>": 430,
    "(H": 431,
    "(He</w>": 432,
    "(Honda</w>": 433,
    "(Hyundai</w>": 434,
    "(I": 435,
    "(ID:</w>": 436,
    "(ID</w>": 437,
    "(INCLUD": 438,
    "(INCLUDING": 439,
    "(INCLUDING,</w>": 440,
    "(INCLUDING</w>": 441,
    "(INVOICE": 442,
    "(INVOICE):</w>": 443,
    "(Karthik": 444,
    "(Karthik):</w>": 445,
    "(Karthik)</w>": 446,
    "(Kia</w>": 447,
    "(MERCHANTABILITY,</w>": 448,
    "(Maruti</w>": 449,
    "(Meer": 450,
    "(Meera):</w>": 451,
    "(Meera)</w>": 452,
    "(Preamble": 453,
    "(Preamble):</w>": 454,
    "(PyDispatcher</w>": 455,
    "(Ravi": 456,
    "(Ravi):</w>": 457,
    "(Ravi)</w>": 458,
    "(Section</w>": 459,
    "(SmartFallbackEngin": 460,
    "(SmartFallbackEngine,</w>": 461,
    "(Sneha": 462,
    "(Sneha):</w>": 463,
    "(Sneha)</w>": 464,
    "(Summary):</w>": 465,
    "(Tata</w>": 466,
    "(Traceback</w>": 467,
    "(Vikram": 468,
    "(Vikram):</w>": 469,
    "(Vikram)</w>": 470,
    "(a": 471,
    "(all</w>": 472,
    "(and</w>": 473,
    "(aver": 474,
    "(average": 475,
    "(average).</w>": 476,
    "(c": 477,
    "(c)</w>": 478,
    "(dis": 479,
    "(dissatisfied).</w>": 480,
    "(e": 481,
    "(enquiry</w>": 482,
    "(every</w>": 483,
    "(https://": 484,
    "(https://f": 485,
    "(https://font": 486,
    "(https://fontawesom": 487,
    "(https://fontawesome": 488,
    "(https://fontawesome.com/": 489,
    "(https://fontawesome.com/)</w>": 490,
    "(most</w>": 491,
    "(n</w>": 492,
    "(not</w>": 493,
    "(satisfied).</w>": 494,
    "(se": 495,
    "(see</w>": 496,
    "(the</w>": 497,
    "({{</w>": 498,
    "(≤": 499,
    "(≤2": 500,
    "(≤2/": 501,
    "(≤2/5):</w>": 502,
    "(≥": 503,
    "(≥4/": 504,
    "(≥4/5):</w>": 505,
    ")": 506,
    "),</w>": 507,
    ").</w>": 508,
    "):</w>": 509,
    "*": 510,
    "**": 511,
    "**#</w>": 512,
    "**.</w>": 513,
    "**:</w>": 514,
    "**</w>": 515,
    "**COPYRIGHT</w>": 516,
    "**Certification": 517,
    "**Certifications**:</w>": 518,
    "**Con": 519,
    "**Conclusion": 520,
    "**Conclusions:**</w>": 521,
    "**Copyright</w>": 522,
    "**Detail": 523,
    "**Detailed</w>": 524,
    "**Document</w>": 525,
    "**E": 526,
    "**Eviden": 527,
    "**Evidence": 528,
    "**Evidence/": 529,
    "**Evidence/support</w>": 530,
    "**Executive</w>": 531,
    "**G": 532,
    "**GST:</w>": 533,
    "**Gener": 534,
    "**General**</w>": 535,
    "**IFSC:</w>": 536,
    "**INVOICE": 537,
    "**INVOICE**:</w>": 538,
    "**In": 539,
    "**Invoic": 540,
    "**Invoice": 541,
    "**Invoice**</w>": 542,
    "**Invoice</w>": 543,
    "**John</w>": 544,
    "**Key</w>": 545,
    "**Leg": 546,
    "**Legal**</w>": 547,
    "**M": 548,
    "**MERCHANTABILITY,</w>": 549,
    "**Main</w>": 550,
    "**P": 551,
    "**Payment</w>": 552,
    "**Pream": 553,
    "**Preamble": 554,
    "**Preamble**:</w>": 555,
    "**Project": 556,
    "**Projects**:</w>": 557,
    "**Purpos": 558,
    "**Purpose:**</w>": 559,
    "**PyDispatcher</w>": 560,
    "**Repor": 561,
    "**Report**</w>": 562,
    "**Research</w>": 563,
    "**Resu": 564,
    "**Resume": 565,
    "**Resume**</w>": 566,
    "**Section</w>": 567,
    "**Services": 568,
    "**Services:**:</w>": 569,
    "**Summary": 570,
    "**Summary**:</w>": 571,
    "**Summary</w>": 572,
    "**Technical</w>": 573,
    "**The</w>": 574,
    "**This</w>": 575,
    "**Work</w>": 576,
    "**{%</w>": 577,
    "*1.</w>": 578,
    "*Abstract": 579,
    "*Abstract*</w>": 580,
    "*COPYRIGHT</w>": 581,
    "*Copyright</w>": 582,
    "*Document</w>": 583,
    "*Educ": 584,
    "*Education": 585,
    "*Education*</w>": 586,
    "*Executive</w>": 587,
    "*Financial</w>": 588,
    "*GST:</w>": 589,
    "*INVOICE": 590,
    "*INVOICE*</w>": 591,
    "*MERCHANTABILITY,</w>": 592,
    "*Preamble": 593,
    "*Preamble*</w>": 594,
    "*PyDispatcher</w>": 595,
    "*Section</w>": 596,
    "*Services:": 597,
    "*Services:*</w>": 598,
    "*Summary*</w>": 599,
    "*Work</w>": 600,
    "+": 601,
    "+91</w>": 602,
    ",": 603,
    ",00": 604,
    ",000": 605,
    ",000</w>": 606,
    "-": 607,
    "-2024": 608,
    "-2024-": 609,
    "-P": 610,
    "-b": 611,
    "-based</w>": 612,
    ".": 613,
    ".0</w>": 614,
    ".1": 615,
    ".1%.</w>": 616,
    ".1</w>": 617,
    ".2": 618,
    ".2,": 619,
    ".2,<": 620,
    ".2,<5": 621,
    ".2,<5.2</w>": 622,
    ".2</w>": 623,
    ".3": 624,
    ".3%</w>": 625,
    ".3</w>": 626,
    ".com": 627,
    ".com/": 628,
    ".doc": 629,
    ".docx</w>": 630,
    ".or": 631,
    ".org": 632,
    ".org/": 633,
    ".p": 634,
    ".pd": 635,
    ".pdf": 636,
    ".pdf**</w>": 637,
    ".pdf</w>": 638,
    ".py</w>": 639,
    ".t": 640,
    ".tx": 641,
    ".txt**</w>": 642,
    ".txt</w>": 643,
    ".xl": 644,
    ".xls": 645,
    ".xls</w>": 646,
    ".xlsx</w>": 647,
    "/": 648,
    "/2": 649,
    "/202": 650,
    "/2026.</w>": 651,
    "/2026</w>": 652,
    "/5.</w>": 653,
    "/5</w>": 654,
    "/h": 655,
    "/hr": 656,
    "/hr)</w>": 657,
    "0": 658,
    "0).</w>": 659,
    "0):</w>": 660,
    "0)</w>": 661,
    "0,</w>": 662,
    "0.": 663,
    "0.001</w>": 664,
    "0.</w>": 665,
    "0/2026.</w>": 666,
    "0/2026</w>": 667,
    "00": 668,
    "000": 669,
    "001": 670,
    "001</w>": 671,
    "00</w>": 672,
    "02": 673,
    "05": 674,
    "0:</w>": 675,
    "0?</w>": 676,
    "0@example.com.</w>": 677,
    "0@example.com</w>": 678,
    "1": 679,
    "1).</w>": 680,
    "1):</w>": 681,
    "1)</w>": 682,
    "1**:</w>": 683,
    "1*</w>": 684,
    "1,": 685,
    "1,2": 686,
    "1,240</w>": 687,
    "1,</w>": 688,
    "1.": 689,
    "1.1": 690,
    "1.1:": 691,
    "1.1:**.</w>": 692,
    "1.1:.</w>": 693,
    "1.1:</w>": 694,
    "1.5%</w>": 695,
    "1.9": 696,
    "1.9%</w>": 697,
    "1.</w>": 698,
    "1/2026.</w>": 699,
    "1/2026</w>": 700,
    "1/5.</w>": 701,
    "1/5</w>": 702,
    "10": 703,
    "10,</w>": 704,
    "10.</w>": 705,
    "100": 706,
    "100</w>": 707,
    "100K</w>": 708,
    "10:00,</w>": 709,
    "10:00.</w>": 710,
    "10:00</w>": 711,
    "10:30,</w>": 712,
    "10:30.</w>": 713,
    "10:30</w>": 714,
    "10</w>": 715,
    "11": 716,
    "113": 717,
    "114": 718,
    "117": 719,
    "11:00,</w>": 720,
    "11:00.</w>": 721,
    "11:00</w>": 722,
    "11:30,</w>": 723,
    "11:30.</w>": 724,
    "11:30</w>": 725,
    "11</w>": 726,
    "12": 727,
    "12%</w>": 728,
    "123": 729,
    "1234": 730,
    "123456": 731,
    "123456789": 732,
    "1234567890.</w>": 733,
    "1234567890</w>": 734,
    "123</w>": 735,
    "12:00,</w>": 736,
    "12:00.</w>": 737,
    "12:00</w>": 738,
    "12:30,</w>": 739,
    "12:30.</w>": 740,
    "12:30</w>": 741,
    "12</w>": 742,
    "13": 743,
    "1378": 744,
    "13:00,</w>": 745,
    "13:00.</w>": 746,
    "13:00</w>": 747,
    "13:30,</w>": 748,
    "13:30.</w>": 749,
    "13:30</w>": 750,
    "14": 751,
    "14,</w>": 752,
    "14:00,</w>": 753,
    "14:00.</w>": 754,
    "14:00</w>": 755,
    "14:30,</w>": 756,
    "14:30.</w>": 757,
    "14:30</w>": 758,
    "14</w>": 759,
    "15": 760,
    "15%</w>": 761,
    "15,</w>": 762,
    "15.1%.</w>": 763,
    "15.</w>": 764,
    "15:00,</w>": 765,
    "15:00.</w>": 766,
    "15:00</w>": 767,
    "15:30,</w>": 768,
    "15:30.</w>": 769,
    "15:30</w>": 770,
    "15</w>": 771,
    "16": 772,
    "16)</w>": 773,
    "16:00,</w>": 774,
    "16:00.</w>": 775,
    "16:00</w>": 776,
    "16:30,</w>": 777,
    "16:30.</w>": 778,
    "16:30</w>": 779,
    "16</w>": 780,
    "17": 781,
    "170": 782,
    "172": 783,
    "17:00,</w>": 784,
    "17:00.</w>": 785,
    "17:00</w>": 786,
    "17:30,</w>": 787,
    "17:30.</w>": 788,
    "17:30</w>": 789,
    "17</w>": 790,
    "18": 791,
    "18.3%</w>": 792,
    "183": 793,
    "184</w>": 794,
    "18:00,</w>": 795,
    "18:00.</w>": 796,
    "18:00</w>": 797,
    "18:30,</w>": 798,
    "18:30.</w>": 799,
    "18:30</w>": 800,
    "18</w>": 801,
    "19": 802,
    "1911": 803,
    "19</w>": 804,
    "1:</w>": 805,
    "1?</w>": 806,
    "1@example.com.</w>": 807,
    "1@example.com</w>": 808,
    "2": 809,
    "2).</w>": 810,
    "2):</w>": 811,
    "2)</w>": 812,
    "2**:</w>": 813,
    "2*</w>": 814,
    "2,</w>": 815,
    "2.1": 816,
    "2.1%.</w>": 817,
    "2.1%</w>": 818,
    "2.</w>": 819,
    "2/5.</w>": 820,
    "2/5</w>": 821,
    "20": 822,
    "200": 823,
    "2001": 824,
    "2001-": 825,
    "2001-200": 826,
    "2001-2003,</w>": 827,
    "2007": 828,
    "2007-": 829,
    "2007-pres": 830,
    "2007-present</w>": 831,
    "2016)</w>": 832,
    "2018</w>": 833,
    "202": 834,
    "2021": 835,
    "2021).</w>": 836,
    "2023": 837,
    "2023,</w>": 838,
    "2023.</w>": 839,
    "2023:</w>": 840,
    "2024": 841,
    "2024,</w>": 842,
    "2024.</w>": 843,
    "2024</w>": 844,
    "206": 845,
    "20</w>": 846,
    "21</w>": 847,
    "22": 848,
    "222": 849,
    "22</w>": 850,
    "23": 851,
    "23%.</w>": 852,
    "23%</w>": 853,
    "23</w>": 854,
    "25</w>": 855,
    "26</w>": 856,
    "27": 857,
    "27AA": 858,
    "27AAA": 859,
    "27AAAC": 860,
    "27AAACM": 861,
    "27AAACM1234": 862,
    "27AAACM1234A": 863,
    "27AAACM1234A1": 864,
    "27AAACM1234A1Z": 865,
    "27AAACM1234A1Z5": 866,
    "27AAACM1234A1Z5):</w>": 867,
    "27AAACM1234A1Z5**:</w>": 868,
    "27AAACM1234A1Z5*</w>": 869,
    "27AAACM1234A1Z5</w>": 870,
    "2:</w>": 871,
    "2?</w>": 872,
    "2@example.com.</w>": 873,
    "2@example.com</w>": 874,
    "2M</w>": 875,
    "3": 876,
    "3%</w>": 877,
    "3).</w>": 878,
    "3):</w>": 879,
    "3)</w>": 880,
    "3**:</w>": 881,
    "3,</w>": 882,
    "3.1": 883,
    "3.13/5</w>": 884,
    "3.</w>": 885,
    "3/": 886,
    "3/1": 887,
    "3/17": 888,
    "3/17/2026.</w>": 889,
    "3/17/2026</w>": 890,
    "3/18": 891,
    "3/18/2026.</w>": 892,
    "3/18/2026</w>": 893,
    "3/19/2026.</w>": 894,
    "3/19/2026</w>": 895,
    "3/2": 896,
    "3/20/2026.</w>": 897,
    "3/20/2026</w>": 898,
    "3/2026.</w>": 899,
    "3/2026</w>": 900,
    "3/21/2026.</w>": 901,
    "3/21/2026</w>": 902,
    "3/23/2026.</w>": 903,
    "3/23/2026</w>": 904,
    "3/24/2026.</w>": 905,
    "3/24/2026</w>": 906,
    "3/25/2026.</w>": 907,
    "3/25/2026</w>": 908,
    "3/26/2026.</w>": 909,
    "3/26/2026</w>": 910,
    "3/27/2026.</w>": 911,
    "3/27/2026</w>": 912,
    "3/28/2026.</w>": 913,
    "3/28/2026</w>": 914,
    "3/29/2026.</w>": 915,
    "3/29/2026</w>": 916,
    "3/3": 917,
    "3/30/2026.</w>": 918,
    "3/30/2026</w>": 919,
    "3/31/2026.</w>": 920,
    "3/31/2026</w>": 921,
    "3/5.</w>": 922,
    "3/5</w>": 923,
    "30": 924,
    "30/2026.</w>": 925,
    "30/2026</w>": 926,
    "306": 927,
    "30</w>": 928,
    "31": 929,
    "31</w>": 930,
    "32": 931,
    "32</w>": 932,
    "32×": 933,
    "32×32": 934,
    "32×32.</w>": 935,
    "33": 936,
    "335": 937,
    "33</w>": 938,
    "34": 939,
    "34%.</w>": 940,
    "35": 941,
    "35%</w>": 942,
    "35</w>": 943,
    "38": 944,
    "38</w>": 945,
    "39</w>": 946,
    "3:</w>": 947,
    "3?</w>": 948,
    "3@example.com.</w>": 949,
    "3@example.com</w>": 950,
    "3D</w>": 951,
    "4": 952,
    "4).</w>": 953,
    "4):</w>": 954,
    "4)</w>": 955,
    "4**:</w>": 956,
    "4,</w>": 957,
    "4.</w>": 958,
    "4/": 959,
    "4/1": 960,
    "4/1/2026.</w>": 961,
    "4/1/2026</w>": 962,
    "4/10/2026.</w>": 963,
    "4/10/2026</w>": 964,
    "4/11/2026.</w>": 965,
    "4/11/2026</w>": 966,
    "4/12": 967,
    "4/12/2026.</w>": 968,
    "4/12/2026</w>": 969,
    "4/13/2026.</w>": 970,
    "4/13/2026</w>": 971,
    "4/14/2026.</w>": 972,
    "4/14/2026</w>": 973,
    "4/15/2026.</w>": 974,
    "4/15/2026</w>": 975,
    "4/16/2026.</w>": 976,
    "4/16/2026</w>": 977,
    "4/17/2026</w>": 978,
    "4/18/2026.</w>": 979,
    "4/18/2026</w>": 980,
    "4/19/2026.</w>": 981,
    "4/19/2026</w>": 982,
    "4/2": 983,
    "4/2/2026.</w>": 984,
    "4/2/2026</w>": 985,
    "4/20/2026.</w>": 986,
    "4/20/2026</w>": 987,
    "4/2026.</w>": 988,
    "4/2026</w>": 989,
    "4/21/2026.</w>": 990,
    "4/21/2026</w>": 991,
    "4/22": 992,
    "4/22/2026.</w>": 993,
    "4/22/2026</w>": 994,
    "4/23/2026.</w>": 995,
    "4/23/2026</w>": 996,
    "4/24/2026.</w>": 997,
    "4/24/2026</w>": 998,
    "4/25/2026.</w>": 999,
    "4/25/2026</w>": 1000,
    "4/26/2026.</w>": 1001,
    "4/26/2026</w>": 1002,
    "4/27/2026.</w>": 1003,
    "4/27/2026</w>": 1004,
    "4/28/2026.</w>": 1005,
    "4/28/2026</w>": 1006,
    "4/29/2026.</w>": 1007,
    "4/29/2026</w>": 1008,
    "4/3/2026.</w>": 1009,
    "4/3/2026</w>": 1010,
    "4/30/2026.</w>": 1011,
    "4/30/2026</w>": 1012,
    "4/4/2026.</w>": 1013,
    "4/4/2026</w>": 1014,
    "4/5.</w>": 1015,
    "4/5/2026.</w>": 1016,
    "4/5/2026</w>": 1017,
    "4/5</w>": 1018,
    "4/6/2026.</w>": 1019,
    "4/6/2026</w>": 1020,
    "4/7/2026.</w>": 1021,
    "4/7/2026</w>": 1022,
    "4/8/2026.</w>": 1023,
    "4/8/2026</w>": 1024,
    "4/9/2026.</w>": 1025,
    "4/9/2026</w>": 1026,
    "40": 1027,
    "40%</w>": 1028,
    "400": 1029,
    "400001</w>": 1030,
    "40</w>": 1031,
    "42": 1032,
    "42%</w>": 1033,
    "44": 1034,
    "44</w>": 1035,
    "45": 1036,
    "45%</w>": 1037,
    "45,</w>": 1038,
    "45.</w>": 1039,
    "456": 1040,
    "456</w>": 1041,
    "45</w>": 1042,
    "47": 1043,
    "47</w>": 1044,
    "48": 1045,
    "49</w>": 1046,
    "4:</w>": 1047,
    "4?</w>": 1048,
    "4@example.com.</w>": 1049,
    "4@example.com</w>": 1050,
    "5": 1051,
    "5%</w>": 1052,
    "5).</w>": 1053,
    "5):</w>": 1054,
    "5)</w>": 1055,
    "5,</w>": 1056,
    "5-": 1057,
    "5-line</w>": 1058,
    "5.</w>": 1059,
    "5/": 1060,
    "5/1/2026.</w>": 1061,
    "5/1/2026</w>": 1062,
    "5/2": 1063,
    "5/2/2026.</w>": 1064,
    "5/2/2026</w>": 1065,
    "5/2026.</w>": 1066,
    "5/2026</w>": 1067,
    "5/3/2026.</w>": 1068,
    "5/3/2026</w>": 1069,
    "5/4/2026.</w>": 1070,
    "5/4/2026</w>": 1071,
    "5/5.</w>": 1072,
    "5/5/2026.</w>": 1073,
    "5/5/2026</w>": 1074,
    "5/5</w>": 1075,
    "5/6/2026.</w>": 1076,
    "5/6/2026</w>": 1077,
    "50": 1078,
    "50,000</w>": 1079,
    "500": 1080,
    "500/hr)</w>": 1081,
    "500K</w>": 1082,
    "52</w>": 1083,
    "53": 1084,
    "53</w>": 1085,
    "54": 1086,
    "544": 1087,
    "55": 1088,
    "55</w>": 1089,
    "56": 1090,
    "56000": 1091,
    "560001</w>": 1092,
    "5:</w>": 1093,
    "5?</w>": 1094,
    "5@example.com.</w>": 1095,
    "5@example.com</w>": 1096,
    "6": 1097,
    "6).</w>": 1098,
    "6):</w>": 1099,
    "6)</w>": 1100,
    "6,</w>": 1101,
    "6.</w>": 1102,
    "6/2026.</w>": 1103,
    "6/2026</w>": 1104,
    "60": 1105,
    "63": 1106,
    "64": 1107,
    "68": 1108,
    "6:</w>": 1109,
    "6?</w>": 1110,
    "6@example.com.</w>": 1111,
    "6@example.com</w>": 1112,
    "7": 1113,
    "7).</w>": 1114,
    "7):</w>": 1115,
    "7)</w>": 1116,
    "7,</w>": 1117,
    "7.</w>": 1118,
    "7/2026.</w>": 1119,
    "7/2026</w>": 1120,
    "702": 1121,
    "73": 1122,
    "75": 1123,
    "76": 1124,
    "76,</w>": 1125,
    "76.": 1126,
    "76.8%</w>": 1127,
    "767": 1128,
    "78": 1129,
    "789": 1130,
    "79": 1131,
    "796": 1132,
    "7:</w>": 1133,
    "7?</w>": 1134,
    "7@example.com.</w>": 1135,
    "7@example.com</w>": 1136,
    "8": 1137,
    "8%</w>": 1138,
    "8).</w>": 1139,
    "8):</w>": 1140,
    "8)</w>": 1141,
    "8,": 1142,
    "8,8": 1143,
    "8,800</w>": 1144,
    "8,</w>": 1145,
    "8.": 1146,
    "8.7": 1147,
    "8.7/": 1148,
    "8.7/10</w>": 1149,
    "8.</w>": 1150,
    "8/2026.</w>": 1151,
    "8/2026</w>": 1152,
    "80": 1153,
    "86": 1154,
    "88": 1155,
    "89": 1156,
    "89%.</w>": 1157,
    "89%</w>": 1158,
    "8:</w>": 1159,
    "8?</w>": 1160,
    "8@example.com.</w>": 1161,
    "8@example.com</w>": 1162,
    "9": 1163,
    "9).</w>": 1164,
    "9):</w>": 1165,
    "9)</w>": 1166,
    "9,</w>": 1167,
    "9.</w>": 1168,
    "9/2026.</w>": 1169,
    "9/2026</w>": 1170,
    "90,</w>": 1171,
    "90.</w>": 1172,
    "90</w>": 1173,
    "9113": 1174,
    "91135": 1175,
    "911357": 1176,
    "91135733": 1177,
    "911357339": 1178,
    "9113573391,</w>": 1179,
    "9113573391.</w>": 1180,
    "9113573391</w>": 1181,
    "9114": 1182,
    "91148": 1183,
    "911487": 1184,
    "91148754": 1185,
    "911487540": 1186,
    "9114875404,</w>": 1187,
    "9114875404.</w>": 1188,
    "9114875404</w>": 1189,
    "914": 1190,
    "9148": 1191,
    "914812": 1192,
    "91481244": 1193,
    "9148124440": 1194,
    "9148124440,</w>": 1195,
    "9148124440.</w>": 1196,
    "9148124440</w>": 1197,
    "915": 1198,
    "9150": 1199,
    "915063": 1200,
    "915063796": 1201,
    "9150637961,</w>": 1202,
    "9150637961.</w>": 1203,
    "9150637961</w>": 1204,
    "918": 1205,
    "91802": 1206,
    "9180233": 1207,
    "91802333": 1208,
    "918023331": 1209,
    "9180233313": 1210,
    "9180233313,</w>": 1211,
    "9180233313.</w>": 1212,
    "9180233313</w>": 1213,
    "91</w>": 1214,
    "92": 1215,
    "9217": 1216,
    "921712": 1217,
    "92171288": 1218,
    "921712887": 1219,
    "9217128879,</w>": 1220,
    "9217128879.</w>": 1221,
    "9217128879</w>": 1222,
    "922": 1223,
    "92247": 1224,
    "922470": 1225,
    "92247019": 1226,
    "922470191": 1227,
    "9224701911": 1228,
    "9224701911,</w>": 1229,
    "9224701911.</w>": 1230,
    "9224701911</w>": 1231,
    "92264": 1232,
    "922642": 1233,
    "92264256": 1234,
    "9226425645,</w>": 1235,
    "9226425645.</w>": 1236,
    "9226425645</w>": 1237,
    "9227": 1238,
    "92274": 1239,
    "9227445": 1240,
    "922744589": 1241,
    "9227445899,</w>": 1242,
    "9227445899.</w>": 1243,
    "9227445899</w>": 1244,
    "92278": 1245,
    "92278170": 1246,
    "9227817015,</w>": 1247,
    "9227817015.</w>": 1248,
    "9227817015</w>": 1249,
    "92335": 1250,
    "923351": 1251,
    "92335102": 1252,
    "9233510230": 1253,
    "9233510230,</w>": 1254,
    "9233510230.</w>": 1255,
    "9233510230</w>": 1256,
    "9234": 1257,
    "923432": 1258,
    "92343233": 1259,
    "923432335": 1260,
    "9234323354": 1261,
    "9234323354,</w>": 1262,
    "9234323354.</w>": 1263,
    "9234323354</w>": 1264,
    "9235": 1265,
    "92351911": 1266,
    "9235191190,</w>": 1267,
    "9235191190.</w>": 1268,
    "9235191190</w>": 1269,
    "9238": 1270,
    "923844": 1271,
    "92384476": 1272,
    "923844766": 1273,
    "9238447669,</w>": 1274,
    "9238447669.</w>": 1275,
    "9238447669</w>": 1276,
    "925": 1277,
    "925956": 1278,
    "9259562": 1279,
    "925956218": 1280,
    "9259562184,</w>": 1281,
    "9259562184.</w>": 1282,
    "9259562184</w>": 1283,
    "93": 1284,
    "9306": 1285,
    "930630": 1286,
    "930630767": 1287,
    "9306307674,</w>": 1288,
    "9306307674.</w>": 1289,
    "9306307674</w>": 1290,
    "93183": 1291,
    "9318316": 1292,
    "93183166": 1293,
    "931831665": 1294,
    "9318316658,</w>": 1295,
    "9318316658.</w>": 1296,
    "9318316658</w>": 1297,
    "933": 1298,
    "9332": 1299,
    "933294": 1300,
    "9332943": 1301,
    "93329436": 1302,
    "9332943610,</w>": 1303,
    "9332943610.</w>": 1304,
    "9332943610</w>": 1305,
    "9333": 1306,
    "933312": 1307,
    "9333127": 1308,
    "933312735": 1309,
    "9333127357,</w>": 1310,
    "9333127357.</w>": 1311,
    "9333127357</w>": 1312,
    "93376": 1313,
    "9337664": 1314,
    "933766468": 1315,
    "9337664683,</w>": 1316,
    "9337664683.</w>": 1317,
    "9337664683</w>": 1318,
    "934": 1319,
    "93440": 1320,
    "9344054": 1321,
    "93440541": 1322,
    "934405419": 1323,
    "9344054199": 1324,
    "9344054199,</w>": 1325,
    "9344054199.</w>": 1326,
    "9344054199</w>": 1327,
    "93468": 1328,
    "9346898": 1329,
    "934689856": 1330,
    "9346898564,</w>": 1331,
    "9346898564.</w>": 1332,
    "9346898564</w>": 1333,
    "935": 1334,
    "93544": 1335,
    "9354418": 1336,
    "93544187": 1337,
    "935441879": 1338,
    "9354418791,</w>": 1339,
    "9354418791.</w>": 1340,
    "9354418791</w>": 1341,
    "9355": 1342,
    "935595": 1343,
    "93559578": 1344,
    "935595783": 1345,
    "9355957839,</w>": 1346,
    "9355957839.</w>": 1347,
    "9355957839</w>": 1348,
    "93594": 1349,
    "9359496": 1350,
    "935949676": 1351,
    "9359496766,</w>": 1352,
    "9359496766.</w>": 1353,
    "9359496766</w>": 1354,
    "936": 1355,
    "936170": 1356,
    "936170960": 1357,
    "9361709609,</w>": 1358,
    "9361709609.</w>": 1359,
    "9361709609</w>": 1360,
    "9366": 1361,
    "93662": 1362,
    "9366294": 1363,
    "93662949": 1364,
    "936629497": 1365,
    "9366294976,</w>": 1366,
    "9366294976.</w>": 1367,
    "9366294976</w>": 1368,
    "9373": 1369,
    "937379": 1370,
    "9373790": 1371,
    "93737907": 1372,
    "937379070": 1373,
    "9373790702": 1374,
    "9373790702,</w>": 1375,
    "9373790702.</w>": 1376,
    "9373790702</w>": 1377,
    "9379": 1378,
    "937917": 1379,
    "9379177": 1380,
    "937917792": 1381,
    "9379177922,</w>": 1382,
    "9379177922.</w>": 1383,
    "9379177922</w>": 1384,
    "938": 1385,
    "938117": 1386,
    "93811778": 1387,
    "938117789": 1388,
    "9381177898": 1389,
    "9381177898,</w>": 1390,
    "9381177898.</w>": 1391,
    "9381177898</w>": 1392,
    "9394": 1393,
    "939489": 1394,
    "93948932": 1395,
    "939489325": 1396,
    "9394893255,</w>": 1397,
    "9394893255.</w>": 1398,
    "9394893255</w>": 1399,
    "93949": 1400,
    "9394960": 1401,
    "939496096": 1402,
    "9394960969,</w>": 1403,
    "9394960969.</w>": 1404,
    "9394960969</w>": 1405,
    "94": 1406,
    "94.3%</w>": 1407,
    "9402": 1408,
    "940235": 1409,
    "94023517": 1410,
    "940235172": 1411,
    "9402351720": 1412,
    "9402351720,</w>": 1413,
    "9402351720.</w>": 1414,
    "9402351720</w>": 1415,
    "9405": 1416,
    "9405222": 1417,
    "940522230": 1418,
    "9405222306,</w>": 1419,
    "9405222306.</w>": 1420,
    "9405222306</w>": 1421,
    "9415": 1422,
    "94157": 1423,
    "9415720": 1424,
    "94157208": 1425,
    "9415720845,</w>": 1426,
    "9415720845.</w>": 1427,
    "9415720845</w>": 1428,
    "942": 1429,
    "94215": 1430,
    "9421519": 1431,
    "942151918": 1432,
    "9421519189,</w>": 1433,
    "9421519189.</w>": 1434,
    "9421519189</w>": 1435,
    "9435": 1436,
    "943555": 1437,
    "9435557": 1438,
    "94355574": 1439,
    "943555749": 1440,
    "9435557492": 1441,
    "9435557492,</w>": 1442,
    "9435557492.</w>": 1443,
    "9435557492</w>": 1444,
    "946": 1445,
    "9460": 1446,
    "946078": 1447,
    "94607810": 1448,
    "946078104": 1449,
    "9460781047,</w>": 1450,
    "9460781047.</w>": 1451,
    "9460781047</w>": 1452,
    "94632": 1453,
    "946328": 1454,
    "9463281": 1455,
    "946328118": 1456,
    "9463281186,</w>": 1457,
    "9463281186.</w>": 1458,
    "9463281186</w>": 1459,
    "9464": 1460,
    "946422": 1461,
    "94642280": 1462,
    "946422808": 1463,
    "9464228084,</w>": 1464,
    "9464228084.</w>": 1465,
    "9464228084</w>": 1466,
    "94767": 1467,
    "9476732": 1468,
    "947673227": 1469,
    "9476732277,</w>": 1470,
    "9476732277.</w>": 1471,
    "9476732277</w>": 1472,
    "9478": 1473,
    "947845": 1474,
    "9478459": 1475,
    "94784590": 1476,
    "9478459012": 1477,
    "9478459012,</w>": 1478,
    "9478459012.</w>": 1479,
    "9478459012</w>": 1480,
    "9479": 1481,
    "9479306": 1482,
    "947930656": 1483,
    "9479306566,</w>": 1484,
    "9479306566.</w>": 1485,
    "9479306566</w>": 1486,
    "949": 1487,
    "94920": 1488,
    "9492048": 1489,
    "94920487": 1490,
    "949204872": 1491,
    "9492048725,</w>": 1492,
    "9492048725.</w>": 1493,
    "9492048725</w>": 1494,
    "95": 1495,
    "950": 1496,
    "95030": 1497,
    "9503054": 1498,
    "950305475": 1499,
    "9503054751,</w>": 1500,
    "9503054751.</w>": 1501,
    "9503054751</w>": 1502,
    "9510": 1503,
    "951078": 1504,
    "9510786": 1505,
    "951078692": 1506,
    "9510786926,</w>": 1507,
    "9510786926.</w>": 1508,
    "9510786926</w>": 1509,
    "9513": 1510,
    "9513113": 1511,
    "951311347": 1512,
    "9513113472,</w>": 1513,
    "9513113472.</w>": 1514,
    "9513113472</w>": 1515,
    "95172": 1516,
    "9517263": 1517,
    "951726314": 1518,
    "9517263141,</w>": 1519,
    "9517263141.</w>": 1520,
    "9517263141</w>": 1521,
    "952": 1522,
    "95245": 1523,
    "952457": 1524,
    "95245730": 1525,
    "952457309": 1526,
    "9524573098": 1527,
    "9524573098,</w>": 1528,
    "9524573098.</w>": 1529,
    "9524573098</w>": 1530,
    "9545": 1531,
    "954575": 1532,
    "95457575": 1533,
    "9545757512": 1534,
    "9545757512,</w>": 1535,
    "9545757512.</w>": 1536,
    "9545757512</w>": 1537,
    "955": 1538,
    "9552": 1539,
    "955220": 1540,
    "95522035": 1541,
    "955220352": 1542,
    "9552203528,</w>": 1543,
    "9552203528.</w>": 1544,
    "9552203528</w>": 1545,
    "956": 1546,
    "95610": 1547,
    "956105": 1548,
    "956105952": 1549,
    "9561059525,</w>": 1550,
    "9561059525.</w>": 1551,
    "9561059525</w>": 1552,
    "957": 1553,
    "95755": 1554,
    "957552": 1555,
    "95755280": 1556,
    "957552805": 1557,
    "9575528055,</w>": 1558,
    "9575528055.</w>": 1559,
    "9575528055</w>": 1560,
    "958": 1561,
    "9580": 1562,
    "958080": 1563,
    "9580806": 1564,
    "958080618": 1565,
    "9580806184,</w>": 1566,
    "9580806184.</w>": 1567,
    "9580806184</w>": 1568,
    "95847": 1569,
    "9584748": 1570,
    "958474800": 1571,
    "9584748006,</w>": 1572,
    "9584748006.</w>": 1573,
    "9584748006</w>": 1574,
    "9586": 1575,
    "95865": 1576,
    "9586550": 1577,
    "958655094": 1578,
    "9586550941,</w>": 1579,
    "9586550941.</w>": 1580,
    "9586550941</w>": 1581,
    "958698": 1582,
    "95869812": 1583,
    "9586981210,</w>": 1584,
    "9586981210.</w>": 1585,
    "9586981210</w>": 1586,
    "958936": 1587,
    "95893664": 1588,
    "958936643": 1589,
    "9589366438,</w>": 1590,
    "9589366438.</w>": 1591,
    "9589366438</w>": 1592,
    "9598": 1593,
    "959893": 1594,
    "95989360": 1595,
    "959893607": 1596,
    "9598936077,</w>": 1597,
    "9598936077.</w>": 1598,
    "9598936077</w>": 1599,
    "96": 1600,
    "96,</w>": 1601,
    "960": 1602,
    "960984": 1603,
    "960984117": 1604,
    "9609841179,</w>": 1605,
    "9609841179.</w>": 1606,
    "9609841179</w>": 1607,
    "9617": 1608,
    "961754": 1609,
    "9617548": 1610,
    "96175485": 1611,
    "9617548590,</w>": 1612,
    "9617548590.</w>": 1613,
    "9617548590</w>": 1614,
    "962": 1615,
    "9626": 1616,
    "96261": 1617,
    "96261306": 1618,
    "962613067": 1619,
    "9626130672,</w>": 1620,
    "9626130672.</w>": 1621,
    "9626130672</w>": 1622,
    "965": 1623,
    "9652": 1624,
    "965214": 1625,
    "9652147": 1626,
    "965214756": 1627,
    "9652147567,</w>": 1628,
    "9652147567.</w>": 1629,
    "9652147567</w>": 1630,
    "9659": 1631,
    "9659965": 1632,
    "965996593": 1633,
    "9659965938,</w>": 1634,
    "9659965938.</w>": 1635,
    "9659965938</w>": 1636,
    "9694": 1637,
    "97": 1638,
    "9702": 1639,
    "970238": 1640,
    "97023818": 1641,
    "970238189": 1642,
    "9702381899": 1643,
    "9702381899,</w>": 1644,
    "9702381899.</w>": 1645,
    "9702381899</w>": 1646,
    "971": 1647,
    "97145": 1648,
    "9714555": 1649,
    "971455588": 1650,
    "9714555881,</w>": 1651,
    "9714555881.</w>": 1652,
    "9714555881</w>": 1653,
    "976": 1654,
    "97668": 1655,
    "976682": 1656,
    "97668288": 1657,
    "976682882": 1658,
    "9766828827": 1659,
    "9766828827,</w>": 1660,
    "9766828827.</w>": 1661,
    "9766828827</w>": 1662,
    "97693": 1663,
    "97693936": 1664,
    "976939364": 1665,
    "9769393649,</w>": 1666,
    "9769393649.</w>": 1667,
    "9769393649</w>": 1668,
    "977": 1669,
    "97718": 1670,
    "977186": 1671,
    "97718699": 1672,
    "977186991": 1673,
    "9771869919,</w>": 1674,
    "9771869919.</w>": 1675,
    "9771869919</w>": 1676,
    "9788": 1677,
    "978822": 1678,
    "978822992": 1679,
    "9788229923,</w>": 1680,
    "9788229923.</w>": 1681,
    "9788229923</w>": 1682,
    "9795": 1683,
    "979553": 1684,
    "97955313": 1685,
    "979553137": 1686,
    "9795531378": 1687,
    "9795531378,</w>": 1688,
    "9795531378.</w>": 1689,
    "9795531378</w>": 1690,
    "9796": 1691,
    "97966": 1692,
    "9796614": 1693,
    "97966142": 1694,
    "979661423": 1695,
    "9796614234": 1696,
    "9796614234,</w>": 1697,
    "9796614234.</w>": 1698,
    "9796614234</w>": 1699,
    "9798": 1700,
    "9798936": 1701,
    "979893694": 1702,
    "9798936944,</w>": 1703,
    "9798936944.</w>": 1704,
    "9798936944</w>": 1705,
    "98": 1706,
    "980": 1707,
    "98017": 1708,
    "980178": 1709,
    "98017822": 1710,
    "980178222": 1711,
    "9801782223": 1712,
    "9801782223,</w>": 1713,
    "9801782223.</w>": 1714,
    "9801782223</w>": 1715,
    "98035": 1716,
    "98035702": 1717,
    "9803570215,</w>": 1718,
    "9803570215.</w>": 1719,
    "9803570215</w>": 1720,
    "98114": 1721,
    "981144": 1722,
    "981144956": 1723,
    "9811449565,</w>": 1724,
    "9811449565.</w>": 1725,
    "9811449565</w>": 1726,
    "9816": 1727,
    "98164": 1728,
    "9816434": 1729,
    "981643497": 1730,
    "9816434971,</w>": 1731,
    "9816434971.</w>": 1732,
    "9816434971</w>": 1733,
    "982": 1734,
    "984": 1735,
    "98412": 1736,
    "984129694": 1737,
    "9841296946,</w>": 1738,
    "9841296946.</w>": 1739,
    "9841296946</w>": 1740,
    "98456": 1741,
    "984566": 1742,
    "98456612": 1743,
    "984566129": 1744,
    "9845661296,</w>": 1745,
    "9845661296.</w>": 1746,
    "9845661296</w>": 1747,
    "9855": 1748,
    "98553": 1749,
    "9855376": 1750,
    "98553765": 1751,
    "985537652": 1752,
    "9855376521,</w>": 1753,
    "9855376521.</w>": 1754,
    "9855376521</w>": 1755,
    "9863": 1756,
    "986386": 1757,
    "98638623": 1758,
    "986386233": 1759,
    "9863862339,</w>": 1760,
    "9863862339.</w>": 1761,
    "9863862339</w>": 1762,
    "987": 1763,
    "9876": 1764,
    "987654": 1765,
    "98765432": 1766,
    "9876543210</w>": 1767,
    "9877": 1768,
    "98771378": 1769,
    "987713784": 1770,
    "9877137849,</w>": 1771,
    "9877137849.</w>": 1772,
    "9877137849</w>": 1773,
    "988": 1774,
    "988206": 1775,
    "98820620": 1776,
    "988206209": 1777,
    "9882062091,</w>": 1778,
    "9882062091.</w>": 1779,
    "9882062091</w>": 1780,
    "9883": 1781,
    "988356": 1782,
    "98835695": 1783,
    "988356952": 1784,
    "9883569527": 1785,
    "9883569527,</w>": 1786,
    "9883569527.</w>": 1787,
    "9883569527</w>": 1788,
    "989": 1789,
    "98932": 1790,
    "9893234": 1791,
    "989323495": 1792,
    "9893234953,</w>": 1793,
    "9893234953.</w>": 1794,
    "9893234953</w>": 1795,
    "98942": 1796,
    "989424": 1797,
    "98942498": 1798,
    "989424982": 1799,
    "9894249820": 1800,
    "9894249820,</w>": 1801,
    "9894249820.</w>": 1802,
    "9894249820</w>": 1803,
    "98949": 1804,
    "9894997": 1805,
    "989499734": 1806,
    "9894997341,</w>": 1807,
    "9894997341.</w>": 1808,
    "9894997341</w>": 1809,
    "99": 1810,
    "9905": 1811,
    "9905982": 1812,
    "990598295": 1813,
    "9905982950,</w>": 1814,
    "9905982950.</w>": 1815,
    "9905982950</w>": 1816,
    "9910": 1817,
    "991063": 1818,
    "99106354": 1819,
    "991063544": 1820,
    "9910635445,</w>": 1821,
    "9910635445.</w>": 1822,
    "9910635445</w>": 1823,
    "9915": 1824,
    "9915183": 1825,
    "991518379": 1826,
    "9915183796": 1827,
    "9915183796,</w>": 1828,
    "9915183796.</w>": 1829,
    "9915183796</w>": 1830,
    "992": 1831,
    "99213": 1832,
    "992133": 1833,
    "99213388": 1834,
    "992133885": 1835,
    "9921338853,</w>": 1836,
    "9921338853.</w>": 1837,
    "9921338853</w>": 1838,
    "99253": 1839,
    "99253544": 1840,
    "992535441": 1841,
    "9925354413": 1842,
    "9925354413,</w>": 1843,
    "9925354413.</w>": 1844,
    "9925354413</w>": 1845,
    "9933": 1846,
    "99339694": 1847,
    "9933969415,</w>": 1848,
    "9933969415.</w>": 1849,
    "9933969415</w>": 1850,
    "994": 1851,
    "9944": 1852,
    "994410": 1853,
    "99441010": 1854,
    "9944101090,</w>": 1855,
    "9944101090.</w>": 1856,
    "9944101090</w>": 1857,
    "9945": 1858,
    "9945206": 1859,
    "994520613": 1860,
    "9945206132,</w>": 1861,
    "9945206132.</w>": 1862,
    "9945206132</w>": 1863,
    "995": 1864,
    "99513": 1865,
    "9951316": 1866,
    "995131653": 1867,
    "9951316533,</w>": 1868,
    "9951316533.</w>": 1869,
    "9951316533</w>": 1870,
    "99554": 1871,
    "9955486": 1872,
    "99554869": 1873,
    "995548699": 1874,
    "9955486997": 1875,
    "9955486997,</w>": 1876,
    "9955486997.</w>": 1877,
    "9955486997</w>": 1878,
    "996": 1879,
    "99650": 1880,
    "99650984": 1881,
    "996509846": 1882,
    "9965098465,</w>": 1883,
    "9965098465.</w>": 1884,
    "9965098465</w>": 1885,
    "9992": 1886,
    "99928": 1887,
    "9992802": 1888,
    "999280273": 1889,
    "9992802737,</w>": 1890,
    "9992802737.</w>": 1891,
    "9992802737</w>": 1892,
    "9998": 1893,
    "9998955": 1894,
    "999895513": 1895,
    "9998955134,</w>": 1896,
    "9998955134.</w>": 1897,
    "9998955134</w>": 1898,
    "9:</w>": 1899,
    "9?</w>": 1900,
    "9@example.com.</w>": 1901,
    "9@example.com</w>": 1902,
    ":": 1903,
    ":\"": 1904,
    ":\"r": 1905,
    ":**:</w>": 1906,
    ":**</w>": 1907,
    ":,</w>": 1908,
    ":.</w>": 1909,
    ":/": 1910,
    "://": 1911,
    ":00": 1912,
    ":00,</w>": 1913,
    ":00.</w>": 1914,
    ":00</w>": 1915,
    ":30": 1916,
    ":30,</w>": 1917,
    ":30.</w>": 1918,
    ":30</w>": 1919,
    ":{%</w>": 1920,
    ";": 1921,
    "<": 1922,
    "<TA": 1923,
    "<TAS": 1924,
    "<TASK": 1925,
    "<TASK=": 1926,
    "<TASK=C": 1927,
    "<TASK=CLA": 1928,
    "<TASK=CLAIM": 1929,
    "<TASK=CLAIMS_": 1930,
    "<TASK=CLAIMS_EXTRACTION></w>": 1931,
    "<TASK=CON": 1932,
    "<TASK=CONC": 1933,
    "<TASK=CONCL": 1934,
    "<TASK=CONCLU": 1935,
    "<TASK=CONCLUS": 1936,
    "<TASK=CONCLUSION": 1937,
    "<TASK=CONCLUSIONS": 1938,
    "<TASK=CONCLUSIONS></w>": 1939,
    "<TASK=CR": 1940,
    "<TASK=CROS": 1941,
    "<TASK=CROSS_": 1942,
    "<TASK=CROSS_SECTION_": 1943,
    "<TASK=CROSS_SECTION_RE": 1944,
    "<TASK=CROSS_SECTION_REA": 1945,
    "<TASK=CROSS_SECTION_REAS": 1946,
    "<TASK=CROSS_SECTION_REASON": 1947,
    "<TASK=CROSS_SECTION_REASONING></w>": 1948,
    "<TASK=D": 1949,
    "<TASK=DE": 1950,
    "<TASK=DETA": 1951,
    "<TASK=DETAI": 1952,
    "<TASK=DETAILED_": 1953,
    "<TASK=DETAILED_SUMMARY></w>": 1954,
    "<TASK=DOC": 1955,
    "<TASK=DOCUM": 1956,
    "<TASK=DOCUMEN": 1957,
    "<TASK=DOCUMENT_": 1958,
    "<TASK=DOCUMENT_PURPO": 1959,
    "<TASK=DOCUMENT_PURPOSE": 1960,
    "<TASK=DOCUMENT_PURPOSE></w>": 1961,
    "<TASK=DOCUMENT_Q": 1962,
    "<TASK=DOCUMENT_QA": 1963,
    "<TASK=DOCUMENT_QA></w>": 1964,
    "<TASK=DOCUMENT_SUMMARY></w>": 1965,
    "<TASK=DOCUMENT_TO": 1966,
    "<TASK=DOCUMENT_TOP": 1967,
    "<TASK=DOCUMENT_TOPIC": 1968,
    "<TASK=DOCUMENT_TOPIC></w>": 1969,
    "<TASK=DOCUMENT_TY": 1970,
    "<TASK=DOCUMENT_TYPE": 1971,
    "<TASK=DOCUMENT_TYPE></w>": 1972,
    "<TASK=ENTI": 1973,
    "<TASK=ENTIT": 1974,
    "<TASK=ENTITY_": 1975,
    "<TASK=ENTITY_EXTRACTION></w>": 1976,
    "<TASK=EV": 1977,
    "<TASK=EVIDEN": 1978,
    "<TASK=EVIDENC": 1979,
    "<TASK=EVIDENCE": 1980,
    "<TASK=EVIDENCE_EXTRACTION></w>": 1981,
    "<TASK=FACTS": 1982,
    "<TASK=FACTS_EXTRACTION></w>": 1983,
    "<TASK=K": 1984,
    "<TASK=KE": 1985,
    "<TASK=KEY_": 1986,
    "<TASK=KEY_PO": 1987,
    "<TASK=KEY_POIN": 1988,
    "<TASK=KEY_POINTS": 1989,
    "<TASK=KEY_POINTS></w>": 1990,
    "<TASK=S": 1991,
    "<TASK=SECTION_": 1992,
    "<TASK=SECTION_FACTS": 1993,
    "<TASK=SECTION_FACTS></w>": 1994,
    "<TASK=SECTION_SUMMARY></w>": 1995,
    "<TASK=SECTION_U": 1996,
    "<TASK=SECTION_UND": 1997,
    "<TASK=SECTION_UNDER": 1998,
    "<TASK=SECTION_UNDERSTA": 1999,
    "<TASK=SECTION_UNDERSTAND": 2000,
    "<TASK=SECTION_UNDERSTANDING></w>": 2001,
    "<TASK=SHOR": 2002,
    "<TASK=SHORT_": 2003,
    "<TASK=SHORT_SUMMARY></w>": 2004,
    "<http": 2005,
    "<http://": 2006,
    "<http://x": 2007,
    "<http://xreg": 2008,
    "<http://xregexp": 2009,
    "<http://xregexp.com/": 2010,
    "<http://xregexp.com/>": 2011,
    "<http://xregexp.com/>**:</w>": 2012,
    "<http://xregexp.com/>*</w>": 2013,
    "<http://xregexp.com/>,</w>": 2014,
    "<http://xregexp.com/>:</w>": 2015,
    "<http://xregexp.com/></w>": 2016,
    "=": 2017,
    "==</w>": 2018,
    ">": 2019,
    ">=": 2020,
    ">=1": 2021,
    ">=2": 2022,
    ">=2.0</w>": 2023,
    ">=4": 2024,
    "?": 2025,
    "@": 2026,
    "@ex": 2027,
    "@exam": 2028,
    "@example": 2029,
    "@example.": 2030,
    "@example.com": 2031,
    "@example.com.</w>": 2032,
    "@example.com</w>": 2033,
    "A": 2034,
    "AA": 2035,
    "ACT": 2036,
    "AD": 2037,
    "ADV": 2038,
    "ADVISE": 2039,
    "ADVISED": 2040,
    "ADVISED.</w>": 2041,
    "ADVISED</w>": 2042,
    "AN": 2043,
    "AND": 2044,
    "AND):</w>": 2045,
    "AND**:</w>": 2046,
    "AND*</w>": 2047,
    "AND</w>": 2048,
    "ANY": 2049,
    "ANY,</w>": 2050,
    "ANY</w>": 2051,
    "AP": 2052,
    "API</w>": 2053,
    "AR": 2054,
    "ARI": 2055,
    "ARIS": 2056,
    "ARISING</w>": 2057,
    "ARY": 2058,
    "AUT": 2059,
    "AUTHOR": 2060,
    "AUTHORS</w>": 2061,
    "AW": 2062,
    "AWS</w>": 2063,
    "Ab": 2064,
    "Abstr": 2065,
    "Abstract": 2066,
    "Abstract,</w>": 2067,
    "Abstract:</w>": 2068,
    "Abstract</w>": 2069,
    "Ac": 2070,
    "Accoun": 2071,
    "Account": 2072,
    "Account:</w>": 2073,
    "Acme</w>": 2074,
    "Ada": 2075,
    "Adam": 2076,
    "AdamW</w>": 2077,
    "Al": 2078,
    "All": 2079,
    "All,</w>": 2080,
    "All</w>": 2081,
    "Am": 2082,
    "Amer": 2083,
    "Americ": 2084,
    "America.</w>": 2085,
    "American</w>": 2086,
    "Amoun": 2087,
    "Amount</w>": 2088,
    "An": 2089,
    "Anany": 2090,
    "Ananya's</w>": 2091,
    "Ananya,</w>": 2092,
    "Ananya.</w>": 2093,
    "Ananya:</w>": 2094,
    "Ananya</w>": 2095,
    "Ananya?</w>": 2096,
    "Ap": 2097,
    "Apache</w>": 2098,
    "Appl": 2099,
    "Application": 2100,
    "Applications,</w>": 2101,
    "Applications:</w>": 2102,
    "Appoint": 2103,
    "Appointment:</w>": 2104,
    "Appointment</w>": 2105,
    "Ar": 2106,
    "Architect": 2107,
    "Architect,</w>": 2108,
    "Arj": 2109,
    "Arjun": 2110,
    "Arjun's</w>": 2111,
    "Arjun,</w>": 2112,
    "Arjun.</w>": 2113,
    "Arjun:</w>": 2114,
    "Arjun</w>": 2115,
    "Arjun?</w>": 2116,
    "Asi": 2117,
    "Asia": 2118,
    "Asia,</w>": 2119,
    "Asia-P": 2120,
    "Asia-Pac": 2121,
    "Asia-Paci": 2122,
    "Asia-Pacifi": 2123,
    "Asia-Pacific</w>": 2124,
    "Awesom": 2125,
    "Awesome.</w>": 2126,
    "Awesome</w>": 2127,
    "B": 2128,
    "B.": 2129,
    "B.Tech</w>": 2130,
    "BE</w>": 2131,
    "BU": 2132,
    "BUS": 2133,
    "BUSIN": 2134,
    "BUSINESS</w>": 2135,
    "BUT</w>": 2136,
    "BY</w>": 2137,
    "Ban": 2138,
    "Bang": 2139,
    "Bangal": 2140,
    "Bangalore,</w>": 2141,
    "Bangalore</w>": 2142,
    "Bangalore?</w>": 2143,
    "Bank:</w>": 2144,
    "Bank</w>": 2145,
    "Based</w>": 2146,
    "Bill</w>": 2147,
    "Boo": 2148,
    "Book": 2149,
    "Booked.</w>": 2150,
    "Booked</w>": 2151,
    "Boot": 2152,
    "Boot,</w>": 2153,
    "Bri": 2154,
    "Brie": 2155,
    "Brief": 2156,
    "Brief</w>": 2157,
    "Briefly</w>": 2158,
    "Bu": 2159,
    "Buil": 2160,
    "Built</w>": 2161,
    "Bus": 2162,
    "Busin": 2163,
    "Business</w>": 2164,
    "C": 2165,
    "CA": 2166,
    "CAUSE": 2167,
    "CAUSED</w>": 2168,
    "CGP": 2169,
    "CGPA": 2170,
    "CGPA:</w>": 2171,
    "CI": 2172,
    "CIF": 2173,
    "CIFAR": 2174,
    "CIFAR-": 2175,
    "CIFAR-10,</w>": 2176,
    "CIFAR-100": 2177,
    "CIFAR-100,</w>": 2178,
    "CIFAR-100</w>": 2179,
    "CIFAR-10</w>": 2180,
    "CO": 2181,
    "CON": 2182,
    "CONSE": 2183,
    "CONSEQU": 2184,
    "CONSEQUENTI": 2185,
    "CONSEQUENTIA": 2186,
    "CONSEQUENTIAL</w>": 2187,
    "CONTR": 2188,
    "CONTRACT": 2189,
    "CONTRACT,</w>": 2190,
    "CONTRI": 2191,
    "CONTRIBU": 2192,
    "CONTRIBUTOR": 2193,
    "CONTRIBUTORS,</w>": 2194,
    "CONTRIBUTORS</w>": 2195,
    "COO": 2196,
    "COOK": 2197,
    "COOKIES": 2198,
    "COOKIES:{%</w>": 2199,
    "COP": 2200,
    "COPY": 2201,
    "COPYR": 2202,
    "COPYRI": 2203,
    "COPYRIG": 2204,
    "COPYRIGH": 2205,
    "COPYRIGHT": 2206,
    "COPYRIGHT.</w>": 2207,
    "COPYRIGHT</w>": 2208,
    "CP": 2209,
    "CPU</w>": 2210,
    "CT": 2211,
    "CTION": 2212,
    "CTR</w>": 2213,
    "CUD": 2214,
    "CUDA": 2215,
    "CUDA,</w>": 2216,
    "Cache</w>": 2217,
    "Call.</w>": 2218,
    "Call</w>": 2219,
    "Can</w>": 2220,
    "Cancell": 2221,
    "Cancelled.</w>": 2222,
    "Cancelled</w>": 2223,
    "Cas": 2224,
    "Cash": 2225,
    "Cash.</w>": 2226,
    "Cash:</w>": 2227,
    "Cash</w>": 2228,
    "Cer": 2229,
    "Certi": 2230,
    "Certifi": 2231,
    "Certification": 2232,
    "Certifications</w>": 2233,
    "Certified</w>": 2234,
    "Ch": 2235,
    "Cha": 2236,
    "Chal": 2237,
    "Challen": 2238,
    "Challeng": 2239,
    "Challenges</w>": 2240,
    "Chang": 2241,
    "Change</w>": 2242,
    "Chat": 2243,
    "Chatbo": 2244,
    "Chatbot</w>": 2245,
    "Chen": 2246,
    "Chenna": 2247,
    "Chennai": 2248,
    "Chennai,</w>": 2249,
    "Chennai</w>": 2250,
    "Chennai?</w>": 2251,
    "Cit": 2252,
    "City": 2253,
    "City).</w>": 2254,
    "City):</w>": 2255,
    "City,</w>": 2256,
    "City.</w>": 2257,
    "City:</w>": 2258,
    "City</w>": 2259,
    "City?</w>": 2260,
    "Cl": 2261,
    "Clos": 2262,
    "Closed.</w>": 2263,
    "Closed</w>": 2264,
    "Clou": 2265,
    "Cloud:</w>": 2266,
    "Cloud</w>": 2267,
    "Co": 2268,
    "Coim": 2269,
    "Coimb": 2270,
    "Coimbat": 2271,
    "Coimbatore,</w>": 2272,
    "Coimbatore</w>": 2273,
    "Coimbatore?</w>": 2274,
    "Com": 2275,
    "Comment:</w>": 2276,
    "Comp": 2277,
    "Competi": 2278,
    "Competitive</w>": 2279,
    "Comple": 2280,
    "Completed.</w>": 2281,
    "Completed</w>": 2282,
    "Comput": 2283,
    "Computer</w>": 2284,
    "Con": 2285,
    "Conclu": 2286,
    "Conclusion:</w>": 2287,
    "Conclusion</w>": 2288,
    "Confi": 2289,
    "Config": 2290,
    "Configur": 2291,
    "Configuration</w>": 2292,
    "Cont": 2293,
    "Contac": 2294,
    "Contact</w>": 2295,
    "Contacted.</w>": 2296,
    "Contacted</w>": 2297,
    "Content": 2298,
    "Content**:</w>": 2299,
    "Content*</w>": 2300,
    "Content.</w>": 2301,
    "Content:</w>": 2302,
    "Content</w>": 2303,
    "Contributor": 2304,
    "Contributors</w>": 2305,
    "Cop": 2306,
    "Copyright</w>": 2307,
    "Cor": 2308,
    "Corpor": 2309,
    "Corporation,</w>": 2310,
    "Corporation</w>": 2311,
    "Curr": 2312,
    "Currency</w>": 2313,
    "Current</w>": 2314,
    "Custom": 2315,
    "Customer": 2316,
    "Customer:</w>": 2317,
    "Customer</w>": 2318,
    "Customers:</w>": 2319,
    "Customers</w>": 2320,
    "D": 2321,
    "D,</w>": 2322,
    "DA": 2323,
    "DAM": 2324,
    "DAMA": 2325,
    "DAMAGE": 2326,
    "DAMAGES</w>": 2327,
    "DATA": 2328,
    "DATA,</w>": 2329,
    "DE": 2330,
    "DEBU": 2331,
    "DEBUG</w>": 2332,
    "DIRECT": 2333,
    "DIRECT,": 2334,
    "DIRECT,**:</w>": 2335,
    "DIRECT,*</w>": 2336,
    "DIRECT,,</w>": 2337,
    "DIRECT,</w>": 2338,
    "DR": 2339,
    "DRF</w>": 2340,
    "Dat": 2341,
    "Data</w>": 2342,
    "Datab": 2343,
    "Database</w>": 2344,
    "Date:</w>": 2345,
    "Des": 2346,
    "Desi": 2347,
    "Desig": 2348,
    "Design</w>": 2349,
    "Det": 2350,
    "Detail": 2351,
    "Details:</w>": 2352,
    "Dev": 2353,
    "Develop": 2354,
    "Development</w>": 2355,
    "Di": 2356,
    "Did</w>": 2357,
    "Distribut": 2358,
    "Distributed</w>": 2359,
    "Div": 2360,
    "Divy": 2361,
    "Divya's</w>": 2362,
    "Divya,</w>": 2363,
    "Divya.</w>": 2364,
    "Divya:</w>": 2365,
    "Divya</w>": 2366,
    "Divya?</w>": 2367,
    "Djang": 2368,
    "Django": 2369,
    "Django,</w>": 2370,
    "Django</w>": 2371,
    "Django>=4": 2372,
    "Django>=4.2,<5.2</w>": 2373,
    "Django>=4.</w>": 2374,
    "Doc": 2375,
    "Dock": 2376,
    "Docker,</w>": 2377,
    "Docu": 2378,
    "Document:</w>": 2379,
    "Document</w>": 2380,
    "Due.</w>": 2381,
    "Due:</w>": 2382,
    "Due</w>": 2383,
    "E": 2384,
    "ED,</w>": 2385,
    "EM": 2386,
    "EMI": 2387,
    "EMI.</w>": 2388,
    "EMI:</w>": 2389,
    "EMI</w>": 2390,
    "EN": 2391,
    "ENQ": 2392,
    "ENQ0": 2393,
    "ENQ00": 2394,
    "ENQ001).</w>": 2395,
    "ENQ001):</w>": 2396,
    "ENQ001)</w>": 2397,
    "ENQ001,</w>": 2398,
    "ENQ001.</w>": 2399,
    "ENQ001:</w>": 2400,
    "ENQ001</w>": 2401,
    "ENQ001?</w>": 2402,
    "ENQ002": 2403,
    "ENQ002).</w>": 2404,
    "ENQ002):</w>": 2405,
    "ENQ002)</w>": 2406,
    "ENQ002,</w>": 2407,
    "ENQ002.</w>": 2408,
    "ENQ002:</w>": 2409,
    "ENQ002</w>": 2410,
    "ENQ002?</w>": 2411,
    "ENQ003).</w>": 2412,
    "ENQ003):</w>": 2413,
    "ENQ003)</w>": 2414,
    "ENQ003,</w>": 2415,
    "ENQ003.</w>": 2416,
    "ENQ003:</w>": 2417,
    "ENQ003</w>": 2418,
    "ENQ003?</w>": 2419,
    "ENQ004).</w>": 2420,
    "ENQ004):</w>": 2421,
    "ENQ004)</w>": 2422,
    "ENQ004,</w>": 2423,
    "ENQ004.</w>": 2424,
    "ENQ004:</w>": 2425,
    "ENQ004</w>": 2426,
    "ENQ004?</w>": 2427,
    "ENQ005).</w>": 2428,
    "ENQ005):</w>": 2429,
    "ENQ005)</w>": 2430,
    "ENQ005,</w>": 2431,
    "ENQ005.</w>": 2432,
    "ENQ005:</w>": 2433,
    "ENQ005</w>": 2434,
    "ENQ005?</w>": 2435,
    "ENQ006).</w>": 2436,
    "ENQ006):</w>": 2437,
    "ENQ006)</w>": 2438,
    "ENQ006,</w>": 2439,
    "ENQ006.</w>": 2440,
    "ENQ006:</w>": 2441,
    "ENQ006</w>": 2442,
    "ENQ006?</w>": 2443,
    "ENQ007).</w>": 2444,
    "ENQ007):</w>": 2445,
    "ENQ007)</w>": 2446,
    "ENQ007,</w>": 2447,
    "ENQ007.</w>": 2448,
    "ENQ007:</w>": 2449,
    "ENQ007</w>": 2450,
    "ENQ007?</w>": 2451,
    "ENQ008).</w>": 2452,
    "ENQ008):</w>": 2453,
    "ENQ008)</w>": 2454,
    "ENQ008,</w>": 2455,
    "ENQ008.</w>": 2456,
    "ENQ008:</w>": 2457,
    "ENQ008</w>": 2458,
    "ENQ008?</w>": 2459,
    "ENQ009).</w>": 2460,
    "ENQ009):</w>": 2461,
    "ENQ009)</w>": 2462,
    "ENQ009,</w>": 2463,
    "ENQ009.</w>": 2464,
    "ENQ009:</w>": 2465,
    "ENQ009</w>": 2466,
    "ENQ009?</w>": 2467,
    "ENQ01": 2468,
    "ENQ010).</w>": 2469,
    "ENQ010):</w>": 2470,
    "ENQ010)</w>": 2471,
    "ENQ010,</w>": 2472,
    "ENQ010.</w>": 2473,
    "ENQ010:</w>": 2474,
    "ENQ010</w>": 2475,
    "ENQ010?</w>": 2476,
    "ENQ011).</w>": 2477,
    "ENQ011):</w>": 2478,
    "ENQ011)</w>": 2479,
    "ENQ011,</w>": 2480,
    "ENQ011.</w>": 2481,
    "ENQ011:</w>": 2482,
    "ENQ011</w>": 2483,
    "ENQ011?</w>": 2484,
    "ENQ012": 2485,
    "ENQ012).</w>": 2486,
    "ENQ012):</w>": 2487,
    "ENQ012)</w>": 2488,
    "ENQ012,</w>": 2489,
    "ENQ012.</w>": 2490,
    "ENQ012:</w>": 2491,
    "ENQ012</w>": 2492,
    "ENQ012?</w>": 2493,
    "ENQ013).</w>": 2494,
    "ENQ013):</w>": 2495,
    "ENQ013)</w>": 2496,
    "ENQ013,</w>": 2497,
    "ENQ013.</w>": 2498,
    "ENQ013:</w>": 2499,
    "ENQ013</w>": 2500,
    "ENQ013?</w>": 2501,
    "ENQ014).</w>": 2502,
    "ENQ014):</w>": 2503,
    "ENQ014)</w>": 2504,
    "ENQ014,</w>": 2505,
    "ENQ014.</w>": 2506,
    "ENQ014:</w>": 2507,
    "ENQ014</w>": 2508,
    "ENQ014?</w>": 2509,
    "ENQ015": 2510,
    "ENQ015).</w>": 2511,
    "ENQ015):</w>": 2512,
    "ENQ015)</w>": 2513,
    "ENQ015,</w>": 2514,
    "ENQ015.</w>": 2515,
    "ENQ015:</w>": 2516,
    "ENQ015</w>": 2517,
    "ENQ015?</w>": 2518,
    "ENQ016).</w>": 2519,
    "ENQ016):</w>": 2520,
    "ENQ016)</w>": 2521,
    "ENQ016,</w>": 2522,
    "ENQ016.</w>": 2523,
    "ENQ016:</w>": 2524,
    "ENQ016</w>": 2525,
    "ENQ016?</w>": 2526,
    "ENQ017).</w>": 2527,
    "ENQ017):</w>": 2528,
    "ENQ017)</w>": 2529,
    "ENQ017,</w>": 2530,
    "ENQ017.</w>": 2531,
    "ENQ017:</w>": 2532,
    "ENQ017</w>": 2533,
    "ENQ017?</w>": 2534,
    "ENQ018": 2535,
    "ENQ018).</w>": 2536,
    "ENQ018):</w>": 2537,
    "ENQ018)</w>": 2538,
    "ENQ018,</w>": 2539,
    "ENQ018.</w>": 2540,
    "ENQ018:</w>": 2541,
    "ENQ018</w>": 2542,
    "ENQ018?</w>": 2543,
    "ENQ019).</w>": 2544,
    "ENQ019):</w>": 2545,
    "ENQ019)</w>": 2546,
    "ENQ019,</w>": 2547,
    "ENQ019.</w>": 2548,
    "ENQ019:</w>": 2549,
    "ENQ019</w>": 2550,
    "ENQ019?</w>": 2551,
    "ENQ02": 2552,
    "ENQ020).</w>": 2553,
    "ENQ020):</w>": 2554,
    "ENQ020)</w>": 2555,
    "ENQ020,</w>": 2556,
    "ENQ020.</w>": 2557,
    "ENQ020:</w>": 2558,
    "ENQ020</w>": 2559,
    "ENQ020?</w>": 2560,
    "ENQ021).</w>": 2561,
    "ENQ021):</w>": 2562,
    "ENQ021)</w>": 2563,
    "ENQ021,</w>": 2564,
    "ENQ021.</w>": 2565,
    "ENQ021:</w>": 2566,
    "ENQ021</w>": 2567,
    "ENQ021?</w>": 2568,
    "ENQ022).</w>": 2569,
    "ENQ022):</w>": 2570,
    "ENQ022)</w>": 2571,
    "ENQ022,</w>": 2572,
    "ENQ022.</w>": 2573,
    "ENQ022:</w>": 2574,
    "ENQ022</w>": 2575,
    "ENQ022?</w>": 2576,
    "ENQ023).</w>": 2577,
    "ENQ023):</w>": 2578,
    "ENQ023)</w>": 2579,
    "ENQ023,</w>": 2580,
    "ENQ023.</w>": 2581,
    "ENQ023:</w>": 2582,
    "ENQ023</w>": 2583,
    "ENQ023?</w>": 2584,
    "ENQ024).</w>": 2585,
    "ENQ024):</w>": 2586,
    "ENQ024)</w>": 2587,
    "ENQ024,</w>": 2588,
    "ENQ024.</w>": 2589,
    "ENQ024:</w>": 2590,
    "ENQ024</w>": 2591,
    "ENQ024?</w>": 2592,
    "ENQ025).</w>": 2593,
    "ENQ025):</w>": 2594,
    "ENQ025)</w>": 2595,
    "ENQ025,</w>": 2596,
    "ENQ025.</w>": 2597,
    "ENQ025:</w>": 2598,
    "ENQ025</w>": 2599,
    "ENQ025?</w>": 2600,
    "ENQ026).</w>": 2601,
    "ENQ026):</w>": 2602,
    "ENQ026)</w>": 2603,
    "ENQ026,</w>": 2604,
    "ENQ026.</w>": 2605,
    "ENQ026:</w>": 2606,
    "ENQ026</w>": 2607,
    "ENQ026?</w>": 2608,
    "ENQ027).</w>": 2609,
    "ENQ027):</w>": 2610,
    "ENQ027)</w>": 2611,
    "ENQ027,</w>": 2612,
    "ENQ027.</w>": 2613,
    "ENQ027:</w>": 2614,
    "ENQ027</w>": 2615,
    "ENQ027?</w>": 2616,
    "ENQ028).</w>": 2617,
    "ENQ028):</w>": 2618,
    "ENQ028)</w>": 2619,
    "ENQ028,</w>": 2620,
    "ENQ028.</w>": 2621,
    "ENQ028:</w>": 2622,
    "ENQ028</w>": 2623,
    "ENQ028?</w>": 2624,
    "ENQ029).</w>": 2625,
    "ENQ029):</w>": 2626,
    "ENQ029)</w>": 2627,
    "ENQ029,</w>": 2628,
    "ENQ029.</w>": 2629,
    "ENQ029:</w>": 2630,
    "ENQ029</w>": 2631,
    "ENQ029?</w>": 2632,
    "ENQ03": 2633,
    "ENQ030": 2634,
    "ENQ030).</w>": 2635,
    "ENQ030):</w>": 2636,
    "ENQ030)</w>": 2637,
    "ENQ030,</w>": 2638,
    "ENQ030.</w>": 2639,
    "ENQ030:</w>": 2640,
    "ENQ030</w>": 2641,
    "ENQ030?</w>": 2642,
    "ENQ031).</w>": 2643,
    "ENQ031):</w>": 2644,
    "ENQ031)</w>": 2645,
    "ENQ031,</w>": 2646,
    "ENQ031.</w>": 2647,
    "ENQ031:</w>": 2648,
    "ENQ031</w>": 2649,
    "ENQ031?</w>": 2650,
    "ENQ032).</w>": 2651,
    "ENQ032):</w>": 2652,
    "ENQ032)</w>": 2653,
    "ENQ032,</w>": 2654,
    "ENQ032.</w>": 2655,
    "ENQ032:</w>": 2656,
    "ENQ032</w>": 2657,
    "ENQ032?</w>": 2658,
    "ENQ033).</w>": 2659,
    "ENQ033):</w>": 2660,
    "ENQ033)</w>": 2661,
    "ENQ033,</w>": 2662,
    "ENQ033.</w>": 2663,
    "ENQ033:</w>": 2664,
    "ENQ033</w>": 2665,
    "ENQ033?</w>": 2666,
    "ENQ034).</w>": 2667,
    "ENQ034):</w>": 2668,
    "ENQ034)</w>": 2669,
    "ENQ034,</w>": 2670,
    "ENQ034.</w>": 2671,
    "ENQ034:</w>": 2672,
    "ENQ034</w>": 2673,
    "ENQ034?</w>": 2674,
    "ENQ035).</w>": 2675,
    "ENQ035):</w>": 2676,
    "ENQ035)</w>": 2677,
    "ENQ035,</w>": 2678,
    "ENQ035.</w>": 2679,
    "ENQ035:</w>": 2680,
    "ENQ035</w>": 2681,
    "ENQ035?</w>": 2682,
    "ENQ036).</w>": 2683,
    "ENQ036):</w>": 2684,
    "ENQ036)</w>": 2685,
    "ENQ036,</w>": 2686,
    "ENQ036.</w>": 2687,
    "ENQ036:</w>": 2688,
    "ENQ036</w>": 2689,
    "ENQ036?</w>": 2690,
    "ENQ037).</w>": 2691,
    "ENQ037):</w>": 2692,
    "ENQ037)</w>": 2693,
    "ENQ037,</w>": 2694,
    "ENQ037.</w>": 2695,
    "ENQ037:</w>": 2696,
    "ENQ037</w>": 2697,
    "ENQ037?</w>": 2698,
    "ENQ038).</w>": 2699,
    "ENQ038):</w>": 2700,
    "ENQ038)</w>": 2701,
    "ENQ038,</w>": 2702,
    "ENQ038.</w>": 2703,
    "ENQ038:</w>": 2704,
    "ENQ038</w>": 2705,
    "ENQ038?</w>": 2706,
    "ENQ039).</w>": 2707,
    "ENQ039):</w>": 2708,
    "ENQ039)</w>": 2709,
    "ENQ039,</w>": 2710,
    "ENQ039.</w>": 2711,
    "ENQ039:</w>": 2712,
    "ENQ039</w>": 2713,
    "ENQ039?</w>": 2714,
    "ENQ04": 2715,
    "ENQ040).</w>": 2716,
    "ENQ040):</w>": 2717,
    "ENQ040)</w>": 2718,
    "ENQ040,</w>": 2719,
    "ENQ040.</w>": 2720,
    "ENQ040:</w>": 2721,
    "ENQ040</w>": 2722,
    "ENQ040?</w>": 2723,
    "ENQ041).</w>": 2724,
    "ENQ041):</w>": 2725,
    "ENQ041)</w>": 2726,
    "ENQ041,</w>": 2727,
    "ENQ041.</w>": 2728,
    "ENQ041:</w>": 2729,
    "ENQ041</w>": 2730,
    "ENQ041?</w>": 2731,
    "ENQ042).</w>": 2732,
    "ENQ042):</w>": 2733,
    "ENQ042)</w>": 2734,
    "ENQ042,</w>": 2735,
    "ENQ042.</w>": 2736,
    "ENQ042:</w>": 2737,
    "ENQ042</w>": 2738,
    "ENQ042?</w>": 2739,
    "ENQ043).</w>": 2740,
    "ENQ043):</w>": 2741,
    "ENQ043)</w>": 2742,
    "ENQ043,</w>": 2743,
    "ENQ043.</w>": 2744,
    "ENQ043:</w>": 2745,
    "ENQ043</w>": 2746,
    "ENQ043?</w>": 2747,
    "ENQ044).</w>": 2748,
    "ENQ044):</w>": 2749,
    "ENQ044)</w>": 2750,
    "ENQ044,</w>": 2751,
    "ENQ044.</w>": 2752,
    "ENQ044:</w>": 2753,
    "ENQ044</w>": 2754,
    "ENQ044?</w>": 2755,
    "ENQ045).</w>": 2756,
    "ENQ045):</w>": 2757,
    "ENQ045)</w>": 2758,
    "ENQ045,</w>": 2759,
    "ENQ045.</w>": 2760,
    "ENQ045:</w>": 2761,
    "ENQ045</w>": 2762,
    "ENQ045?</w>": 2763,
    "ENQ046).</w>": 2764,
    "ENQ046):</w>": 2765,
    "ENQ046)</w>": 2766,
    "ENQ046,</w>": 2767,
    "ENQ046.</w>": 2768,
    "ENQ046:</w>": 2769,
    "ENQ046</w>": 2770,
    "ENQ046?</w>": 2771,
    "ENQ047).</w>": 2772,
    "ENQ047):</w>": 2773,
    "ENQ047)</w>": 2774,
    "ENQ047,</w>": 2775,
    "ENQ047.</w>": 2776,
    "ENQ047:</w>": 2777,
    "ENQ047</w>": 2778,
    "ENQ047?</w>": 2779,
    "ENQ048).</w>": 2780,
    "ENQ048):</w>": 2781,
    "ENQ048)</w>": 2782,
    "ENQ048,</w>": 2783,
    "ENQ048.</w>": 2784,
    "ENQ048:</w>": 2785,
    "ENQ048</w>": 2786,
    "ENQ048?</w>": 2787,
    "ENQ049).</w>": 2788,
    "ENQ049):</w>": 2789,
    "ENQ049)</w>": 2790,
    "ENQ049,</w>": 2791,
    "ENQ049.</w>": 2792,
    "ENQ049:</w>": 2793,
    "ENQ049</w>": 2794,
    "ENQ049?</w>": 2795,
    "ENQ05": 2796,
    "ENQ050).</w>": 2797,
    "ENQ050):</w>": 2798,
    "ENQ050)</w>": 2799,
    "ENQ050,</w>": 2800,
    "ENQ050.</w>": 2801,
    "ENQ050:</w>": 2802,
    "ENQ050</w>": 2803,
    "ENQ050?</w>": 2804,
    "ENQ051).</w>": 2805,
    "ENQ051):</w>": 2806,
    "ENQ051)</w>": 2807,
    "ENQ051,</w>": 2808,
    "ENQ051.</w>": 2809,
    "ENQ051:</w>": 2810,
    "ENQ051</w>": 2811,
    "ENQ051?</w>": 2812,
    "ENQ052).</w>": 2813,
    "ENQ052):</w>": 2814,
    "ENQ052)</w>": 2815,
    "ENQ052,</w>": 2816,
    "ENQ052.</w>": 2817,
    "ENQ052:</w>": 2818,
    "ENQ052</w>": 2819,
    "ENQ052?</w>": 2820,
    "ENQ053).</w>": 2821,
    "ENQ053):</w>": 2822,
    "ENQ053)</w>": 2823,
    "ENQ053,</w>": 2824,
    "ENQ053.</w>": 2825,
    "ENQ053:</w>": 2826,
    "ENQ053</w>": 2827,
    "ENQ053?</w>": 2828,
    "ENQ054).</w>": 2829,
    "ENQ054):</w>": 2830,
    "ENQ054)</w>": 2831,
    "ENQ054,</w>": 2832,
    "ENQ054.</w>": 2833,
    "ENQ054:</w>": 2834,
    "ENQ054</w>": 2835,
    "ENQ054?</w>": 2836,
    "ENQ055).</w>": 2837,
    "ENQ055):</w>": 2838,
    "ENQ055)</w>": 2839,
    "ENQ055,</w>": 2840,
    "ENQ055.</w>": 2841,
    "ENQ055:</w>": 2842,
    "ENQ055</w>": 2843,
    "ENQ055?</w>": 2844,
    "ENQ056).</w>": 2845,
    "ENQ056):</w>": 2846,
    "ENQ056)</w>": 2847,
    "ENQ056,</w>": 2848,
    "ENQ056.</w>": 2849,
    "ENQ056:</w>": 2850,
    "ENQ056</w>": 2851,
    "ENQ056?</w>": 2852,
    "ENQ057).</w>": 2853,
    "ENQ057):</w>": 2854,
    "ENQ057)</w>": 2855,
    "ENQ057,</w>": 2856,
    "ENQ057.</w>": 2857,
    "ENQ057:</w>": 2858,
    "ENQ057</w>": 2859,
    "ENQ057?</w>": 2860,
    "ENQ058).</w>": 2861,
    "ENQ058):</w>": 2862,
    "ENQ058)</w>": 2863,
    "ENQ058,</w>": 2864,
    "ENQ058.</w>": 2865,
    "ENQ058:</w>": 2866,
    "ENQ058</w>": 2867,
    "ENQ058?</w>": 2868,
    "ENQ059).</w>": 2869,
    "ENQ059):</w>": 2870,
    "ENQ059)</w>": 2871,
    "ENQ059,</w>": 2872,
    "ENQ059.</w>": 2873,
    "ENQ059:</w>": 2874,
    "ENQ059</w>": 2875,
    "ENQ059?</w>": 2876,
    "ENQ06": 2877,
    "ENQ060).</w>": 2878,
    "ENQ060):</w>": 2879,
    "ENQ060)</w>": 2880,
    "ENQ060,</w>": 2881,
    "ENQ060.</w>": 2882,
    "ENQ060:</w>": 2883,
    "ENQ060</w>": 2884,
    "ENQ060?</w>": 2885,
    "ENQ061).</w>": 2886,
    "ENQ061):</w>": 2887,
    "ENQ061)</w>": 2888,
    "ENQ061,</w>": 2889,
    "ENQ061.</w>": 2890,
    "ENQ061:</w>": 2891,
    "ENQ061</w>": 2892,
    "ENQ061?</w>": 2893,
    "ENQ062).</w>": 2894,
    "ENQ062):</w>": 2895,
    "ENQ062)</w>": 2896,
    "ENQ062,</w>": 2897,
    "ENQ062.</w>": 2898,
    "ENQ062:</w>": 2899,
    "ENQ062</w>": 2900,
    "ENQ062?</w>": 2901,
    "ENQ063).</w>": 2902,
    "ENQ063):</w>": 2903,
    "ENQ063)</w>": 2904,
    "ENQ063,</w>": 2905,
    "ENQ063.</w>": 2906,
    "ENQ063:</w>": 2907,
    "ENQ063</w>": 2908,
    "ENQ063?</w>": 2909,
    "ENQ064).</w>": 2910,
    "ENQ064):</w>": 2911,
    "ENQ064)</w>": 2912,
    "ENQ064,</w>": 2913,
    "ENQ064.</w>": 2914,
    "ENQ064:</w>": 2915,
    "ENQ064</w>": 2916,
    "ENQ064?</w>": 2917,
    "ENQ065).</w>": 2918,
    "ENQ065):</w>": 2919,
    "ENQ065)</w>": 2920,
    "ENQ065,</w>": 2921,
    "ENQ065.</w>": 2922,
    "ENQ065:</w>": 2923,
    "ENQ065</w>": 2924,
    "ENQ065?</w>": 2925,
    "ENQ066).</w>": 2926,
    "ENQ066):</w>": 2927,
    "ENQ066)</w>": 2928,
    "ENQ066,</w>": 2929,
    "ENQ066.</w>": 2930,
    "ENQ066:</w>": 2931,
    "ENQ066</w>": 2932,
    "ENQ066?</w>": 2933,
    "ENQ067).</w>": 2934,
    "ENQ067):</w>": 2935,
    "ENQ067)</w>": 2936,
    "ENQ067,</w>": 2937,
    "ENQ067.</w>": 2938,
    "ENQ067:</w>": 2939,
    "ENQ067</w>": 2940,
    "ENQ067?</w>": 2941,
    "ENQ068).</w>": 2942,
    "ENQ068):</w>": 2943,
    "ENQ068)</w>": 2944,
    "ENQ068,</w>": 2945,
    "ENQ068.</w>": 2946,
    "ENQ068:</w>": 2947,
    "ENQ068</w>": 2948,
    "ENQ068?</w>": 2949,
    "ENQ069).</w>": 2950,
    "ENQ069):</w>": 2951,
    "ENQ069)</w>": 2952,
    "ENQ069,</w>": 2953,
    "ENQ069.</w>": 2954,
    "ENQ069:</w>": 2955,
    "ENQ069</w>": 2956,
    "ENQ069?</w>": 2957,
    "ENQ07": 2958,
    "ENQ070).</w>": 2959,
    "ENQ070):</w>": 2960,
    "ENQ070)</w>": 2961,
    "ENQ070,</w>": 2962,
    "ENQ070.</w>": 2963,
    "ENQ070:</w>": 2964,
    "ENQ070</w>": 2965,
    "ENQ070?</w>": 2966,
    "ENQ071).</w>": 2967,
    "ENQ071):</w>": 2968,
    "ENQ071)</w>": 2969,
    "ENQ071,</w>": 2970,
    "ENQ071.</w>": 2971,
    "ENQ071:</w>": 2972,
    "ENQ071</w>": 2973,
    "ENQ071?</w>": 2974,
    "ENQ072).</w>": 2975,
    "ENQ072):</w>": 2976,
    "ENQ072)</w>": 2977,
    "ENQ072,</w>": 2978,
    "ENQ072.</w>": 2979,
    "ENQ072:</w>": 2980,
    "ENQ072</w>": 2981,
    "ENQ072?</w>": 2982,
    "ENQ073).</w>": 2983,
    "ENQ073):</w>": 2984,
    "ENQ073)</w>": 2985,
    "ENQ073,</w>": 2986,
    "ENQ073.</w>": 2987,
    "ENQ073:</w>": 2988,
    "ENQ073</w>": 2989,
    "ENQ073?</w>": 2990,
    "ENQ074).</w>": 2991,
    "ENQ074):</w>": 2992,
    "ENQ074)</w>": 2993,
    "ENQ074,</w>": 2994,
    "ENQ074.</w>": 2995,
    "ENQ074:</w>": 2996,
    "ENQ074</w>": 2997,
    "ENQ074?</w>": 2998,
    "ENQ075).</w>": 2999,
    "ENQ075):</w>": 3000,
    "ENQ075)</w>": 3001,
    "ENQ075,</w>": 3002,
    "ENQ075.</w>": 3003,
    "ENQ075:</w>": 3004,
    "ENQ075</w>": 3005,
    "ENQ075?</w>": 3006,
    "ENQ076).</w>": 3007,
    "ENQ076):</w>": 3008,
    "ENQ076)</w>": 3009,
    "ENQ076,</w>": 3010,
    "ENQ076.</w>": 3011,
    "ENQ076:</w>": 3012,
    "ENQ076</w>": 3013,
    "ENQ076?</w>": 3014,
    "ENQ077).</w>": 3015,
    "ENQ077):</w>": 3016,
    "ENQ077)</w>": 3017,
    "ENQ077,</w>": 3018,
    "ENQ077.</w>": 3019,
    "ENQ077:</w>": 3020,
    "ENQ077</w>": 3021,
    "ENQ077?</w>": 3022,
    "ENQ078).</w>": 3023,
    "ENQ078):</w>": 3024,
    "ENQ078)</w>": 3025,
    "ENQ078,</w>": 3026,
    "ENQ078.</w>": 3027,
    "ENQ078:</w>": 3028,
    "ENQ078</w>": 3029,
    "ENQ078?</w>": 3030,
    "ENQ079).</w>": 3031,
    "ENQ079):</w>": 3032,
    "ENQ079)</w>": 3033,
    "ENQ079,</w>": 3034,
    "ENQ079.</w>": 3035,
    "ENQ079:</w>": 3036,
    "ENQ079</w>": 3037,
    "ENQ079?</w>": 3038,
    "ENQ08": 3039,
    "ENQ080).</w>": 3040,
    "ENQ080):</w>": 3041,
    "ENQ080)</w>": 3042,
    "ENQ080,</w>": 3043,
    "ENQ080.</w>": 3044,
    "ENQ080:</w>": 3045,
    "ENQ080</w>": 3046,
    "ENQ080?</w>": 3047,
    "ENQ081).</w>": 3048,
    "ENQ081):</w>": 3049,
    "ENQ081)</w>": 3050,
    "ENQ081,</w>": 3051,
    "ENQ081.</w>": 3052,
    "ENQ081:</w>": 3053,
    "ENQ081</w>": 3054,
    "ENQ081?</w>": 3055,
    "ENQ082).</w>": 3056,
    "ENQ082):</w>": 3057,
    "ENQ082)</w>": 3058,
    "ENQ082,</w>": 3059,
    "ENQ082.</w>": 3060,
    "ENQ082:</w>": 3061,
    "ENQ082</w>": 3062,
    "ENQ082?</w>": 3063,
    "ENQ083).</w>": 3064,
    "ENQ083):</w>": 3065,
    "ENQ083)</w>": 3066,
    "ENQ083,</w>": 3067,
    "ENQ083.</w>": 3068,
    "ENQ083:</w>": 3069,
    "ENQ083</w>": 3070,
    "ENQ083?</w>": 3071,
    "ENQ084).</w>": 3072,
    "ENQ084):</w>": 3073,
    "ENQ084)</w>": 3074,
    "ENQ084,</w>": 3075,
    "ENQ084.</w>": 3076,
    "ENQ084:</w>": 3077,
    "ENQ084</w>": 3078,
    "ENQ084?</w>": 3079,
    "ENQ085).</w>": 3080,
    "ENQ085):</w>": 3081,
    "ENQ085)</w>": 3082,
    "ENQ085,</w>": 3083,
    "ENQ085.</w>": 3084,
    "ENQ085:</w>": 3085,
    "ENQ085</w>": 3086,
    "ENQ085?</w>": 3087,
    "ENQ086).</w>": 3088,
    "ENQ086):</w>": 3089,
    "ENQ086)</w>": 3090,
    "ENQ086,</w>": 3091,
    "ENQ086.</w>": 3092,
    "ENQ086:</w>": 3093,
    "ENQ086</w>": 3094,
    "ENQ086?</w>": 3095,
    "ENQ087).</w>": 3096,
    "ENQ087):</w>": 3097,
    "ENQ087)</w>": 3098,
    "ENQ087,</w>": 3099,
    "ENQ087.</w>": 3100,
    "ENQ087:</w>": 3101,
    "ENQ087</w>": 3102,
    "ENQ087?</w>": 3103,
    "ENQ088).</w>": 3104,
    "ENQ088):</w>": 3105,
    "ENQ088)</w>": 3106,
    "ENQ088,</w>": 3107,
    "ENQ088.</w>": 3108,
    "ENQ088:</w>": 3109,
    "ENQ088</w>": 3110,
    "ENQ088?</w>": 3111,
    "ENQ089).</w>": 3112,
    "ENQ089):</w>": 3113,
    "ENQ089)</w>": 3114,
    "ENQ089,</w>": 3115,
    "ENQ089.</w>": 3116,
    "ENQ089:</w>": 3117,
    "ENQ089</w>": 3118,
    "ENQ089?</w>": 3119,
    "ENQ09": 3120,
    "ENQ090).</w>": 3121,
    "ENQ090):</w>": 3122,
    "ENQ090)</w>": 3123,
    "ENQ090,</w>": 3124,
    "ENQ090.</w>": 3125,
    "ENQ090:</w>": 3126,
    "ENQ090</w>": 3127,
    "ENQ090?</w>": 3128,
    "ENQ091).</w>": 3129,
    "ENQ091):</w>": 3130,
    "ENQ091)</w>": 3131,
    "ENQ091,</w>": 3132,
    "ENQ091.</w>": 3133,
    "ENQ091:</w>": 3134,
    "ENQ091</w>": 3135,
    "ENQ091?</w>": 3136,
    "ENQ092).</w>": 3137,
    "ENQ092):</w>": 3138,
    "ENQ092)</w>": 3139,
    "ENQ092,</w>": 3140,
    "ENQ092.</w>": 3141,
    "ENQ092:</w>": 3142,
    "ENQ092</w>": 3143,
    "ENQ092?</w>": 3144,
    "ENQ093).</w>": 3145,
    "ENQ093):</w>": 3146,
    "ENQ093)</w>": 3147,
    "ENQ093,</w>": 3148,
    "ENQ093.</w>": 3149,
    "ENQ093:</w>": 3150,
    "ENQ093</w>": 3151,
    "ENQ093?</w>": 3152,
    "ENQ094).</w>": 3153,
    "ENQ094):</w>": 3154,
    "ENQ094)</w>": 3155,
    "ENQ094,</w>": 3156,
    "ENQ094.</w>": 3157,
    "ENQ094:</w>": 3158,
    "ENQ094</w>": 3159,
    "ENQ094?</w>": 3160,
    "ENQ095).</w>": 3161,
    "ENQ095):</w>": 3162,
    "ENQ095)</w>": 3163,
    "ENQ095,</w>": 3164,
    "ENQ095.</w>": 3165,
    "ENQ095:</w>": 3166,
    "ENQ095</w>": 3167,
    "ENQ095?</w>": 3168,
    "ENQ096).</w>": 3169,
    "ENQ096):</w>": 3170,
    "ENQ096)</w>": 3171,
    "ENQ096,</w>": 3172,
    "ENQ096.</w>": 3173,
    "ENQ096:</w>": 3174,
    "ENQ096</w>": 3175,
    "ENQ096?</w>": 3176,
    "ENQ097).</w>": 3177,
    "ENQ097):</w>": 3178,
    "ENQ097)</w>": 3179,
    "ENQ097,</w>": 3180,
    "ENQ097.</w>": 3181,
    "ENQ097:</w>": 3182,
    "ENQ097</w>": 3183,
    "ENQ097?</w>": 3184,
    "ENQ098).</w>": 3185,
    "ENQ098):</w>": 3186,
    "ENQ098)</w>": 3187,
    "ENQ098,</w>": 3188,
    "ENQ098.</w>": 3189,
    "ENQ098:</w>": 3190,
    "ENQ098</w>": 3191,
    "ENQ098?</w>": 3192,
    "ENQ099).</w>": 3193,
    "ENQ099):</w>": 3194,
    "ENQ099)</w>": 3195,
    "ENQ099,</w>": 3196,
    "ENQ099.</w>": 3197,
    "ENQ099:</w>": 3198,
    "ENQ099</w>": 3199,
    "ENQ099?</w>": 3200,
    "ENQ100": 3201,
    "ENQ100).</w>": 3202,
    "ENQ100):</w>": 3203,
    "ENQ100)</w>": 3204,
    "ENQ100,</w>": 3205,
    "ENQ100.</w>": 3206,
    "ENQ100:</w>": 3207,
    "ENQ100</w>": 3208,
    "ENQ100?</w>": 3209,
    "ENQUI": 3210,
    "ENQUIRY</w>": 3211,
    "ENT": 3212,
    "ENT</w>": 3213,
    "ENTI": 3214,
    "ER": 3215,
    "ER</w>": 3216,
    "ES": 3217,
    "ESS</w>": 3218,
    "EV": 3219,
    "EVE": 3220,
    "EVEN</w>": 3221,
    "EVENT</w>": 3222,
    "EX": 3223,
    "EXEM": 3224,
    "EXEMP": 3225,
    "EXEMPL": 3226,
    "EXEMPLARY": 3227,
    "EXEMPLARY,</w>": 3228,
    "EXP": 3229,
    "EXPRE": 3230,
    "EXPRES": 3231,
    "EXPRESS</w>": 3232,
    "EXTR": 3233,
    "EXTRA": 3234,
    "EXTRACTION": 3235,
    "EXTRACTION></w>": 3236,
    "East": 3237,
    "Eastern</w>": 3238,
    "Educ": 3239,
    "Education:</w>": 3240,
    "Education</w>": 3241,
    "Em": 3242,
    "Email": 3243,
    "Email:</w>": 3244,
    "En": 3245,
    "Engin": 3246,
    "Engine": 3247,
    "Engineer,</w>": 3248,
    "Engineer.</w>": 3249,
    "Engineer</w>": 3250,
    "Enquired</w>": 3251,
    "Enquiry</w>": 3252,
    "Eur": 3253,
    "Europ": 3254,
    "Europe,</w>": 3255,
    "Ex": 3256,
    "Exec": 3257,
    "Execu": 3258,
    "Execut": 3259,
    "Executab": 3260,
    "Executable": 3261,
    "Executable,</w>": 3262,
    "Executable:</w>": 3263,
    "Executive</w>": 3264,
    "Exist": 3265,
    "Existing</w>": 3266,
    "Experien": 3267,
    "Experience": 3268,
    "Experience**:</w>": 3269,
    "Experience,</w>": 3270,
    "Experience:</w>": 3271,
    "Experience</w>": 3272,
    "F": 3273,
    "FACT": 3274,
    "FACTS": 3275,
    "FI": 3276,
    "FILE": 3277,
    "FILES": 3278,
    "FILES:{%</w>": 3279,
    "FILES</w>": 3280,
    "FITN": 3281,
    "FITNESS</w>": 3282,
    "FOR</w>": 3283,
    "Fal": 3284,
    "Fals": 3285,
    "False,</w>": 3286,
    "Fast": 3287,
    "FastAPI</w>": 3288,
    "February</w>": 3289,
    "Feedbac": 3290,
    "Feedback</w>": 3291,
    "Fem": 3292,
    "Female,</w>": 3293,
    "Female</w>": 3294,
    "Financial</w>": 3295,
    "Font-Awesome-SVG-PNG</w>": 3296,
    "Font</w>": 3297,
    "Foun": 3298,
    "Found": 3299,
    "Foundation,</w>": 3300,
    "Foundation</w>": 3301,
    "Fra": 3302,
    "Frame": 3303,
    "Framework": 3304,
    "Frameworks:</w>": 3305,
    "From": 3306,
    "From:</w>": 3307,
    "Fut": 3308,
    "Future</w>": 3309,
    "G": 3310,
    "GCP": 3311,
    "GCP,</w>": 3312,
    "GE": 3313,
    "GET": 3314,
    "GET:{%</w>": 3315,
    "GET</w>": 3316,
    "GOO": 3317,
    "GOOD": 3318,
    "GOODS</w>": 3319,
    "GP": 3320,
    "GST": 3321,
    "GST:</w>": 3322,
    "GST</w>": 3323,
    "Gend": 3324,
    "Gender:</w>": 3325,
    "General</w>": 3326,
    "Giv": 3327,
    "Give</w>": 3328,
    "Global</w>": 3329,
    "Go": 3330,
    "Go,</w>": 3331,
    "Goo": 3332,
    "Goog": 3333,
    "Google</w>": 3334,
    "H": 3335,
    "H1</w>": 3336,
    "HO": 3337,
    "HOL": 3338,
    "HOLD": 3339,
    "HOLDER": 3340,
    "HOLDERS,</w>": 3341,
    "HOLDERS</w>": 3342,
    "HOR": 3343,
    "HOW": 3344,
    "HOWEV": 3345,
    "HOWEVER</w>": 3346,
    "Has</w>": 3347,
    "High": 3348,
    "Highligh": 3349,
    "Highlight": 3350,
    "Highlights": 3351,
    "Highlights):</w>": 3352,
    "Highlights*</w>": 3353,
    "Highlights,</w>": 3354,
    "Highlights:</w>": 3355,
    "Highlights</w>": 3356,
    "Ho": 3357,
    "Hond": 3358,
    "Honda</w>": 3359,
    "How": 3360,
    "How</w>": 3361,
    "However": 3362,
    "However,</w>": 3363,
    "Hub": 3364,
    "Hub,</w>": 3365,
    "Hy": 3366,
    "Hyder": 3367,
    "Hyderab": 3368,
    "Hyderaba": 3369,
    "Hyderabad": 3370,
    "Hyderabad,</w>": 3371,
    "Hyderabad</w>": 3372,
    "Hyderabad?</w>": 3373,
    "Hyunda": 3374,
    "Hyundai</w>": 3375,
    "I": 3376,
    "IC": 3377,
    "ID": 3378,
    "ID:</w>": 3379,
    "IDEN": 3380,
    "IES": 3381,
    "IF": 3382,
    "IF</w>": 3383,
    "IFS": 3384,
    "IFSC": 3385,
    "IFSC:</w>": 3386,
    "IIT</w>": 3387,
    "ILI": 3388,
    "ILITY": 3389,
    "ILITY,</w>": 3390,
    "IM": 3391,
    "IMP": 3392,
    "IMPLI": 3393,
    "IMPLIE": 3394,
    "IMPLIED,</w>": 3395,
    "IMPLIED</w>": 3396,
    "IN": 3397,
    "IN</w>": 3398,
    "INC": 3399,
    "INCIDEN": 3400,
    "INCIDENTA": 3401,
    "INCIDENTAL,</w>": 3402,
    "INCL": 3403,
    "INCLUD": 3404,
    "INCLUDING</w>": 3405,
    "INDIRECT,</w>": 3406,
    "ING": 3407,
    "ING</w>": 3408,
    "ING></w>": 3409,
    "INSTA": 3410,
    "INSTAL": 3411,
    "INSTALLED_": 3412,
    "INSTALLED_AP": 3413,
    "INSTALLED_APP": 3414,
    "INSTALLED_APPS</w>": 3415,
    "INT": 3416,
    "INTER": 3417,
    "INTERR": 3418,
    "INTERRU": 3419,
    "INTERRUP": 3420,
    "INTERRUPT": 3421,
    "INTERRUPTION": 3422,
    "INTERRUPTION)</w>": 3423,
    "INV": 3424,
    "INV-2024-": 3425,
    "INV-2024-00": 3426,
    "INV-2024-001": 3427,
    "INV-2024-001**.</w>": 3428,
    "INV-2024-001.</w>": 3429,
    "INV-2024-001</w>": 3430,
    "INVO": 3431,
    "INVOIC": 3432,
    "INVOICE": 3433,
    "INVOICE,</w>": 3434,
    "INVOICE:</w>": 3435,
    "INVOICE</w>": 3436,
    "ION": 3437,
    "IRE": 3438,
    "IRECT": 3439,
    "IS</w>": 3440,
    "ISE": 3441,
    "IT</w>": 3442,
    "Im": 3443,
    "Image</w>": 3444,
    "Imple": 3445,
    "Implement": 3446,
    "Implemented</w>": 3447,
    "In": 3448,
    "In</w>": 3449,
    "Incom": 3450,
    "Income,</w>": 3451,
    "Income:</w>": 3452,
    "Indi": 3453,
    "India</w>": 3454,
    "Inst": 3455,
    "Install": 3456,
    "Install</w>": 3457,
    "Installed</w>": 3458,
    "Int": 3459,
    "Introduc": 3460,
    "Introduction": 3461,
    "Introduction):</w>": 3462,
    "Introduction*</w>": 3463,
    "Introduction,</w>": 3464,
    "Introduction:</w>": 3465,
    "Introduction</w>": 3466,
    "Inv": 3467,
    "Invest": 3468,
    "Investment</w>": 3469,
    "Invoice</w>": 3470,
    "Is</w>": 3471,
    "It</w>": 3472,
    "Item</w>": 3473,
    "J": 3474,
    "Ja": 3475,
    "January</w>": 3476,
    "Jav": 3477,
    "Java,</w>": 3478,
    "Jo": 3479,
    "John</w>": 3480,
    "Js": 3481,
    "Json": 3482,
    "JsonRes": 3483,
    "JsonRespon": 3484,
    "JsonResponse": 3485,
    "JsonResponse).</w>": 3486,
    "K": 3487,
    "K.</w>": 3488,
    "KA": 3489,
    "KA.</w>": 3490,
    "KA:</w>": 3491,
    "KA</w>": 3492,
    "Kaf": 3493,
    "Kafk": 3494,
    "Kafka</w>": 3495,
    "Karth": 3496,
    "Karthik": 3497,
    "Karthik's</w>": 3498,
    "Karthik,</w>": 3499,
    "Karthik.</w>": 3500,
    "Karthik:</w>": 3501,
    "Karthik</w>": 3502,
    "Karthik?</w>": 3503,
    "Key</w>": 3504,
    "Ki": 3505,
    "Kia</w>": 3506,
    "Kub": 3507,
    "Kuber": 3508,
    "Kubernet": 3509,
    "Kubernetes</w>": 3510,
    "L": 3511,
    "L,</w>": 3512,
    "L.</w>": 3513,
    "L:</w>": 3514,
    "LA": 3515,
    "LE": 3516,
    "LE</w>": 3517,
    "LED": 3518,
    "LED_": 3519,
    "LI": 3520,
    "LIA": 3521,
    "LIAB": 3522,
    "LIABILITY,</w>": 3523,
    "LIABLE</w>": 3524,
    "LIC": 3525,
    "LICEN": 3526,
    "LICENSE": 3527,
    "LICENSE.txt**</w>": 3528,
    "LICENSE.txt</w>": 3529,
    "LIM": 3530,
    "LIMI": 3531,
    "LIMITE": 3532,
    "LIMITED,</w>": 3533,
    "LIMITED</w>": 3534,
    "LOS": 3535,
    "LOSS</w>": 3536,
    "Lam": 3537,
    "Lamb": 3538,
    "Lambda": 3539,
    "Lambda),</w>": 3540,
    "Le": 3541,
    "Lea": 3542,
    "Lead": 3543,
    "Lead'.</w>": 3544,
    "Lead':</w>": 3545,
    "Lead'?</w>": 3546,
    "Lead.</w>": 3547,
    "Lead</w>": 3548,
    "Led</w>": 3549,
    "Leg": 3550,
    "Legal</w>": 3551,
    "Levi": 3552,
    "Levith": 3553,
    "Levithan</w>": 3554,
    "Licens": 3555,
    "License": 3556,
    "License**.</w>": 3557,
    "License,</w>": 3558,
    "License.</w>": 3559,
    "License:": 3560,
    "License:):</w>": 3561,
    "License:**.</w>": 3562,
    "License:**:</w>": 3563,
    "License:*</w>": 3564,
    "License:,</w>": 3565,
    "License:.</w>": 3566,
    "License::</w>": 3567,
    "License:</w>": 3568,
    "License</w>": 3569,
    "List</w>": 3570,
    "Lo": 3571,
    "Loan": 3572,
    "Loan.</w>": 3573,
    "Loan:</w>": 3574,
    "Loan</w>": 3575,
    "Lt": 3576,
    "Ltd,</w>": 3577,
    "Ltd.</w>": 3578,
    "Ltd</w>": 3579,
    "M": 3580,
    "ME": 3581,
    "MER": 3582,
    "MERC": 3583,
    "MERCH": 3584,
    "MERCHAN": 3585,
    "MERCHANTA": 3586,
    "MERCHANTAB": 3587,
    "MERCHANTABILITY,</w>": 3588,
    "META": 3589,
    "META:{%</w>": 3590,
    "MIT</w>": 3591,
    "ML:</w>": 3592,
    "ML</w>": 3593,
    "Mad": 3594,
    "Madra": 3595,
    "Madras,</w>": 3596,
    "Male,</w>": 3597,
    "Male</w>": 3598,
    "Man": 3599,
    "Manage": 3600,
    "Management,</w>": 3601,
    "Management.</w>": 3602,
    "Management</w>": 3603,
    "Mar": 3604,
    "Marut": 3605,
    "Maruti</w>": 3606,
    "Me": 3607,
    "Meer": 3608,
    "Meera's</w>": 3609,
    "Meera,</w>": 3610,
    "Meera.</w>": 3611,
    "Meera:</w>": 3612,
    "Meera</w>": 3613,
    "Meera?</w>": 3614,
    "Ment": 3615,
    "Mento": 3616,
    "Mentored</w>": 3617,
    "Metho": 3618,
    "Method:</w>": 3619,
    "Methodo": 3620,
    "Methodolo": 3621,
    "Methodolog": 3622,
    "Methodology:</w>": 3623,
    "Methodology</w>": 3624,
    "Mid": 3625,
    "Midd": 3626,
    "Middle": 3627,
    "Middlew": 3628,
    "Middleware": 3629,
    "Middleware.</w>": 3630,
    "Middleware:</w>": 3631,
    "Mumb": 3632,
    "Mumba": 3633,
    "Mumbai</w>": 3634,
    "N": 3635,
    "ND": 3636,
    "NE": 3637,
    "NEG": 3638,
    "NEGLI": 3639,
    "NEGLIG": 3640,
    "NEGLIGEN": 3641,
    "NEGLIGENC": 3642,
    "NEGLIGENCE</w>": 3643,
    "NL": 3644,
    "NLP</w>": 3645,
    "NO": 3646,
    "NO</w>": 3647,
    "NON": 3648,
    "NONIN": 3649,
    "NONINF": 3650,
    "NONINFR": 3651,
    "NONINFRING": 3652,
    "NONINFRINGEM": 3653,
    "NONINFRINGEMENT": 3654,
    "NONINFRINGEMENT,</w>": 3655,
    "NONINFRINGEMENT.</w>": 3656,
    "NOT</w>": 3657,
    "NOTE": 3658,
    "NOTE:</w>": 3659,
    "Net</w>": 3660,
    "New": 3661,
    "New)</w>": 3662,
    "New</w>": 3663,
    "Nex": 3664,
    "Nexon": 3665,
    "Nexon).</w>": 3666,
    "Nexon):</w>": 3667,
    "Nexon,</w>": 3668,
    "Nexon.</w>": 3669,
    "Nexon:</w>": 3670,
    "Nexon</w>": 3671,
    "Nexon?</w>": 3672,
    "No": 3673,
    "No,</w>": 3674,
    "No.</w>": 3675,
    "No</w>": 3676,
    "Non": 3677,
    "None": 3678,
    "None{%</w>": 3679,
    "Nort": 3680,
    "North</w>": 3681,
    "Not": 3682,
    "Not</w>": 3683,
    "Notes:</w>": 3684,
    "Numb": 3685,
    "Number,</w>": 3686,
    "Number:</w>": 3687,
    "O": 3688,
    "O'": 3689,
    "O'Bri": 3690,
    "O'Brien</w>": 3691,
    "OC": 3692,
    "OCR</w>": 3693,
    "OF": 3694,
    "OF,</w>": 3695,
    "OF</w>": 3696,
    "OFL</w>": 3697,
    "ON": 3698,
    "ON</w>": 3699,
    "OO": 3700,
    "OR": 3701,
    "OR,</w>": 3702,
    "OR</w>": 3703,
    "OS": 3704,
    "OTH": 3705,
    "OTHER": 3706,
    "OTHERW": 3707,
    "OTHERWISE": 3708,
    "OTHERWISE)</w>": 3709,
    "OUT</w>": 3710,
    "On</w>": 3711,
    "Op": 3712,
    "Open": 3713,
    "OpenJ": 3714,
    "OpenJS</w>": 3715,
    "Oper": 3716,
    "Operat": 3717,
    "Operating</w>": 3718,
    "Ou": 3719,
    "Our</w>": 3720,
    "Out": 3721,
    "Outloo": 3722,
    "Outlook": 3723,
    "Outlook:</w>": 3724,
    "Outlook</w>": 3725,
    "P": 3726,
    "PAR": 3727,
    "PART": 3728,
    "PARTIC": 3729,
    "PARTICU": 3730,
    "PARTICULA": 3731,
    "PARTICULAR</w>": 3732,
    "PD": 3733,
    "PDF</w>": 3734,
    "PE": 3735,
    "PO": 3736,
    "POST": 3737,
    "POST:{%</w>": 3738,
    "POST</w>": 3739,
    "PR": 3740,
    "PRO": 3741,
    "PROC": 3742,
    "PROCUR": 3743,
    "PROCUREM": 3744,
    "PROCUREMENT</w>": 3745,
    "PROF": 3746,
    "PROFI": 3747,
    "PROFITS": 3748,
    "PROFITS;</w>": 3749,
    "PROV": 3750,
    "PROVID": 3751,
    "PROVIDED,</w>": 3752,
    "PUR": 3753,
    "PURPO": 3754,
    "PURPOSE</w>": 3755,
    "Pa": 3756,
    "Paper": 3757,
    "Paper**</w>": 3758,
    "Paper</w>": 3759,
    "Par": 3760,
    "Park,</w>": 3761,
    "Pas": 3762,
    "Passion": 3763,
    "Passionate</w>": 3764,
    "Pat": 3765,
    "Path": 3766,
    "Path:</w>": 3767,
    "Patrick</w>": 3768,
    "Pay": 3769,
    "Payment:</w>": 3770,
    "Payment</w>": 3771,
    "Per": 3772,
    "Permission</w>": 3773,
    "Phon": 3774,
    "Phone:</w>": 3775,
    "Pil": 3776,
    "Pillow": 3777,
    "Pillow>=": 3778,
    "Pillow>=10": 3779,
    "Pillow>=10.0</w>": 3780,
    "Ple": 3781,
    "Please</w>": 3782,
    "Pream": 3783,
    "Preamb": 3784,
    "Preamble": 3785,
    "Preamble:</w>": 3786,
    "Preamble</w>": 3787,
    "Prior</w>": 3788,
    "Pro": 3789,
    "Product</w>": 3790,
    "Prof": 3791,
    "Professional</w>": 3792,
    "Profit": 3793,
    "Profit:</w>": 3794,
    "Programm": 3795,
    "Programming": 3796,
    "Programming,</w>": 3797,
    "Programming:</w>": 3798,
    "Project": 3799,
    "Project</w>": 3800,
    "Projects:</w>": 3801,
    "Projects</w>": 3802,
    "Pvt</w>": 3803,
    "Py": 3804,
    "PyD": 3805,
    "PyDis": 3806,
    "PyDispat": 3807,
    "PyDispatch": 3808,
    "PyDispatcher.</w>": 3809,
    "PyDispatcher</w>": 3810,
    "PyP": 3811,
    "PyPI</w>": 3812,
    "PyT": 3813,
    "PyTorch": 3814,
    "PyTorch,</w>": 3815,
    "Pyth": 3816,
    "Python,</w>": 3817,
    "Python</w>": 3818,
    "Q": 3819,
    "Q2</w>": 3820,
    "QU": 3821,
    "Qu": 3822,
    "Quest": 3823,
    "Questi": 3824,
    "Question:</w>": 3825,
    "R": 3826,
    "R&": 3827,
    "R&D</w>": 3828,
    "RE": 3829,
    "READ": 3830,
    "README": 3831,
    "README.txt**</w>": 3832,
    "README.txt</w>": 3833,
    "RY</w>": 3834,
    "Ra": 3835,
    "Rat": 3836,
    "Rate,</w>": 3837,
    "Rate:</w>": 3838,
    "Rating:</w>": 3839,
    "Ravi": 3840,
    "Ravi's</w>": 3841,
    "Ravi,</w>": 3842,
    "Ravi.</w>": 3843,
    "Ravi:</w>": 3844,
    "Ravi</w>": 3845,
    "Ravi?</w>": 3846,
    "Re": 3847,
    "Red": 3848,
    "Redist": 3849,
    "Redistribu": 3850,
    "Redistribution</w>": 3851,
    "Redistributions</w>": 3852,
    "Reduc": 3853,
    "Reduced</w>": 3854,
    "Rel": 3855,
    "Related</w>": 3856,
    "Rem": 3857,
    "Remo": 3858,
    "Removed</w>": 3859,
    "Repor": 3860,
    "Report</w>": 3861,
    "Requ": 3862,
    "Request</w>": 3863,
    "Res": 3864,
    "ResN": 3865,
    "ResNet-": 3866,
    "ResNet-5": 3867,
    "ResNet-50</w>": 3868,
    "ResNet</w>": 3869,
    "Resear": 3870,
    "Research</w>": 3871,
    "Resu": 3872,
    "Resul": 3873,
    "Result": 3874,
    "Results:</w>": 3875,
    "Results</w>": 3876,
    "Resume</w>": 3877,
    "Ret": 3878,
    "Reten": 3879,
    "Retention</w>": 3880,
    "Return": 3881,
    "Returning": 3882,
    "Returning)</w>": 3883,
    "Returning</w>": 3884,
    "Rev": 3885,
    "Reven": 3886,
    "Revenu": 3887,
    "Revenue,</w>": 3888,
    "Revenue:</w>": 3889,
    "Review": 3890,
    "Review,</w>": 3891,
    "Review:</w>": 3892,
    "Review</w>": 3893,
    "Ri": 3894,
    "Ride": 3895,
    "Ride'.</w>": 3896,
    "Ride':</w>": 3897,
    "Ride'?</w>": 3898,
    "Ride.</w>": 3899,
    "Ride:</w>": 3900,
    "Ride</w>": 3901,
    "Ris": 3902,
    "Risk": 3903,
    "Risks:</w>": 3904,
    "Risks</w>": 3905,
    "S": 3906,
    "S,</w>": 3907,
    "S3,</w>": 3908,
    "SB": 3909,
    "SBIN": 3910,
    "SBIN000": 3911,
    "SBIN000123": 3912,
    "SBIN0001234": 3913,
    "SBIN0001234**:</w>": 3914,
    "SBIN0001234.</w>": 3915,
    "SBIN0001234:</w>": 3916,
    "SBIN0001234</w>": 3917,
    "SE": 3918,
    "SE</w>": 3919,
    "SECTION": 3920,
    "SECTION_": 3921,
    "SER": 3922,
    "SERV": 3923,
    "SERVIC": 3924,
    "SERVICES": 3925,
    "SERVICES;</w>": 3926,
    "SH": 3927,
    "SHA": 3928,
    "SHAL": 3929,
    "SHALL,</w>": 3930,
    "SHALL.</w>": 3931,
    "SI": 3932,
    "SIL</w>": 3933,
    "SOF": 3934,
    "SOFT": 3935,
    "SOFTWAR": 3936,
    "SOFTWARE": 3937,
    "SOFTWARE,</w>": 3938,
    "SOFTWARE</w>": 3939,
    "SPE": 3940,
    "SPECI": 3941,
    "SPECIA": 3942,
    "SPECIAL,</w>": 3943,
    "SQ": 3944,
    "SQL</w>": 3945,
    "ST": 3946,
    "ST</w>": 3947,
    "STA": 3948,
    "STR": 3949,
    "STRIC": 3950,
    "STRICT</w>": 3951,
    "SUB": 3952,
    "SUBST": 3953,
    "SUBSTI": 3954,
    "SUBSTIT": 3955,
    "SUBSTITUT": 3956,
    "SUBSTITUTE</w>": 3957,
    "SUM": 3958,
    "SUMM": 3959,
    "SUMMARY": 3960,
    "SUMMARY></w>": 3961,
    "SV": 3962,
    "SVG</w>": 3963,
    "S_": 3964,
    "Sal": 3965,
    "Sales": 3966,
    "SalesGP": 3967,
    "SalesGPT</w>": 3968,
    "Sc": 3969,
    "Schedul": 3970,
    "Scheduled": 3971,
    "Scheduled.</w>": 3972,
    "Scheduled:</w>": 3973,
    "Scheduled</w>": 3974,
    "Scien": 3975,
    "Science,</w>": 3976,
    "Science</w>": 3977,
    "Sec": 3978,
    "Section:</w>": 3979,
    "Section</w>": 3980,
    "Sel": 3981,
    "Selto": 3982,
    "Seltos": 3983,
    "Seltos).</w>": 3984,
    "Seltos):</w>": 3985,
    "Seltos,</w>": 3986,
    "Seltos.</w>": 3987,
    "Seltos:</w>": 3988,
    "Seltos</w>": 3989,
    "Seltos?</w>": 3990,
    "Sen": 3991,
    "Senior</w>": 3992,
    "Senti": 3993,
    "Sentiment:</w>": 3994,
    "Ser": 3995,
    "Server</w>": 3996,
    "Servic": 3997,
    "Services": 3998,
    "Services,</w>": 3999,
    "Services:": 4000,
    "Services:,</w>": 4001,
    "Services::</w>": 4002,
    "Services:</w>": 4003,
    "Services</w>": 4004,
    "Set": 4005,
    "Sett": 4006,
    "Setting": 4007,
    "Settings:</w>": 4008,
    "Setup</w>": 4009,
    "Sho": 4010,
    "Show": 4011,
    "Show'</w>": 4012,
    "Show.</w>": 4013,
    "Show</w>": 4014,
    "Sk": 4015,
    "Skill": 4016,
    "Skills**:</w>": 4017,
    "Skills,</w>": 4018,
    "Skills</w>": 4019,
    "Smar": 4020,
    "Smart": 4021,
    "SmartF": 4022,
    "SmartFall": 4023,
    "SmartFallback": 4024,
    "SmartFallbackEngin": 4025,
    "SmartFallbackEngine.</w>": 4026,
    "Smith": 4027,
    "Smith**.</w>": 4028,
    "Smith,</w>": 4029,
    "Smith.</w>": 4030,
    "Smith</w>": 4031,
    "Sne": 4032,
    "Sneha": 4033,
    "Sneha's</w>": 4034,
    "Sneha,</w>": 4035,
    "Sneha.</w>": 4036,
    "Sneha:</w>": 4037,
    "Sneha</w>": 4038,
    "Sneha?</w>": 4039,
    "So": 4040,
    "Softw": 4041,
    "Softwa": 4042,
    "Softwar</w>": 4043,
    "Software": 4044,
    "Software,</w>": 4045,
    "Software.</w>": 4046,
    "Software</w>": 4047,
    "Solu": 4048,
    "Solution": 4049,
    "Solutions,</w>": 4050,
    "Solutions.</w>": 4051,
    "Solutions</w>": 4052,
    "Sou": 4053,
    "Sour": 4054,
    "Source:</w>": 4055,
    "Sout": 4056,
    "South": 4057,
    "South</w>": 4058,
    "Southe": 4059,
    "Southeas": 4060,
    "Southeast</w>": 4061,
    "Spr": 4062,
    "Spring</w>": 4063,
    "St": 4064,
    "Star": 4065,
    "Startu": 4066,
    "Startup": 4067,
    "StartupX": 4068,
    "StartupXY": 4069,
    "StartupXYZ</w>": 4070,
    "State</w>": 4071,
    "Statu": 4072,
    "Status:</w>": 4073,
    "Status</w>": 4074,
    "Stev": 4075,
    "Steven</w>": 4076,
    "Su": 4077,
    "Sub": 4078,
    "Subtotal": 4079,
    "Subtotal:</w>": 4080,
    "Sum": 4081,
    "Summar": 4082,
    "Summarize</w>": 4083,
    "Summary": 4084,
    "Summary):</w>": 4085,
    "Summary**.</w>": 4086,
    "Summary*</w>": 4087,
    "Summary,</w>": 4088,
    "Summary.</w>": 4089,
    "Summary:</w>": 4090,
    "Summary</w>": 4091,
    "Suppl": 4092,
    "Supply</w>": 4093,
    "Swi": 4094,
    "Swif": 4095,
    "Swift": 4096,
    "Swift).</w>": 4097,
    "Swift):</w>": 4098,
    "Swift,</w>": 4099,
    "Swift.</w>": 4100,
    "Swift:</w>": 4101,
    "Swift</w>": 4102,
    "Swift?</w>": 4103,
    "Sy": 4104,
    "Syst": 4105,
    "System": 4106,
    "System,</w>": 4107,
    "System</w>": 4108,
    "T": 4109,
    "TA": 4110,
    "TE": 4111,
    "TF": 4112,
    "TF-": 4113,
    "TF-ID": 4114,
    "TF-IDF</w>": 4115,
    "TH": 4116,
    "THE": 4117,
    "THE</w>": 4118,
    "THEO": 4119,
    "THEORY</w>": 4120,
    "THIS</w>": 4121,
    "THO": 4122,
    "TL": 4123,
    "TL;": 4124,
    "TL;D": 4125,
    "TL;DR": 4126,
    "TL;DR</w>": 4127,
    "TL;DR?</w>": 4128,
    "TN": 4129,
    "TN.</w>": 4130,
    "TN:</w>": 4131,
    "TN</w>": 4132,
    "TO": 4133,
    "TO,</w>": 4134,
    "TO.</w>": 4135,
    "TO</w>": 4136,
    "TOR": 4137,
    "TORT</w>": 4138,
    "TR": 4139,
    "TS": 4140,
    "TS.</w>": 4141,
    "TS:</w>": 4142,
    "TS</w>": 4143,
    "TY": 4144,
    "T_": 4145,
    "T_items</w>": 4146,
    "Ta": 4147,
    "Tak": 4148,
    "Taken": 4149,
    "Taken.</w>": 4150,
    "Tata</w>": 4151,
    "Tec": 4152,
    "Tech": 4153,
    "Tech</w>": 4154,
    "TechCor": 4155,
    "TechCorp</w>": 4156,
    "Technic": 4157,
    "Technical</w>": 4158,
    "Tell</w>": 4159,
    "Templ": 4160,
    "Template</w>": 4161,
    "Tens": 4162,
    "Tensor": 4163,
    "TensorF": 4164,
    "TensorFlow": 4165,
    "TensorFlow,</w>": 4166,
    "Ter": 4167,
    "Term": 4168,
    "Terms:</w>": 4169,
    "Tesser": 4170,
    "Tesseract</w>": 4171,
    "Test</w>": 4172,
    "Th": 4173,
    "The,</w>": 4174,
    "The</w>": 4175,
    "These</w>": 4176,
    "They</w>": 4177,
    "This": 4178,
    "This,</w>": 4179,
    "This</w>": 4180,
    "Three</w>": 4181,
    "To": 4182,
    "To:</w>": 4183,
    "Total</w>": 4184,
    "Tr": 4185,
    "Tra": 4186,
    "Trac": 4187,
    "Trace": 4188,
    "Traceback</w>": 4189,
    "Training</w>": 4190,
    "Trans": 4191,
    "Transform": 4192,
    "Transformer": 4193,
    "Transformer-based</w>": 4194,
    "Transformer.</w>": 4195,
    "Transformer</w>": 4196,
    "True</w>": 4197,
    "Typ": 4198,
    "Type:</w>": 4199,
    "U": 4200,
    "UB": 4201,
    "UD": 4202,
    "UI": 4203,
    "UI/": 4204,
    "UI/U": 4205,
    "UI/UX</w>": 4206,
    "UM": 4207,
    "UR": 4208,
    "URL:</w>": 4209,
    "USE": 4210,
    "USE,</w>": 4211,
    "USE</w>": 4212,
    "UT": 4213,
    "UT</w>": 4214,
    "Ub": 4215,
    "Ubun": 4216,
    "Ubuntu": 4217,
    "Ubuntu/": 4218,
    "Ubuntu/D": 4219,
    "Ubuntu/Deb": 4220,
    "Ubuntu/Debi": 4221,
    "Ubuntu/Debian</w>": 4222,
    "Us": 4223,
    "Using</w>": 4224,
    "V": 4225,
    "Val": 4226,
    "Value:</w>": 4227,
    "Vehic": 4228,
    "Vehicle:</w>": 4229,
    "Ver": 4230,
    "Version:</w>": 4231,
    "Vi": 4232,
    "Vik": 4233,
    "Vikra": 4234,
    "Vikram": 4235,
    "Vikram's</w>": 4236,
    "Vikram,</w>": 4237,
    "Vikram.</w>": 4238,
    "Vikram:</w>": 4239,
    "Vikram</w>": 4240,
    "Vikram?</w>": 4241,
    "Vision</w>": 4242,
    "W": 4243,
    "WA": 4244,
    "WAR": 4245,
    "WARE": 4246,
    "WARR": 4247,
    "WARRAN": 4248,
    "WARRANT": 4249,
    "WARRANTI": 4250,
    "WARRANTIE": 4251,
    "WARRANTIES": 4252,
    "WARRANTIES,</w>": 4253,
    "WARRANTIES</w>": 4254,
    "WARRANTY</w>": 4255,
    "WAY</w>": 4256,
    "WH": 4257,
    "WHE": 4258,
    "WHETH": 4259,
    "WHETHER</w>": 4260,
    "WI": 4261,
    "WITHO": 4262,
    "WITHOUT</w>": 4263,
    "Wal": 4264,
    "Walk": 4265,
    "Walk-": 4266,
    "Walk-in.</w>": 4267,
    "Walk-in</w>": 4268,
    "Was</w>": 4269,
    "We": 4270,
    "We</w>": 4271,
    "Web": 4272,
    "Web</w>": 4273,
    "Websit": 4274,
    "Website.</w>": 4275,
    "Website</w>": 4276,
    "Wh": 4277,
    "What</w>": 4278,
    "When</w>": 4279,
    "Where</w>": 4280,
    "Whic": 4281,
    "Which</w>": 4282,
    "Who</w>": 4283,
    "Why</w>": 4284,
    "Wi": 4285,
    "Win": 4286,
    "Windo": 4287,
    "Window": 4288,
    "Windows</w>": 4289,
    "Without</w>": 4290,
    "Wor": 4291,
    "Work,</w>": 4292,
    "Work:</w>": 4293,
    "Work</w>": 4294,
    "X": 4295,
    "Y": 4296,
    "Y_": 4297,
    "Yes,</w>": 4298,
    "Yes.</w>": 4299,
    "Yes</w>": 4300,
    "Yo": 4301,
    "YoY": 4302,
    "YoY)</w>": 4303,
    "You": 4304,
    "You’": 4305,
    "You’r": 4306,
    "You’re</w>": 4307,
    "Z": 4308,
    "[": 4309,
    "[★★": 4310,
    "[★★★★": 4311,
    "[★★★★★": 4312,
    "[★★★★★].</w>": 4313,
    "[★★★★★]</w>": 4314,
    "[★★★★☆].</w>": 4315,
    "[★★★★☆]</w>": 4316,
    "[★★★☆☆": 4317,
    "[★★★☆☆].</w>": 4318,
    "[★★★☆☆]</w>": 4319,
    "[★★☆☆": 4320,
    "[★★☆☆☆].</w>": 4321,
    "[★★☆☆☆]</w>": 4322,
    "[★☆☆": 4323,
    "[★☆☆☆☆": 4324,
    "[★☆☆☆☆].</w>": 4325,
    "[★☆☆☆☆]</w>": 4326,
    "]": 4327,
    "].</w>": 4328,
    "_": 4329,
    "_EXTRACTION></w>": 4330,
    "_in": 4331,
    "_info</w>": 4332,
    "_name</w>": 4333,
    "`": 4334,
    "`P": 4335,
    "`PI": 4336,
    "`PIL": 4337,
    "`PIL`</w>": 4338,
    "`docx": 4339,
    "`docx`</w>": 4340,
    "a": 4341,
    "a's</w>": 4342,
    "a):</w>": 4343,
    "a)</w>": 4344,
    "a,</w>": 4345,
    "a.</w>": 4346,
    "a:</w>": 4347,
    "a?</w>": 4348,
    "ab": 4349,
    "able</w>": 4350,
    "abo": 4351,
    "about</w>": 4352,
    "about?</w>": 4353,
    "above</w>": 4354,
    "ac": 4355,
    "accoun": 4356,
    "accounted</w>": 4357,
    "accur": 4358,
    "accurac": 4359,
    "accuracy.</w>": 4360,
    "accuracy</w>": 4361,
    "ach": 4362,
    "ach</w>": 4363,
    "ache</w>": 4364,
    "achi": 4365,
    "achie": 4366,
    "achiev": 4367,
    "achieve</w>": 4368,
    "achieved</w>": 4369,
    "achieves</w>": 4370,
    "acme</w>": 4371,
    "acro": 4372,
    "acros": 4373,
    "across</w>": 4374,
    "act": 4375,
    "act</w>": 4376,
    "action</w>": 4377,
    "active</w>": 4378,
    "acts</w>": 4379,
    "ad": 4380,
    "add</w>": 4381,
    "af": 4382,
    "aff": 4383,
    "affec": 4384,
    "affected</w>": 4385,
    "aft": 4386,
    "after</w>": 4387,
    "ag": 4388,
    "age": 4389,
    "age</w>": 4390,
    "agre": 4391,
    "agree": 4392,
    "agreement</w>": 4393,
    "ail": 4394,
    "ain": 4395,
    "ain</w>": 4396,
    "al": 4397,
    "al**</w>": 4398,
    "al.": 4399,
    "al.,</w>": 4400,
    "al</w>": 4401,
    "al_": 4402,
    "ale,</w>": 4403,
    "ale</w>": 4404,
    "all": 4405,
    "all.</w>": 4406,
    "all</w>": 4407,
    "am": 4408,
    "amoun": 4409,
    "amount": 4410,
    "amount?</w>": 4411,
    "an": 4412,
    "an</w>": 4413,
    "anany": 4414,
    "ananya's</w>": 4415,
    "ananya</w>": 4416,
    "ananya?</w>": 4417,
    "anc": 4418,
    "ancell": 4419,
    "and": 4420,
    "and/": 4421,
    "and/or</w>": 4422,
    "and</w>": 4423,
    "ang": 4424,
    "ann": 4425,
    "annu": 4426,
    "annual</w>": 4427,
    "annual_": 4428,
    "annual_repor": 4429,
    "annual_report_": 4430,
    "annual_report_2023": 4431,
    "annual_report_2023.pdf**</w>": 4432,
    "annual_report_2023.pdf</w>": 4433,
    "another</w>": 4434,
    "ans": 4435,
    "ant</w>": 4436,
    "anuary</w>": 4437,
    "any": 4438,
    "any</w>": 4439,
    "ap": 4440,
    "aper</w>": 4441,
    "api": 4442,
    "api.py</w>": 4443,
    "appl": 4444,
    "application": 4445,
    "applications</w>": 4446,
    "appoint": 4447,
    "appointment": 4448,
    "appointment(": 4449,
    "appointment(s):</w>": 4450,
    "appointment</w>": 4451,
    "appointment?</w>": 4452,
    "appointments:</w>": 4453,
    "appointments</w>": 4454,
    "appro": 4455,
    "approach</w>": 4456,
    "approved</w>": 4457,
    "approx": 4458,
    "approxim": 4459,
    "approximatel": 4460,
    "approximately</w>": 4461,
    "apt": 4462,
    "apt-": 4463,
    "apt-get</w>": 4464,
    "ar": 4465,
    "architect": 4466,
    "architectu": 4467,
    "architecture,</w>": 4468,
    "architecture</w>": 4469,
    "ard</w>": 4470,
    "are": 4471,
    "are</w>": 4472,
    "area</w>": 4473,
    "arj": 4474,
    "arjun": 4475,
    "arjun's</w>": 4476,
    "arjun</w>": 4477,
    "arjun?</w>": 4478,
    "aroun": 4479,
    "around</w>": 4480,
    "arri": 4481,
    "arrive</w>": 4482,
    "art</w>": 4483,
    "arth": 4484,
    "ary</w>": 4485,
    "as": 4486,
    "as</w>": 4487,
    "ase</w>": 4488,
    "ased</w>": 4489,
    "ass": 4490,
    "assoc": 4491,
    "associ": 4492,
    "associated</w>": 4493,
    "assum": 4494,
    "assuming</w>": 4495,
    "asswor": 4496,
    "ast": 4497,
    "at": 4498,
    "at</w>": 4499,
    "at?</w>": 4500,
    "ata</w>": 4501,
    "ate": 4502,
    "ate</w>": 4503,
    "ated</w>": 4504,
    "atel": 4505,
    "ati": 4506,
    "ation": 4507,
    "ation,</w>": 4508,
    "ation.</w>": 4509,
    "ation:</w>": 4510,
    "ation</w>": 4511,
    "ational</w>": 4512,
    "att": 4513,
    "attem": 4514,
    "attemp": 4515,
    "attempt": 4516,
    "attempt.": 4517,
    "attempt.0.": 4518,
    "attempt.0.loa": 4519,
    "attempt.0.loader": 4520,
    "attempt.0.loader_name</w>": 4521,
    "attempt.0.name</w>": 4522,
    "attempt.1</w>": 4523,
    "attempt</w>": 4524,
    "atten": 4525,
    "attention": 4526,
    "attention-based</w>": 4527,
    "attention</w>": 4528,
    "attr": 4529,
    "attracts</w>": 4530,
    "atu": 4531,
    "au": 4532,
    "auth": 4533,
    "author</w>": 4534,
    "autoescape</w>": 4535,
    "ave</w>": 4536,
    "average</w>": 4537,
    "awesom": 4538,
    "awesome</w>": 4539,
    "ay": 4540,
    "ay</w>": 4541,
    "b": 4542,
    "ba": 4543,
    "bac": 4544,
    "back": 4545,
    "back.</w>": 4546,
    "back</w>": 4547,
    "backb": 4548,
    "backbon": 4549,
    "backbone,</w>": 4550,
    "backbone</w>": 4551,
    "backen": 4552,
    "backend</w>": 4553,
    "backgro": 4554,
    "backgroun": 4555,
    "background</w>": 4556,
    "bad</w>": 4557,
    "ban": 4558,
    "bank:</w>": 4559,
    "bas": 4560,
    "baseline</w>": 4561,
    "be": 4562,
    "be</w>": 4563,
    "bec": 4564,
    "beca": 4565,
    "because</w>": 4566,
    "been</w>": 4567,
    "bel": 4568,
    "belong": 4569,
    "belongs</w>": 4570,
    "ben": 4571,
    "bench": 4572,
    "benchmar": 4573,
    "benchmark": 4574,
    "benchmark,</w>": 4575,
    "benchmarks.</w>": 4576,
    "bet": 4577,
    "bett": 4578,
    "better": 4579,
    "better\".</w>": 4580,
    "better\"</w>": 4581,
    "betw": 4582,
    "betwe": 4583,
    "between</w>": 4584,
    "bill</w>": 4585,
    "bin": 4586,
    "binar": 4587,
    "binary,</w>": 4588,
    "binary</w>": 4589,
    "ble": 4590,
    "bloc": 4591,
    "block": 4592,
    "blocktrans": 4593,
    "blocktranslate</w>": 4594,
    "bo": 4595,
    "board</w>": 4596,
    "bre": 4597,
    "brew</w>": 4598,
    "bu": 4599,
    "bud": 4600,
    "budget</w>": 4601,
    "buil": 4602,
    "build</w>": 4603,
    "building</w>": 4604,
    "builds</w>": 4605,
    "but</w>": 4606,
    "by</w>": 4607,
    "c": 4608,
    "ca": 4609,
    "cach": 4610,
    "caching</w>": 4611,
    "call": 4612,
    "call</w>": 4613,
    "calls,</w>": 4614,
    "came</w>": 4615,
    "cancell": 4616,
    "cancelled</w>": 4617,
    "cancelled?</w>": 4618,
    "cap": 4619,
    "capit": 4620,
    "capital</w>": 4621,
    "car</w>": 4622,
    "cause</w>": 4623,
    "ce": 4624,
    "ce,</w>": 4625,
    "ce:</w>": 4626,
    "ce</w>": 4627,
    "cep": 4628,
    "cess": 4629,
    "ch": 4630,
    "ch</w>": 4631,
    "cha": 4632,
    "chain</w>": 4633,
    "chang": 4634,
    "changes,</w>": 4635,
    "char": 4636,
    "charge,</w>": 4637,
    "ched": 4638,
    "chedul": 4639,
    "chit": 4640,
    "chitec": 4641,
    "chitect": 4642,
    "cho": 4643,
    "chos": 4644,
    "chose</w>": 4645,
    "chosen</w>": 4646,
    "city</w>": 4647,
    "cl": 4648,
    "cla": 4649,
    "clai": 4650,
    "claim": 4651,
    "claim</w>": 4652,
    "claims/": 4653,
    "claims/ar": 4654,
    "claims/arg": 4655,
    "claims/argu": 4656,
    "claims/argument": 4657,
    "claims/arguments:**</w>": 4658,
    "clas": 4659,
    "classi": 4660,
    "classific": 4661,
    "classification": 4662,
    "classification,</w>": 4663,
    "classification.": 4664,
    "classification.**.</w>": 4665,
    "classification..</w>": 4666,
    "classification.</w>": 4667,
    "classification</w>": 4668,
    "clos": 4669,
    "closed": 4670,
    "closed/": 4671,
    "closed/completed.</w>": 4672,
    "cloud</w>": 4673,
    "clu": 4674,
    "clusion": 4675,
    "co": 4676,
    "code": 4677,
    "code.</w>": 4678,
    "code</w>": 4679,
    "codeb": 4680,
    "codebase</w>": 4681,
    "com": 4682,
    "com</w>": 4683,
    "come</w>": 4684,
    "comp": 4685,
    "compa": 4686,
    "company</w>": 4687,
    "compared</w>": 4688,
    "competi": 4689,
    "competiti": 4690,
    "competitiv</w>": 4691,
    "competitive</w>": 4692,
    "compl": 4693,
    "complain": 4694,
    "complain?</w>": 4695,
    "comple": 4696,
    "completed.</w>": 4697,
    "completed</w>": 4698,
    "complex</w>": 4699,
    "compon": 4700,
    "component": 4701,
    "components:</w>": 4702,
    "comput": 4703,
    "computation.</w>": 4704,
    "computation</w>": 4705,
    "computational</w>": 4706,
    "computer</w>": 4707,
    "con": 4708,
    "conclu": 4709,
    "conclude?</w>": 4710,
    "conclusion": 4711,
    "conclusion:**</w>": 4712,
    "conclusion?</w>": 4713,
    "conclusions?</w>": 4714,
    "cond": 4715,
    "condi": 4716,
    "condition": 4717,
    "conditions.</w>": 4718,
    "conditions:</w>": 4719,
    "conditions</w>": 4720,
    "conduc": 4721,
    "conducted": 4722,
    "conducted?</w>": 4723,
    "confir": 4724,
    "confirm": 4725,
    "confirmed?</w>": 4726,
    "consi": 4727,
    "consist": 4728,
    "consists</w>": 4729,
    "cont": 4730,
    "contact</w>": 4731,
    "content:</w>": 4732,
    "context</w>": 4733,
    "contribu": 4734,
    "contribution</w>": 4735,
    "contributor": 4736,
    "contributors,</w>": 4737,
    "convo": 4738,
    "convolution": 4739,
    "convolutional</w>": 4740,
    "coo": 4741,
    "cooki": 4742,
    "cookie</w>": 4743,
    "cop": 4744,
    "copi</w>": 4745,
    "copies</w>": 4746,
    "copy,</w>": 4747,
    "copy</w>": 4748,
    "copyright</w>": 4749,
    "cor": 4750,
    "corpor": 4751,
    "corporation</w>": 4752,
    "cost</w>": 4753,
    "coun": 4754,
    "cover": 4755,
    "cover?</w>": 4756,
    "covering</w>": 4757,
    "covers</w>": 4758,
    "cur": 4759,
    "curr": 4760,
    "current</w>": 4761,
    "currently</w>": 4762,
    "custom": 4763,
    "customer": 4764,
    "customer(": 4765,
    "customer(s):</w>": 4766,
    "customer(s)</w>": 4767,
    "customer</w>": 4768,
    "customer?</w>": 4769,
    "customers</w>": 4770,
    "d": 4771,
    "d,</w>": 4772,
    "d.</w>": 4773,
    "d:</w>": 4774,
    "da": 4775,
    "dail": 4776,
    "daily</w>": 4777,
    "dat": 4778,
    "data": 4779,
    "data.</w>": 4780,
    "data</w>": 4781,
    "datas": 4782,
    "dataset</w>": 4783,
    "data{%</w>": 4784,
    "date:</w>": 4785,
    "date</w>": 4786,
    "dation</w>": 4787,
    "day": 4788,
    "day</w>": 4789,
    "days**:</w>": 4790,
    "days,</w>": 4791,
    "days:</w>": 4792,
    "days</w>": 4793,
    "de": 4794,
    "de:</w>": 4795,
    "de</w>": 4796,
    "de?</w>": 4797,
    "deal": 4798,
    "deal</w>": 4799,
    "dealer": 4800,
    "dealersh": 4801,
    "dealership</w>": 4802,
    "dec": 4803,
    "decline</w>": 4804,
    "ded</w>": 4805,
    "def": 4806,
    "defa": 4807,
    "defau</w>": 4808,
    "default": 4809,
    "default;</w>": 4810,
    "demon": 4811,
    "demonst": 4812,
    "demonstrate</w>": 4813,
    "der": 4814,
    "der</w>": 4815,
    "des": 4816,
    "des</w>": 4817,
    "desc": 4818,
    "descri": 4819,
    "describ": 4820,
    "describe</w>": 4821,
    "descriptions</w>": 4822,
    "det": 4823,
    "detail": 4824,
    "detailed</w>": 4825,
    "details.</w>": 4826,
    "details</w>": 4827,
    "dev": 4828,
    "develop": 4829,
    "developers</w>": 4830,
    "development,</w>": 4831,
    "development</w>": 4832,
    "di": 4833,
    "did</w>": 4834,
    "ding</w>": 4835,
    "direc": 4836,
    "direct": 4837,
    "direct</w>": 4838,
    "directl": 4839,
    "directly": 4840,
    "directly)</w>": 4841,
    "dis": 4842,
    "disc": 4843,
    "disclaim": 4844,
    "disclaimer.</w>": 4845,
    "discus": 4846,
    "discuss?</w>": 4847,
    "displ": 4848,
    "display</w>": 4849,
    "disr": 4850,
    "disru": 4851,
    "disruptions</w>": 4852,
    "distribut": 4853,
    "distribute,</w>": 4854,
    "div": 4855,
    "divy": 4856,
    "divya's</w>": 4857,
    "divya</w>": 4858,
    "divya?</w>": 4859,
    "django": 4860,
    "django,</w>": 4861,
    "django-": 4862,
    "django-cor": 4863,
    "django-cors": 4864,
    "django-cors-": 4865,
    "django-cors-hea": 4866,
    "django-cors-header": 4867,
    "django-cors-headers": 4868,
    "django-cors-headers>=4": 4869,
    "django-cors-headers>=4.3</w>": 4870,
    "django.": 4871,
    "django.</w>": 4872,
    "django.dis": 4873,
    "django.dispat": 4874,
    "django.dispatch</w>": 4875,
    "django.view": 4876,
    "django.views.": 4877,
    "django.views.Vi": 4878,
    "django.views.View</w>": 4879,
    "django>=4": 4880,
    "django>=4,</w>": 4881,
    "django>=4.2,<5.2</w>": 4882,
    "django_": 4883,
    "django_version_info</w>": 4884,
    "djangore": 4885,
    "djangorest": 4886,
    "djangorestframework</w>": 4887,
    "do": 4888,
    "do</w>": 4889,
    "doc": 4890,
    "docu": 4891,
    "document": 4892,
    "document.</w>": 4893,
    "document:**</w>": 4894,
    "document</w>": 4895,
    "document?</w>": 4896,
    "documentation</w>": 4897,
    "docx": 4898,
    "does</w>": 4899,
    "don": 4900,
    "done?</w>": 4901,
    "ds</w>": 4902,
    "duc": 4903,
    "duct</w>": 4904,
    "due</w>": 4905,
    "dur": 4906,
    "during:</w>": 4907,
    "e": 4908,
    "e,</w>": 4909,
    "e-": 4910,
    "e.</w>": 4911,
    "e:**</w>": 4912,
    "e:</w>": 4913,
    "e?</w>": 4914,
    "e_": 4915,
    "ea": 4916,
    "each</w>": 4917,
    "ear": 4918,
    "early.</w>": 4919,
    "eb": 4920,
    "ebr": 4921,
    "ebruary</w>": 4922,
    "ec": 4923,
    "ed": 4924,
    "ed'.</w>": 4925,
    "ed'</w>": 4926,
    "ed.</w>": 4927,
    "ed</w>": 4928,
    "ed?</w>": 4929,
    "eed": 4930,
    "eedbac": 4931,
    "ehic": 4932,
    "ei": 4933,
    "el": 4934,
    "elif</w>": 4935,
    "eline</w>": 4936,
    "ell": 4937,
    "ell</w>": 4938,
    "elop": 4939,
    "else</w>": 4940,
    "em": 4941,
    "em</w>": 4942,
    "empl": 4943,
    "empt": 4944,
    "empty</w>": 4945,
    "ems</w>": 4946,
    "en": 4947,
    "en</w>": 4948,
    "enc": 4949,
    "ency</w>": 4950,
    "end": 4951,
    "enda": 4952,
    "endautoescape</w>": 4953,
    "endblocktranslate</w>": 4954,
    "endfor</w>": 4955,
    "endi": 4956,
    "endif</w>": 4957,
    "endifchanged</w>": 4958,
    "endspaceless</w>": 4959,
    "ener": 4960,
    "eneral</w>": 4961,
    "engin": 4962,
    "engine": 4963,
    "engine</w>": 4964,
    "engineer</w>": 4965,
    "enq": 4966,
    "enq0": 4967,
    "enq00": 4968,
    "enq001</w>": 4969,
    "enq001?</w>": 4970,
    "enq002": 4971,
    "enq002</w>": 4972,
    "enq002?</w>": 4973,
    "enq003</w>": 4974,
    "enq003?</w>": 4975,
    "enq004</w>": 4976,
    "enq004?</w>": 4977,
    "enq005</w>": 4978,
    "enq005?</w>": 4979,
    "enq006</w>": 4980,
    "enq006?</w>": 4981,
    "enq007</w>": 4982,
    "enq007?</w>": 4983,
    "enq008</w>": 4984,
    "enq008?</w>": 4985,
    "enq009</w>": 4986,
    "enq009?</w>": 4987,
    "enq01": 4988,
    "enq010": 4989,
    "enq010</w>": 4990,
    "enq010?</w>": 4991,
    "enq011": 4992,
    "enq011</w>": 4993,
    "enq011?</w>": 4994,
    "enq012": 4995,
    "enq012</w>": 4996,
    "enq012?</w>": 4997,
    "enq013": 4998,
    "enq013</w>": 4999,
    "enq013?</w>": 5000,
    "enq014": 5001,
    "enq014</w>": 5002,
    "enq014?</w>": 5003,
    "enq015": 5004,
    "enq015</w>": 5005,
    "enq015?</w>": 5006,
    "enq016": 5007,
    "enq016</w>": 5008,
    "enq016?</w>": 5009,
    "enq017": 5010,
    "enq017</w>": 5011,
    "enq017?</w>": 5012,
    "enq018": 5013,
    "enq018</w>": 5014,
    "enq018?</w>": 5015,
    "enq019</w>": 5016,
    "enq019?</w>": 5017,
    "enq02": 5018,
    "enq020</w>": 5019,
    "enq020?</w>": 5020,
    "enq021</w>": 5021,
    "enq021?</w>": 5022,
    "enq022</w>": 5023,
    "enq022?</w>": 5024,
    "enq023</w>": 5025,
    "enq023?</w>": 5026,
    "enq024</w>": 5027,
    "enq024?</w>": 5028,
    "enq025</w>": 5029,
    "enq025?</w>": 5030,
    "enq026</w>": 5031,
    "enq026?</w>": 5032,
    "enq027</w>": 5033,
    "enq027?</w>": 5034,
    "enq028</w>": 5035,
    "enq028?</w>": 5036,
    "enq029</w>": 5037,
    "enq029?</w>": 5038,
    "enq03": 5039,
    "enq030": 5040,
    "enq030</w>": 5041,
    "enq030?</w>": 5042,
    "enq031</w>": 5043,
    "enq031?</w>": 5044,
    "enq032": 5045,
    "enq032</w>": 5046,
    "enq032?</w>": 5047,
    "enq033</w>": 5048,
    "enq033?</w>": 5049,
    "enq034": 5050,
    "enq034</w>": 5051,
    "enq034?</w>": 5052,
    "enq035</w>": 5053,
    "enq035?</w>": 5054,
    "enq036</w>": 5055,
    "enq036?</w>": 5056,
    "enq037</w>": 5057,
    "enq037?</w>": 5058,
    "enq038</w>": 5059,
    "enq038?</w>": 5060,
    "enq039</w>": 5061,
    "enq039?</w>": 5062,
    "enq04": 5063,
    "enq040": 5064,
    "enq040</w>": 5065,
    "enq040?</w>": 5066,
    "enq041</w>": 5067,
    "enq041?</w>": 5068,
    "enq042</w>": 5069,
    "enq042?</w>": 5070,
    "enq043</w>": 5071,
    "enq043?</w>": 5072,
    "enq044</w>": 5073,
    "enq044?</w>": 5074,
    "enq045": 5075,
    "enq045</w>": 5076,
    "enq045?</w>": 5077,
    "enq046</w>": 5078,
    "enq046?</w>": 5079,
    "enq047</w>": 5080,
    "enq047?</w>": 5081,
    "enq048</w>": 5082,
    "enq048?</w>": 5083,
    "enq049</w>": 5084,
    "enq049?</w>": 5085,
    "enq05": 5086,
    "enq050</w>": 5087,
    "enq050?</w>": 5088,
    "enq051</w>": 5089,
    "enq051?</w>": 5090,
    "enq052</w>": 5091,
    "enq052?</w>": 5092,
    "enq053</w>": 5093,
    "enq053?</w>": 5094,
    "enq054": 5095,
    "enq054</w>": 5096,
    "enq054?</w>": 5097,
    "enq055</w>": 5098,
    "enq055?</w>": 5099,
    "enq056": 5100,
    "enq056</w>": 5101,
    "enq056?</w>": 5102,
    "enq057</w>": 5103,
    "enq057?</w>": 5104,
    "enq058</w>": 5105,
    "enq058?</w>": 5106,
    "enq059</w>": 5107,
    "enq059?</w>": 5108,
    "enq06": 5109,
    "enq060": 5110,
    "enq060</w>": 5111,
    "enq060?</w>": 5112,
    "enq061</w>": 5113,
    "enq061?</w>": 5114,
    "enq062</w>": 5115,
    "enq062?</w>": 5116,
    "enq063</w>": 5117,
    "enq063?</w>": 5118,
    "enq064</w>": 5119,
    "enq064?</w>": 5120,
    "enq065</w>": 5121,
    "enq065?</w>": 5122,
    "enq066</w>": 5123,
    "enq066?</w>": 5124,
    "enq067</w>": 5125,
    "enq067?</w>": 5126,
    "enq068</w>": 5127,
    "enq068?</w>": 5128,
    "enq069</w>": 5129,
    "enq069?</w>": 5130,
    "enq07": 5131,
    "enq070</w>": 5132,
    "enq070?</w>": 5133,
    "enq071</w>": 5134,
    "enq071?</w>": 5135,
    "enq072</w>": 5136,
    "enq072?</w>": 5137,
    "enq073</w>": 5138,
    "enq073?</w>": 5139,
    "enq074</w>": 5140,
    "enq074?</w>": 5141,
    "enq075</w>": 5142,
    "enq075?</w>": 5143,
    "enq076": 5144,
    "enq076</w>": 5145,
    "enq076?</w>": 5146,
    "enq077</w>": 5147,
    "enq077?</w>": 5148,
    "enq078</w>": 5149,
    "enq078?</w>": 5150,
    "enq079</w>": 5151,
    "enq079?</w>": 5152,
    "enq08": 5153,
    "enq080</w>": 5154,
    "enq080?</w>": 5155,
    "enq081</w>": 5156,
    "enq081?</w>": 5157,
    "enq082</w>": 5158,
    "enq082?</w>": 5159,
    "enq083</w>": 5160,
    "enq083?</w>": 5161,
    "enq084</w>": 5162,
    "enq084?</w>": 5163,
    "enq085</w>": 5164,
    "enq085?</w>": 5165,
    "enq086</w>": 5166,
    "enq086?</w>": 5167,
    "enq087</w>": 5168,
    "enq087?</w>": 5169,
    "enq088</w>": 5170,
    "enq088?</w>": 5171,
    "enq089": 5172,
    "enq089</w>": 5173,
    "enq089?</w>": 5174,
    "enq09": 5175,
    "enq090</w>": 5176,
    "enq090?</w>": 5177,
    "enq091</w>": 5178,
    "enq091?</w>": 5179,
    "enq092": 5180,
    "enq092</w>": 5181,
    "enq092?</w>": 5182,
    "enq093": 5183,
    "enq093</w>": 5184,
    "enq093?</w>": 5185,
    "enq094": 5186,
    "enq094</w>": 5187,
    "enq094?</w>": 5188,
    "enq095": 5189,
    "enq095</w>": 5190,
    "enq095?</w>": 5191,
    "enq096": 5192,
    "enq096</w>": 5193,
    "enq096?</w>": 5194,
    "enq097</w>": 5195,
    "enq097?</w>": 5196,
    "enq098": 5197,
    "enq098</w>": 5198,
    "enq098?</w>": 5199,
    "enq099</w>": 5200,
    "enq099?</w>": 5201,
    "enq100": 5202,
    "enq100</w>": 5203,
    "enq100?</w>": 5204,
    "enquir": 5205,
    "enquire</w>": 5206,
    "enquired</w>": 5207,
    "enquiries</w>": 5208,
    "enquiry.</w>": 5209,
    "enquiry</w>": 5210,
    "ens": 5211,
    "ent": 5212,
    "ent:</w>": 5213,
    "ent</w>": 5214,
    "enti": 5215,
    "entiti": 5216,
    "entities": 5217,
    "entities/": 5218,
    "entities/topic": 5219,
    "entities/topics:**</w>": 5220,
    "entities</w>": 5221,
    "ently</w>": 5222,
    "entr": 5223,
    "entry": 5224,
    "entry.": 5225,
    "entry.back": 5226,
    "entry.backend": 5227,
    "entry.backend.": 5228,
    "entry.backend.name</w>": 5229,
    "entry.t": 5230,
    "entry.tried</w>": 5231,
    "entry</w>": 5232,
    "epo": 5233,
    "epoch": 5234,
    "epochs</w>": 5235,
    "er": 5236,
    "er,</w>": 5237,
    "er.</w>": 5238,
    "er:</w>": 5239,
    "er</w>": 5240,
    "er?</w>": 5241,
    "ere</w>": 5242,
    "ern</w>": 5243,
    "erro": 5244,
    "error": 5245,
    "error:</w>": 5246,
    "error</w>": 5247,
    "errors</w>": 5248,
    "ers</w>": 5249,
    "es": 5250,
    "es,</w>": 5251,
    "es.</w>": 5252,
    "es:</w>": 5253,
    "es</w>": 5254,
    "ese</w>": 5255,
    "ess": 5256,
    "ess</w>": 5257,
    "esser": 5258,
    "ession": 5259,
    "essional</w>": 5260,
    "est": 5261,
    "est</w>": 5262,
    "estab": 5263,
    "establish": 5264,
    "establishes</w>": 5265,
    "et": 5266,
    "et-": 5267,
    "et</w>": 5268,
    "eti": 5269,
    "ett": 5270,
    "ev": 5271,
    "eval": 5272,
    "evalu": 5273,
    "evaluate</w>": 5274,
    "ever": 5275,
    "every": 5276,
    "everything</w>": 5277,
    "eviden": 5278,
    "evidence</w>": 5279,
    "ew": 5280,
    "ew</w>": 5281,
    "ex": 5282,
    "exce</w>": 5283,
    "excep": 5284,
    "exception": 5285,
    "exception:{%</w>": 5286,
    "exception</w>": 5287,
    "exception_": 5288,
    "exception_no": 5289,
    "exception_not": 5290,
    "exception_notes</w>": 5291,
    "exception_type</w>": 5292,
    "exception_v": 5293,
    "exception_val": 5294,
    "exception_value</w>": 5295,
    "exp": 5296,
    "expan": 5297,
    "expand": 5298,
    "expanded</w>": 5299,
    "expansion.</w>": 5300,
    "expend": 5301,
    "expendit": 5302,
    "expenditure</w>": 5303,
    "exper": 5304,
    "experi": 5305,
    "experien": 5306,
    "experience": 5307,
    "experience\".</w>": 5308,
    "experience\"</w>": 5309,
    "experience</w>": 5310,
    "experiment": 5311,
    "experiments</w>": 5312,
    "expl": 5313,
    "explore</w>": 5314,
    "ext": 5315,
    "ext</w>": 5316,
    "exter": 5317,
    "extern": 5318,
    "external</w>": 5319,
    "extr": 5320,
    "extraction</w>": 5321,
    "extracts</w>": 5322,
    "ey</w>": 5323,
    "f": 5324,
    "fac": 5325,
    "facil": 5326,
    "facility</w>": 5327,
    "fact": 5328,
    "facts:**</w>": 5329,
    "facts</w>": 5330,
    "fall": 5331,
    "falls</w>": 5332,
    "fchang": 5333,
    "fchanged</w>": 5334,
    "fe": 5335,
    "featu": 5336,
    "feature": 5337,
    "features.</w>": 5338,
    "features</w>": 5339,
    "february</w>": 5340,
    "feedbac": 5341,
    "feedback": 5342,
    "feedback</w>": 5343,
    "feedback?</w>": 5344,
    "fi": 5345,
    "fic": 5346,
    "fication": 5347,
    "fiel": 5348,
    "field,</w>": 5349,
    "field</w>": 5350,
    "file": 5351,
    "file.</w>": 5352,
    "file</w>": 5353,
    "files</w>": 5354,
    "filt": 5355,
    "filter": 5356,
    "filtered": 5357,
    "filtered_": 5358,
    "filtered_PO": 5359,
    "filtered_POS": 5360,
    "filtered_POST_items</w>": 5361,
    "fin": 5362,
    "financial</w>": 5363,
    "find": 5364,
    "finding": 5365,
    "findings?</w>": 5366,
    "fine-": 5367,
    "fine-t": 5368,
    "fine-tun": 5369,
    "fine-tuned</w>": 5370,
    "fir": 5371,
    "first": 5372,
    "firstof</w>": 5373,
    "fisc": 5374,
    "fiscal</w>": 5375,
    "fl": 5376,
    "fluctu": 5377,
    "fluctuation": 5378,
    "fluctuations</w>": 5379,
    "fo": 5380,
    "fo</w>": 5381,
    "fol": 5382,
    "folder": 5383,
    "folder).</w>": 5384,
    "follow": 5385,
    "following</w>": 5386,
    "font-": 5387,
    "font-Awesome-SVG-PNG</w>": 5388,
    "font-awesom": 5389,
    "font-awesome-": 5390,
    "font-awesome-s": 5391,
    "font-awesome-sv": 5392,
    "font-awesome-svg": 5393,
    "font-awesome-svg-": 5394,
    "font-awesome-svg-p": 5395,
    "font-awesome-svg-pn": 5396,
    "font-awesome-svg-png</w>": 5397,
    "font</w>": 5398,
    "for": 5399,
    "for</w>": 5400,
    "for?</w>": 5401,
    "fork": 5402,
    "forked</w>": 5403,
    "forlo": 5404,
    "forloop": 5405,
    "forloop.": 5406,
    "forloop.fir": 5407,
    "forloop.first</w>": 5408,
    "form": 5409,
    "form</w>": 5410,
    "former": 5411,
    "forms,</w>": 5412,
    "foun": 5413,
    "foundation</w>": 5414,
    "fra": 5415,
    "fram": 5416,
    "frame": 5417,
    "frame.": 5418,
    "frame.</w>": 5419,
    "frame.cont": 5420,
    "frame.context": 5421,
    "frame.context_": 5422,
    "frame.context_line</w>": 5423,
    "frame.ex": 5424,
    "frame.exc": 5425,
    "frame.exc_": 5426,
    "frame.exc_ca": 5427,
    "frame.exc_caus": 5428,
    "frame.exc_cause</w>": 5429,
    "frame.exc_cause_": 5430,
    "frame.exc_cause_expl": 5431,
    "frame.exc_cause_explic": 5432,
    "frame.exc_cause_explicit</w>": 5433,
    "frame.f": 5434,
    "frame.fi": 5435,
    "frame.filen": 5436,
    "frame.filena": 5437,
    "frame.filename</w>": 5438,
    "frame.fun": 5439,
    "frame.func": 5440,
    "frame.function</w>": 5441,
    "frame.lin": 5442,
    "frame.linen": 5443,
    "frame.lineno</w>": 5444,
    "frame.t": 5445,
    "frame.tb": 5446,
    "frame.tb</w>": 5447,
    "frame.tb_": 5448,
    "frame.tb_are": 5449,
    "frame.tb_area": 5450,
    "frame.tb_area_": 5451,
    "frame.tb_area_co": 5452,
    "frame.tb_area_col": 5453,
    "frame.tb_area_colno</w>": 5454,
    "frame</w>": 5455,
    "frames</w>": 5456,
    "framework</w>": 5457,
    "free</w>": 5458,
    "fro": 5459,
    "from": 5460,
    "from:</w>": 5461,
    "from</w>": 5462,
    "from?</w>": 5463,
    "ft": 5464,
    "ftw": 5465,
    "ful": 5466,
    "full</w>": 5467,
    "funda": 5468,
    "fundament": 5469,
    "fundamental</w>": 5470,
    "furn": 5471,
    "furnish": 5472,
    "furnished</w>": 5473,
    "g": 5474,
    "gave</w>": 5475,
    "ge,</w>": 5476,
    "gener": 5477,
    "general</w>": 5478,
    "generated</w>": 5479,
    "get</w>": 5480,
    "gh": 5481,
    "gh</w>": 5482,
    "gin": 5483,
    "giv": 5484,
    "give</w>": 5485,
    "give?</w>": 5486,
    "global</w>": 5487,
    "go": 5488,
    "goal</w>": 5489,
    "goo": 5490,
    "good</w>": 5491,
    "gr": 5492,
    "gram": 5493,
    "gramm": 5494,
    "gramming:</w>": 5495,
    "gran": 5496,
    "granted": 5497,
    "granted,</w>": 5498,
    "gro": 5499,
    "grow": 5500,
    "growth</w>": 5501,
    "h": 5502,
    "ha": 5503,
    "ha</w>": 5504,
    "hand": 5505,
    "handl": 5506,
    "handle": 5507,
    "handler</w>": 5508,
    "handling.</w>": 5509,
    "handling</w>": 5510,
    "hap": 5511,
    "happy": 5512,
    "happy\".</w>": 5513,
    "happy\"</w>": 5514,
    "has": 5515,
    "has</w>": 5516,
    "hasn": 5517,
    "hasn't</w>": 5518,
    "hat</w>": 5519,
    "have</w>": 5520,
    "have?</w>": 5521,
    "haven": 5522,
    "haven't</w>": 5523,
    "he": 5524,
    "hea": 5525,
    "head.</w>": 5526,
    "her": 5527,
    "here</w>": 5528,
    "hereb": 5529,
    "hereby</w>": 5530,
    "hi": 5531,
    "hic": 5532,
    "high": 5533,
    "high</w>": 5534,
    "highlight": 5535,
    "highlights?</w>": 5536,
    "hn": 5537,
    "hn</w>": 5538,
    "hnic": 5539,
    "ho": 5540,
    "hon": 5541,
    "hour": 5542,
    "hours</w>": 5543,
    "ht": 5544,
    "htt": 5545,
    "http": 5546,
    "https": 5547,
    "https://": 5548,
    "https://g": 5549,
    "https://gi": 5550,
    "https://gith": 5551,
    "https://github": 5552,
    "https://github.com/": 5553,
    "https://github.com/UB": 5554,
    "https://github.com/UB-": 5555,
    "https://github.com/UB-M": 5556,
    "https://github.com/UB-Mann": 5557,
    "https://github.com/UB-Mannhe": 5558,
    "https://github.com/UB-Mannheim": 5559,
    "https://github.com/UB-Mannheim/": 5560,
    "https://github.com/UB-Mannheim/tesseract": 5561,
    "https://github.com/UB-Mannheim/tesseract/": 5562,
    "https://github.com/UB-Mannheim/tesseract/w": 5563,
    "https://github.com/UB-Mannheim/tesseract/wik": 5564,
    "https://github.com/UB-Mannheim/tesseract/wiki</w>": 5565,
    "https://github.com/en": 5566,
    "https://github.com/enchar": 5567,
    "https://github.com/encharm": 5568,
    "https://github.com/encharm/": 5569,
    "https://github.com/encharm/Font-Awesome-SVG-PNG</w>": 5570,
    "https://openj": 5571,
    "https://openjs": 5572,
    "https://openjsf": 5573,
    "https://openjsf,</w>": 5574,
    "https://openjsf.</w>": 5575,
    "https://openjsf.org": 5576,
    "https://openjsf.org/": 5577,
    "https://openjsf.org/**.</w>": 5578,
    "https://openjsf.org/.</w>": 5579,
    "https://openjsf.org/</w>": 5580,
    "https://py": 5581,
    "https://pytorch": 5582,
    "https://pytorch.org/": 5583,
    "https://pytorch.org/g": 5584,
    "https://pytorch.org/get-": 5585,
    "https://pytorch.org/get-st": 5586,
    "https://pytorch.org/get-star": 5587,
    "https://pytorch.org/get-started": 5588,
    "https://pytorch.org/get-started/": 5589,
    "https://pytorch.org/get-started/loc": 5590,
    "https://pytorch.org/get-started/locall": 5591,
    "https://pytorch.org/get-started/locally": 5592,
    "https://pytorch.org/get-started/locally/</w>": 5593,
    "https://sc": 5594,
    "https://scri": 5595,
    "https://script": 5596,
    "https://scripts.": 5597,
    "https://scripts.sil": 5598,
    "https://scripts.sil.org/": 5599,
    "https://scripts.sil.org/OF": 5600,
    "https://scripts.sil.org/OFL.</w>": 5601,
    "https://scripts.sil.org/OFL</w>": 5602,
    "i": 5603,
    "i18": 5604,
    "i18n</w>": 5605,
    "i2": 5606,
    "i20": 5607,
    "i20).</w>": 5608,
    "i20):</w>": 5609,
    "i20,</w>": 5610,
    "i20.</w>": 5611,
    "i20:</w>": 5612,
    "i20</w>": 5613,
    "i20?</w>": 5614,
    "iND": 5615,
    "iNDIRECT": 5616,
    "iNDIRECT,</w>": 5617,
    "ic": 5618,
    "ic</w>": 5619,
    "ication": 5620,
    "icens": 5621,
    "icons</w>": 5622,
    "id": 5623,
    "identi": 5624,
    "identifi": 5625,
    "identifies</w>": 5626,
    "ien": 5627,
    "ies</w>": 5628,
    "if</w>": 5629,
    "ifchanged</w>": 5630,
    "ific": 5631,
    "igh": 5632,
    "ik": 5633,
    "ik</w>": 5634,
    "il": 5635,
    "ile</w>": 5636,
    "ill": 5637,
    "ill</w>": 5638,
    "im": 5639,
    "imag": 5640,
    "image</w>": 5641,
    "images.</w>": 5642,
    "images</w>": 5643,
    "impor": 5644,
    "import": 5645,
    "important</w>": 5646,
    "imported</w>": 5647,
    "impro": 5648,
    "improved</w>": 5649,
    "improving</w>": 5650,
    "in": 5651,
    "in.</w>": 5652,
    "in</w>": 5653,
    "in?</w>": 5654,
    "inanc": 5655,
    "inanci": 5656,
    "inancial</w>": 5657,
    "inc": 5658,
    "incl</w>": 5659,
    "inclu": 5660,
    "included</w>": 5661,
    "includes</w>": 5662,
    "including</w>": 5663,
    "incre": 5664,
    "increase</w>": 5665,
    "increased</w>": 5666,
    "ine</w>": 5667,
    "inform": 5668,
    "information:</w>": 5669,
    "information</w>": 5670,
    "ing": 5671,
    "ing.</w>": 5672,
    "ing:</w>": 5673,
    "ing</w>": 5674,
    "ining</w>": 5675,
    "inp": 5676,
    "inpu": 5677,
    "input</w>": 5678,
    "inst": 5679,
    "install</w>": 5680,
    "instea": 5681,
    "instead</w>": 5682,
    "int": 5683,
    "int</w>": 5684,
    "inter": 5685,
    "interest": 5686,
    "interest.</w>": 5687,
    "interested</w>": 5688,
    "intern": 5689,
    "international</w>": 5690,
    "into</w>": 5691,
    "introduc": 5692,
    "introduces</w>": 5693,
    "inv": 5694,
    "inv-2024-": 5695,
    "inv-2024-001</w>": 5696,
    "invoic": 5697,
    "invoice:</w>": 5698,
    "invoice</w>": 5699,
    "invoice_": 5700,
    "invoice_INV": 5701,
    "invoice_INV2024": 5702,
    "invoice_INV2024001": 5703,
    "invoice_INV2024001.pdf**</w>": 5704,
    "invoice_INV2024001.pdf</w>": 5705,
    "ior</w>": 5706,
    "ip": 5707,
    "ip</w>": 5708,
    "is": 5709,
    "is:</w>": 5710,
    "is</w>": 5711,
    "is_": 5712,
    "is_em": 5713,
    "is_ema": 5714,
    "is_emai": 5715,
    "is_email</w>": 5716,
    "ish": 5717,
    "ist": 5718,
    "ist</w>": 5719,
    "it": 5720,
    "it,</w>": 5721,
    "it</w>": 5722,
    "item": 5723,
    "item</w>": 5724,
    "items": 5725,
    "items</w>": 5726,
    "items|d": 5727,
    "items|dic": 5728,
    "items|dict": 5729,
    "items|dicts": 5730,
    "items|dictsort": 5731,
    "items|dictsort:": 5732,
    "items|dictsort:0</w>": 5733,
    "ity</w>": 5734,
    "iv": 5735,
    "ize</w>": 5736,
    "j": 5737,
    "jang": 5738,
    "jango": 5739,
    "january</w>": 5740,
    "jec": 5741,
    "ject": 5742,
    "ject</w>": 5743,
    "jects</w>": 5744,
    "jo": 5745,
    "john": 5746,
    "john,</w>": 5747,
    "john.": 5748,
    "john.smith": 5749,
    "john.smith@": 5750,
    "john.smith@em": 5751,
    "john.smith@email": 5752,
    "john.smith@email.": 5753,
    "john.smith@email.com</w>": 5754,
    "john</w>": 5755,
    "john_": 5756,
    "john_smith": 5757,
    "john_smith_": 5758,
    "john_smith_resu": 5759,
    "john_smith_resume": 5760,
    "john_smith_resume.pdf**</w>": 5761,
    "john_smith_resume.pdf</w>": 5762,
    "jun": 5763,
    "junior</w>": 5764,
    "k": 5765,
    "k,</w>": 5766,
    "k.</w>": 5767,
    "k:</w>": 5768,
    "karth": 5769,
    "karthik": 5770,
    "karthik's</w>": 5771,
    "karthik</w>": 5772,
    "karthik?</w>": 5773,
    "key</w>": 5774,
    "ki": 5775,
    "l": 5776,
    "la": 5777,
    "last": 5778,
    "last)": 5779,
    "last):": 5780,
    "last):):</w>": 5781,
    "last):,</w>": 5782,
    "last):</w>": 5783,
    "lat": 5784,
    "late</w>": 5785,
    "latency</w>": 5786,
    "laun": 5787,
    "launch": 5788,
    "launches</w>": 5789,
    "ld</w>": 5790,
    "le": 5791,
    "le:</w>": 5792,
    "le</w>": 5793,
    "lear": 5794,
    "learn": 5795,
    "learning.</w>": 5796,
    "learning</w>": 5797,
    "leave</w>": 5798,
    "led</w>": 5799,
    "leg": 5800,
    "legac": 5801,
    "legacy</w>": 5802,
    "legal</w>": 5803,
    "len": 5804,
    "less</w>": 5805,
    "licens": 5806,
    "license": 5807,
    "license.txt**</w>": 5808,
    "license.txt</w>": 5809,
    "license</w>": 5810,
    "licensed</w>": 5811,
    "ligh": 5812,
    "light": 5813,
    "lightweigh": 5814,
    "lightweight</w>": 5815,
    "lim": 5816,
    "limit": 5817,
    "limitation</w>": 5818,
    "lin": 5819,
    "line</w>": 5820,
    "linear": 5821,
    "linear.</w>": 5822,
    "link": 5823,
    "linked": 5824,
    "linkedin": 5825,
    "linkedin.com/": 5826,
    "linkedin.com/in": 5827,
    "linkedin.com/in/": 5828,
    "linkedin.com/in/john": 5829,
    "linkedin.com/in/johnsmith</w>": 5830,
    "lish": 5831,
    "list</w>": 5832,
    "ll</w>": 5833,
    "lo": 5834,
    "loa": 5835,
    "load</w>": 5836,
    "loader</w>": 5837,
    "loading</w>": 5838,
    "lob": 5839,
    "lobal</w>": 5840,
    "loc": 5841,
    "local</w>": 5842,
    "located</w>": 5843,
    "loo": 5844,
    "look": 5845,
    "looking</w>": 5846,
    "los": 5847,
    "low": 5848,
    "low</w>": 5849,
    "lt": 5850,
    "ltd,</w>": 5851,
    "lu": 5852,
    "lution": 5853,
    "ly.</w>": 5854,
    "ly</w>": 5855,
    "m": 5856,
    "ma": 5857,
    "mac": 5858,
    "macO": 5859,
    "macOS</w>": 5860,
    "mach": 5861,
    "machine</w>": 5862,
    "macro": 5863,
    "macroec": 5864,
    "macroecon": 5865,
    "macroeconom": 5866,
    "macroeconomic</w>": 5867,
    "main</w>": 5868,
    "maint": 5869,
    "maintain": 5870,
    "maintaining</w>": 5871,
    "mar": 5872,
    "marg": 5873,
    "margin</w>": 5874,
    "mark": 5875,
    "market": 5876,
    "market</w>": 5877,
    "markets</w>": 5878,
    "mary</w>": 5879,
    "me": 5880,
    "me</w>": 5881,
    "mec": 5882,
    "mech": 5883,
    "mechan": 5884,
    "mechanis": 5885,
    "mechanism</w>": 5886,
    "meer": 5887,
    "meera's</w>": 5888,
    "meera</w>": 5889,
    "meera?</w>": 5890,
    "men": 5891,
    "ment": 5892,
    "ment,</w>": 5893,
    "ment.</w>": 5894,
    "ment:</w>": 5895,
    "ment</w>": 5896,
    "ment?</w>": 5897,
    "mention": 5898,
    "mentioned": 5899,
    "mentioned:</w>": 5900,
    "mentioned</w>": 5901,
    "mer": 5902,
    "merge,</w>": 5903,
    "mess": 5904,
    "message</w>": 5905,
    "met": 5906,
    "met:</w>": 5907,
    "metho": 5908,
    "method": 5909,
    "method:</w>": 5910,
    "method</w>": 5911,
    "methods,</w>": 5912,
    "methods</w>": 5913,
    "mi": 5914,
    "mic": 5915,
    "micro": 5916,
    "microservices</w>": 5917,
    "mill": 5918,
    "milli": 5919,
    "million,</w>": 5920,
    "min": 5921,
    "minut": 5922,
    "minutes</w>": 5923,
    "mis": 5924,
    "mission</w>": 5925,
    "mit": 5926,
    "mit</w>": 5927,
    "mith": 5928,
    "mith</w>": 5929,
    "mitted</w>": 5930,
    "mo": 5931,
    "mod": 5932,
    "mode": 5933,
    "model</w>": 5934,
    "modi": 5935,
    "modif": 5936,
    "modification": 5937,
    "modification,</w>": 5938,
    "modify,</w>": 5939,
    "modul": 5940,
    "module": 5941,
    "module,</w>": 5942,
    "module</w>": 5943,
    "mon": 5944,
    "month": 5945,
    "monthly</w>": 5946,
    "more": 5947,
    "more)</w>": 5948,
    "more.</w>": 5949,
    "most</w>": 5950,
    "mus": 5951,
    "must</w>": 5952,
    "n": 5953,
    "na": 5954,
    "name</w>": 5955,
    "ne": 5956,
    "neg": 5957,
    "negati": 5958,
    "negative</w>": 5959,
    "net": 5960,
    "network": 5961,
    "network</w>": 5962,
    "networks</w>": 5963,
    "neur": 5964,
    "neural</w>": 5965,
    "neural_": 5966,
    "neural_network": 5967,
    "neural_network_": 5968,
    "neural_network_paper": 5969,
    "neural_network_paper.pdf**</w>": 5970,
    "neural_network_paper.pdf</w>": 5971,
    "neut": 5972,
    "neutra": 5973,
    "neutral</w>": 5974,
    "new</w>": 5975,
    "no": 5976,
    "no</w>": 5977,
    "non": 5978,
    "nonin": 5979,
    "noninf": 5980,
    "noninfr": 5981,
    "noninfring": 5982,
    "noninfringe": 5983,
    "noninfringement.</w>": 5984,
    "not</w>": 5985,
    "nothing</w>": 5986,
    "noti": 5987,
    "notice,</w>": 5988,
    "notice</w>": 5989,
    "nov": 5990,
    "nove": 5991,
    "novel</w>": 5992,
    "num": 5993,
    "numb": 5994,
    "number:</w>": 5995,
    "number</w>": 5996,
    "number?</w>": 5997,
    "numpy": 5998,
    "numpy>=1": 5999,
    "numpy>=1.2": 6000,
    "numpy>=1.24</w>": 6001,
    "o": 6002,
    "ob": 6003,
    "objec": 6004,
    "objective?</w>": 6005,
    "obta": 6006,
    "obtaining</w>": 6007,
    "oc": 6008,
    "occur": 6009,
    "occurre": 6010,
    "occurred": 6011,
    "occurred:{%</w>": 6012,
    "ocu": 6013,
    "of": 6014,
    "of</w>": 6015,
    "off</w>": 6016,
    "ofl</w>": 6017,
    "old</w>": 6018,
    "om": 6019,
    "on": 6020,
    "on,</w>": 6021,
    "on.</w>": 6022,
    "on:</w>": 6023,
    "on</w>": 6024,
    "ond": 6025,
    "ong": 6026,
    "ons</w>": 6027,
    "ont": 6028,
    "ont-": 6029,
    "ont-Awesom": 6030,
    "ont-Awesome-": 6031,
    "ont-Awesome-SV": 6032,
    "ont-Awesome-SVG": 6033,
    "ont-Awesome-SVG-P": 6034,
    "ont-Awesome-SVG-PN": 6035,
    "ont-Awesome-SVG-PNG</w>": 6036,
    "ont</w>": 6037,
    "oo": 6038,
    "op": 6039,
    "open": 6040,
    "open.</w>": 6041,
    "open?</w>": 6042,
    "openj": 6043,
    "openjs</w>": 6044,
    "openpy": 6045,
    "openpyxl": 6046,
    "openpyxl>=": 6047,
    "openpyxl>=3": 6048,
    "openpyxl>=3.1</w>": 6049,
    "opti": 6050,
    "optimi": 6051,
    "optimis": 6052,
    "optimisation</w>": 6053,
    "optimiz": 6054,
    "optimizer</w>": 6055,
    "or": 6056,
    "or</w>": 6057,
    "orch": 6058,
    "ord": 6059,
    "order:</w>": 6060,
    "ore": 6061,
    "ore,</w>": 6062,
    "ore</w>": 6063,
    "ore?</w>": 6064,
    "ori": 6065,
    "origin": 6066,
    "originall": 6067,
    "originally</w>": 6068,
    "ort": 6069,
    "oth": 6070,
    "other</w>": 6071,
    "other?</w>": 6072,
    "ou": 6073,
    "oud</w>": 6074,
    "oun": 6075,
    "our</w>": 6076,
    "out": 6077,
    "out</w>": 6078,
    "out?</w>": 6079,
    "outperform": 6080,
    "outperforming</w>": 6081,
    "over": 6082,
    "over</w>": 6083,
    "overview</w>": 6084,
    "p": 6085,
    "pa": 6086,
    "pac": 6087,
    "pack": 6088,
    "packag": 6089,
    "package.</w>": 6090,
    "page</w>": 6091,
    "pand": 6092,
    "pandas": 6093,
    "pandas</w>": 6094,
    "pandas>=2": 6095,
    "pandas>=2.0</w>": 6096,
    "pandas>=2.</w>": 6097,
    "paper": 6098,
    "paper</w>": 6099,
    "paper?</w>": 6100,
    "par": 6101,
    "passwor": 6102,
    "password": 6103,
    "password_": 6104,
    "password_res": 6105,
    "password_reset": 6106,
    "password_reset_": 6107,
    "password_reset_sub": 6108,
    "password_reset_subject": 6109,
    "password_reset_subject.txt**</w>": 6110,
    "password_reset_subject.txt</w>": 6111,
    "pat": 6112,
    "patrick</w>": 6113,
    "patt": 6114,
    "pattern</w>": 6115,
    "pay": 6116,
    "pay?</w>": 6117,
    "payment</w>": 6118,
    "payment?</w>": 6119,
    "pd": 6120,
    "per": 6121,
    "per</w>": 6122,
    "perform": 6123,
    "performan": 6124,
    "performanc": 6125,
    "performance,</w>": 6126,
    "performance</w>": 6127,
    "perien": 6128,
    "permission</w>": 6129,
    "permit</w>": 6130,
    "permitted</w>": 6131,
    "pers": 6132,
    "person": 6133,
    "person's</w>": 6134,
    "person</w>": 6135,
    "persons</w>": 6136,
    "phon": 6137,
    "phone</w>": 6138,
    "pi": 6139,
    "pip": 6140,
    "pip</w>": 6141,
    "pipeline</w>": 6142,
    "pix": 6143,
    "pixel": 6144,
    "pixel-": 6145,
    "pixel-he": 6146,
    "pixel-heur": 6147,
    "pixel-heurist": 6148,
    "pixel-heuristic</w>": 6149,
    "pl": 6150,
    "plain</w>": 6151,
    "plan</w>": 6152,
    "plann": 6153,
    "planned</w>": 6154,
    "ple": 6155,
    "pleas": 6156,
    "please.</w>": 6157,
    "please</w>": 6158,
    "po": 6159,
    "point": 6160,
    "point</w>": 6161,
    "points.</w>": 6162,
    "points:**</w>": 6163,
    "points:</w>": 6164,
    "points</w>": 6165,
    "points?</w>": 6166,
    "pon": 6167,
    "por": 6168,
    "portions</w>": 6169,
    "pos": 6170,
    "posi": 6171,
    "positive</w>": 6172,
    "positive?</w>": 6173,
    "post": 6174,
    "postm": 6175,
    "postmor": 6176,
    "postmortem</w>": 6177,
    "ppl": 6178,
    "ppoint": 6179,
    "pr": 6180,
    "pre": 6181,
    "pref": 6182,
    "prefer": 6183,
    "preferen": 6184,
    "preference": 6185,
    "preference:</w>": 6186,
    "preference?</w>": 6187,
    "prefers</w>": 6188,
    "pres": 6189,
    "present": 6190,
    "presented</w>": 6191,
    "presents</w>": 6192,
    "press": 6193,
    "pressure</w>": 6194,
    "pretrained</w>": 6195,
    "previ": 6196,
    "previou": 6197,
    "previous</w>": 6198,
    "prior</w>": 6199,
    "pro": 6200,
    "proble": 6201,
    "problem": 6202,
    "problem</w>": 6203,
    "problems.</w>": 6204,
    "process": 6205,
    "processing</w>": 6206,
    "product</w>": 6207,
    "prof": 6208,
    "professional</w>": 6209,
    "profi": 6210,
    "profit</w>": 6211,
    "programming:</w>": 6212,
    "project": 6213,
    "project.</w>": 6214,
    "projects</w>": 6215,
    "propos": 6216,
    "propose</w>": 6217,
    "proposes</w>": 6218,
    "provi": 6219,
    "provid": 6220,
    "provide</w>": 6221,
    "provided": 6222,
    "provided:**</w>": 6223,
    "provided</w>": 6224,
    "provides</w>": 6225,
    "pt": 6226,
    "ptions</w>": 6227,
    "pub": 6228,
    "publish": 6229,
    "publish,</w>": 6230,
    "purpos": 6231,
    "purpose</w>": 6232,
    "pvt</w>": 6233,
    "py": 6234,
    "pyp": 6235,
    "pypd": 6236,
    "pypdf": 6237,
    "pypdf>=4": 6238,
    "pypdf>=4.0</w>": 6239,
    "pypdf>=4.</w>": 6240,
    "pytesser": 6241,
    "pytesseract": 6242,
    "pytesseract</w>": 6243,
    "pytesseract>=": 6244,
    "pytesseract>=0": 6245,
    "pytesseract>=0.3": 6246,
    "pytesseract>=0.3.": 6247,
    "pytesseract>=0.3.10</w>": 6248,
    "pytesseract>=0.</w>": 6249,
    "pyth": 6250,
    "python": 6251,
    "python-": 6252,
    "python-docx": 6253,
    "python-docx>=1": 6254,
    "python-docx>=1.1</w>": 6255,
    "q": 6256,
    "qu": 6257,
    "quad": 6258,
    "quadr": 6259,
    "quadrati": 6260,
    "quadratic</w>": 6261,
    "qual": 6262,
    "qualific": 6263,
    "qualification": 6264,
    "qualifications?</w>": 6265,
    "qui": 6266,
    "quir": 6267,
    "quired</w>": 6268,
    "quiry</w>": 6269,
    "r": 6270,
    "ra": 6271,
    "rag": 6272,
    "rag_": 6273,
    "rag_u": 6274,
    "rag_uti": 6275,
    "rag_util": 6276,
    "rag_utils)</w>": 6277,
    "rais": 6278,
    "raising": 6279,
    "raising_": 6280,
    "raising_view": 6281,
    "raising_view_name</w>": 6282,
    "ram": 6283,
    "rat": 6284,
    "rate</w>": 6285,
    "rated</w>": 6286,
    "rating": 6287,
    "rating</w>": 6288,
    "rating?</w>": 6289,
    "ratings</w>": 6290,
    "ravi": 6291,
    "ravi's</w>": 6292,
    "ravi</w>": 6293,
    "ravi?</w>": 6294,
    "re": 6295,
    "re,</w>": 6296,
    "reach": 6297,
    "reach</w>": 6298,
    "reached</w>": 6299,
    "ream": 6300,
    "rec": 6301,
    "rece": 6302,
    "receiv": 6303,
    "received</w>": 6304,
    "recent</w>": 6305,
    "recom": 6306,
    "recommen": 6307,
    "recommendation</w>": 6308,
    "recor": 6309,
    "records</w>": 6310,
    "red</w>": 6311,
    "reduc": 6312,
    "reduced</w>": 6313,
    "reduces</w>": 6314,
    "ree</w>": 6315,
    "reg": 6316,
    "regar": 6317,
    "regarding</w>": 6318,
    "regi": 6319,
    "region</w>": 6320,
    "rel": 6321,
    "relate</w>": 6322,
    "relation": 6323,
    "relationsh": 6324,
    "relationship": 6325,
    "relationships</w>": 6326,
    "rem": 6327,
    "remain": 6328,
    "remains</w>": 6329,
    "repor": 6330,
    "report</w>": 6331,
    "represent": 6332,
    "representing</w>": 6333,
    "repro": 6334,
    "reprod": 6335,
    "reprodu": 6336,
    "reproduce</w>": 6337,
    "requ": 6338,
    "request": 6339,
    "request,</w>": 6340,
    "request.": 6341,
    "request.META": 6342,
    "request.META.": 6343,
    "request.META.RE": 6344,
    "request.META.REQU": 6345,
    "request.META.REQUES": 6346,
    "request.META.REQUEST_": 6347,
    "request.META.REQUEST_ME": 6348,
    "request.META.REQUEST_METHO": 6349,
    "request.META.REQUEST_METHOD</w>": 6350,
    "request.pa": 6351,
    "request.path": 6352,
    "request.path_info</w>": 6353,
    "request</w>": 6354,
    "request_": 6355,
    "request_COOKIES": 6356,
    "request_COOKIES_": 6357,
    "request_COOKIES_items</w>": 6358,
    "request_FILE": 6359,
    "request_FILES_": 6360,
    "request_FILES_items</w>": 6361,
    "request_GE": 6362,
    "request_GET_items</w>": 6363,
    "request_in": 6364,
    "request_insec": 6365,
    "request_insecu": 6366,
    "request_insecure": 6367,
    "request_insecure_": 6368,
    "request_insecure_ur": 6369,
    "request_insecure_uri</w>": 6370,
    "request_met": 6371,
    "request_meta": 6372,
    "request_meta.": 6373,
    "request_meta.items|dictsort:0</w>": 6374,
    "requests/": 6375,
    "requests/sec": 6376,
    "requests/secon": 6377,
    "requests/second</w>": 6378,
    "requi": 6379,
    "requir": 6380,
    "require": 6381,
    "require</w>": 6382,
    "required</w>": 6383,
    "requirement": 6384,
    "requirements": 6385,
    "requirements.txt**</w>": 6386,
    "requirements.txt</w>": 6387,
    "requiring</w>": 6388,
    "res": 6389,
    "resched": 6390,
    "reschedule": 6391,
    "reschedule.</w>": 6392,
    "resear": 6393,
    "research": 6394,
    "research_": 6395,
    "research_paper</w>": 6396,
    "reser": 6397,
    "reserv": 6398,
    "reserved.</w>": 6399,
    "reset</w>": 6400,
    "resour": 6401,
    "resourc": 6402,
    "resources.</w>": 6403,
    "resp": 6404,
    "respec": 6405,
    "respecti": 6406,
    "respectiv": 6407,
    "respectivel": 6408,
    "respectively.</w>": 6409,
    "respon": 6410,
    "respons": 6411,
    "responses.</w>": 6412,
    "restr": 6413,
    "restric": 6414,
    "restriction,</w>": 6415,
    "resu": 6416,
    "resul": 6417,
    "result": 6418,
    "resulting</w>": 6419,
    "results.</w>": 6420,
    "results</w>": 6421,
    "resume</w>": 6422,
    "ret": 6423,
    "reta": 6424,
    "retain</w>": 6425,
    "retri": 6426,
    "retriev": 6427,
    "retrieval</w>": 6428,
    "returning</w>": 6429,
    "reven": 6430,
    "revenue.</w>": 6431,
    "revenue:</w>": 6432,
    "revenue</w>": 6433,
    "review": 6434,
    "review</w>": 6435,
    "review?</w>": 6436,
    "ri": 6437,
    "rib": 6438,
    "ribu": 6439,
    "ribut": 6440,
    "ributor": 6441,
    "ric": 6442,
    "rick</w>": 6443,
    "ride:</w>": 6444,
    "ride</w>": 6445,
    "ride?</w>": 6446,
    "ried</w>": 6447,
    "righ": 6448,
    "rights</w>": 6449,
    "rior</w>": 6450,
    "ro": 6451,
    "roduc": 6452,
    "rom": 6453,
    "s": 6454,
    "s):</w>": 6455,
    "s)</w>": 6456,
    "s**:</w>": 6457,
    "s,</w>": 6458,
    "s.": 6459,
    "s.</w>": 6460,
    "s/": 6461,
    "s:**</w>": 6462,
    "s:</w>": 6463,
    "s?</w>": 6464,
    "sati": 6465,
    "satis": 6466,
    "satisfi": 6467,
    "satisfied": 6468,
    "satisfied\".</w>": 6469,
    "satisfied\"</w>": 6470,
    "satisfied).</w>": 6471,
    "satisfied</w>": 6472,
    "say": 6473,
    "say</w>": 6474,
    "say?</w>": 6475,
    "sc": 6476,
    "scal": 6477,
    "scalable</w>": 6478,
    "schedul": 6479,
    "scheduled</w>": 6480,
    "scik": 6481,
    "scikit": 6482,
    "scikit-": 6483,
    "scikit-lear": 6484,
    "scikit-learn": 6485,
    "scikit-learn.</w>": 6486,
    "scikit-learn</w>": 6487,
    "scikit-learn>=1": 6488,
    "scikit-learn>=1.3</w>": 6489,
    "scrat": 6490,
    "scratch": 6491,
    "scratch-": 6492,
    "scratch-trained</w>": 6493,
    "scratch</w>": 6494,
    "se": 6495,
    "se</w>": 6496,
    "sec": 6497,
    "section": 6498,
    "section.</w>": 6499,
    "section:**</w>": 6500,
    "section</w>": 6501,
    "section?</w>": 6502,
    "sections,</w>": 6503,
    "sections</w>": 6504,
    "see": 6505,
    "seeing</w>": 6506,
    "seg": 6507,
    "segment.</w>": 6508,
    "sell</w>": 6509,
    "sen": 6510,
    "senior</w>": 6511,
    "separ": 6512,
    "separatel": 6513,
    "separately:</w>": 6514,
    "ser": 6515,
    "servic": 6516,
    "service": 6517,
    "service\".</w>": 6518,
    "service\"</w>": 6519,
    "service,</w>": 6520,
    "service</w>": 6521,
    "services</w>": 6522,
    "serving</w>": 6523,
    "set": 6524,
    "sett": 6525,
    "setti": 6526,
    "settin.</w>": 6527,
    "settin</w>": 6528,
    "setting": 6529,
    "settings.": 6530,
    "settings.INSTALLED_APP": 6531,
    "settings.INSTALLED_APPS": 6532,
    "settings.INSTALLED_APPS|pprint</w>": 6533,
    "settings.M": 6534,
    "settings.MID": 6535,
    "settings.MIDD": 6536,
    "settings.MIDDLE": 6537,
    "settings.MIDDLEWARE": 6538,
    "settings.MIDDLEWARE|pprint</w>": 6539,
    "settings.SE": 6540,
    "settings.SET": 6541,
    "settings.SETT": 6542,
    "settings.SETTING": 6543,
    "settings.SETTINGS_": 6544,
    "settings.SETTINGS_M": 6545,
    "settings.SETTINGS_MO": 6546,
    "settings.SETTINGS_MOD": 6547,
    "settings.SETTINGS_MODU": 6548,
    "settings.SETTINGS_MODULE</w>": 6549,
    "settings.items|dictsort:0</w>": 6550,
    "settings</w>": 6551,
    "sh": 6552,
    "sha": 6553,
    "shall</w>": 6554,
    "sho": 6555,
    "short": 6556,
    "short,</w>": 6557,
    "shortf": 6558,
    "shortfall.</w>": 6559,
    "show": 6560,
    "show</w>": 6561,
    "showed</w>": 6562,
    "si": 6563,
    "sig": 6564,
    "sign": 6565,
    "signific": 6566,
    "significan": 6567,
    "significant": 6568,
    "significant</w>": 6569,
    "significantly</w>": 6570,
    "sil": 6571,
    "sil</w>": 6572,
    "silently</w>": 6573,
    "sion": 6574,
    "sion.</w>": 6575,
    "sion:</w>": 6576,
    "sion</w>": 6577,
    "sit": 6578,
    "site_": 6579,
    "site_name</w>": 6580,
    "size</w>": 6581,
    "smith": 6582,
    "smith</w>": 6583,
    "sne": 6584,
    "sneha": 6585,
    "sneha's</w>": 6586,
    "sneha</w>": 6587,
    "sneha?</w>": 6588,
    "so": 6589,
    "so,</w>": 6590,
    "softw": 6591,
    "software</w>": 6592,
    "sol": 6593,
    "solution": 6594,
    "solutions.</w>": 6595,
    "solving</w>": 6596,
    "sour": 6597,
    "source": 6598,
    "source:</w>": 6599,
    "source</w>": 6600,
    "source_": 6601,
    "source_lin": 6602,
    "source_line": 6603,
    "source_line.0</w>": 6604,
    "source_line.1</w>": 6605,
    "source_line</w>": 6606,
    "sp": 6607,
    "spac": 6608,
    "spacel": 6609,
    "spaceless</w>": 6610,
    "spar": 6611,
    "sparse</w>": 6612,
    "st": 6613,
    "st</w>": 6614,
    "stable</w>": 6615,
    "stand": 6616,
    "standard</w>": 6617,
    "stat": 6618,
    "stat</w>": 6619,
    "state": 6620,
    "state-": 6621,
    "state-of": 6622,
    "state-of-": 6623,
    "state-of-th": 6624,
    "state-of-the-": 6625,
    "state-of-the-art</w>": 6626,
    "state</w>": 6627,
    "states:</w>": 6628,
    "statu": 6629,
    "status:</w>": 6630,
    "status</w>": 6631,
    "still</w>": 6632,
    "str": 6633,
    "stribut": 6634,
    "stron": 6635,
    "strong": 6636,
    "strong</w>": 6637,
    "strongest</w>": 6638,
    "structu": 6639,
    "structured</w>": 6640,
    "su": 6641,
    "sub": 6642,
    "sub</w>": 6643,
    "subj": 6644,
    "subj.</w>": 6645,
    "subj</w>": 6646,
    "subject</w>": 6647,
    "sublicens": 6648,
    "sublicense,</w>": 6649,
    "submitted</w>": 6650,
    "subst": 6651,
    "substan": 6652,
    "substanti": 6653,
    "substantial</w>": 6654,
    "suc": 6655,
    "success": 6656,
    "successful": 6657,
    "successfully.</w>": 6658,
    "sudo</w>": 6659,
    "sum": 6660,
    "summar": 6661,
    "summari": 6662,
    "summaries": 6663,
    "summaries:**</w>": 6664,
    "summariz": 6665,
    "summarize.</w>": 6666,
    "summarize</w>": 6667,
    "summary": 6668,
    "summary.</w>": 6669,
    "summary</w>": 6670,
    "summary?</w>": 6671,
    "sup": 6672,
    "suppl": 6673,
    "suppli": 6674,
    "supplied'</w>": 6675,
    "supplied</w>": 6676,
    "suppor": 6677,
    "support</w>": 6678,
    "sur": 6679,
    "surp": 6680,
    "surpas": 6681,
    "surpass</w>": 6682,
    "sy": 6683,
    "sys": 6684,
    "sys_": 6685,
    "sys_ex": 6686,
    "sys_exec": 6687,
    "sys_execut": 6688,
    "sys_executable</w>": 6689,
    "sys_pat": 6690,
    "sys_path</w>": 6691,
    "sys_version_info</w>": 6692,
    "syst": 6693,
    "syste</w>": 6694,
    "system</w>": 6695,
    "systems</w>": 6696,
    "t": 6697,
    "t**</w>": 6698,
    "t_": 6699,
    "ta": 6700,
    "tak": 6701,
    "takea": 6702,
    "takeaw": 6703,
    "takeaway": 6704,
    "takeaways.</w>": 6705,
    "taken</w>": 6706,
    "tal</w>": 6707,
    "tea": 6708,
    "team</w>": 6709,
    "tec": 6710,
    "tech</w>": 6711,
    "technic": 6712,
    "technical</w>": 6713,
    "technical_": 6714,
    "technical_500": 6715,
    "technical_500.txt**</w>": 6716,
    "technical_500.txt</w>": 6717,
    "ted": 6718,
    "ted.</w>": 6719,
    "ted</w>": 6720,
    "tem</w>": 6721,
    "templ": 6722,
    "templat": 6723,
    "template": 6724,
    "template</w>": 6725,
    "template_": 6726,
    "template_do": 6727,
    "template_does": 6728,
    "template_does_": 6729,
    "template_does_no": 6730,
    "template_does_not_": 6731,
    "template_does_not_e</w>": 6732,
    "template_does_not_ex": 6733,
    "template_does_not_exist</w>": 6734,
    "template_in": 6735,
    "template_info": 6736,
    "template_info.": 6737,
    "template_info.after</w>": 6738,
    "template_info.be": 6739,
    "template_info.befor": 6740,
    "template_info.before</w>": 6741,
    "template_info.d": 6742,
    "template_info.during</w>": 6743,
    "template_info.line</w>": 6744,
    "template_info.message</w>": 6745,
    "template_info.name</w>": 6746,
    "template_info.source_lin": 6747,
    "template_info.source_lines</w>": 6748,
    "template_info</w>": 6749,
    "templates,</w>": 6750,
    "templates.</w>": 6751,
    "ten": 6752,
    "tesser": 6753,
    "tesseract": 6754,
    "tesseract-": 6755,
    "tesseract-oc": 6756,
    "tesseract-ocr</w>": 6757,
    "tesseract</w>": 6758,
    "test</w>": 6759,
    "text": 6760,
    "text.txt**</w>": 6761,
    "text.txt</w>": 6762,
    "text</w>": 6763,
    "th": 6764,
    "th</w>": 6765,
    "that</w>": 6766,
    "the</w>": 6767,
    "thei": 6768,
    "their</w>": 6769,
    "these</w>": 6770,
    "thing</w>": 6771,
    "this": 6772,
    "this</w>": 6773,
    "this?</w>": 6774,
    "tho": 6775,
    "thout</w>": 6776,
    "three</w>": 6777,
    "thro": 6778,
    "throu": 6779,
    "through</w>": 6780,
    "ti": 6781,
    "tim": 6782,
    "time:</w>": 6783,
    "time</w>": 6784,
    "tion": 6785,
    "tion,</w>": 6786,
    "tion:</w>": 6787,
    "tion</w>": 6788,
    "tions</w>": 6789,
    "tive</w>": 6790,
    "tive?</w>": 6791,
    "to": 6792,
    "to:</w>": 6793,
    "to</w>": 6794,
    "top": 6795,
    "top-": 6796,
    "top-1</w>": 6797,
    "topic": 6798,
    "topic:**</w>": 6799,
    "topic</w>": 6800,
    "torch": 6801,
    "torch>=2": 6802,
    "torch>=2.1</w>": 6803,
    "tot": 6804,
    "total": 6805,
    "total):</w>": 6806,
    "total</w>": 6807,
    "tr": 6808,
    "tra": 6809,
    "train": 6810,
    "trained</w>": 6811,
    "training</w>": 6812,
    "trans": 6813,
    "transaction</w>": 6814,
    "transform": 6815,
    "transformer": 6816,
    "transformer.</w>": 6817,
    "transformers,</w>": 6818,
    "tried</w>": 6819,
    "try</w>": 6820,
    "ts</w>": 6821,
    "tu": 6822,
    "typ": 6823,
    "type:**</w>": 6824,
    "type</w>": 6825,
    "type?</w>": 6826,
    "u": 6827,
    "uary</w>": 6828,
    "ub": 6829,
    "uc": 6830,
    "uctu": 6831,
    "ue.</w>": 6832,
    "ue:</w>": 6833,
    "ue</w>": 6834,
    "ul": 6835,
    "ule": 6836,
    "ult": 6837,
    "um": 6838,
    "umb": 6839,
    "un": 6840,
    "un</w>": 6841,
    "unda": 6842,
    "under": 6843,
    "under</w>": 6844,
    "understand": 6845,
    "understanding</w>": 6846,
    "up</w>": 6847,
    "upd": 6848,
    "update</w>": 6849,
    "ur": 6850,
    "ure</w>": 6851,
    "uring</w>": 6852,
    "urn": 6853,
    "urning</w>": 6854,
    "urpos": 6855,
    "urr": 6856,
    "us": 6857,
    "use,</w>": 6858,
    "use</w>": 6859,
    "user": 6860,
    "user0@example.com.</w>": 6861,
    "user0@example.com</w>": 6862,
    "user1": 6863,
    "user10": 6864,
    "user10@example.com.</w>": 6865,
    "user10@example.com</w>": 6866,
    "user11": 6867,
    "user11@example.com.</w>": 6868,
    "user11@example.com</w>": 6869,
    "user12": 6870,
    "user12@example.com.</w>": 6871,
    "user12@example.com</w>": 6872,
    "user13": 6873,
    "user13@example.com.</w>": 6874,
    "user13@example.com</w>": 6875,
    "user14": 6876,
    "user14@example.com.</w>": 6877,
    "user14@example.com</w>": 6878,
    "user15": 6879,
    "user15@example.com.</w>": 6880,
    "user15@example.com</w>": 6881,
    "user16": 6882,
    "user16@example.com.</w>": 6883,
    "user16@example.com</w>": 6884,
    "user17": 6885,
    "user17@example.com.</w>": 6886,
    "user17@example.com</w>": 6887,
    "user18": 6888,
    "user18@example.com.</w>": 6889,
    "user18@example.com</w>": 6890,
    "user19": 6891,
    "user19@example.com.</w>": 6892,
    "user19@example.com</w>": 6893,
    "user1@example.com.</w>": 6894,
    "user1@example.com</w>": 6895,
    "user2": 6896,
    "user20": 6897,
    "user20@example.com.</w>": 6898,
    "user20@example.com</w>": 6899,
    "user21@example.com.</w>": 6900,
    "user21@example.com</w>": 6901,
    "user22@example.com.</w>": 6902,
    "user22@example.com</w>": 6903,
    "user23@example.com.</w>": 6904,
    "user23@example.com</w>": 6905,
    "user24@example.com.</w>": 6906,
    "user24@example.com</w>": 6907,
    "user25@example.com.</w>": 6908,
    "user25@example.com</w>": 6909,
    "user26@example.com.</w>": 6910,
    "user26@example.com</w>": 6911,
    "user27": 6912,
    "user27@example.com.</w>": 6913,
    "user27@example.com</w>": 6914,
    "user28@example.com.</w>": 6915,
    "user28@example.com</w>": 6916,
    "user29@example.com.</w>": 6917,
    "user29@example.com</w>": 6918,
    "user2@example.com.</w>": 6919,
    "user2@example.com</w>": 6920,
    "user3": 6921,
    "user30": 6922,
    "user30@example.com.</w>": 6923,
    "user30@example.com</w>": 6924,
    "user31": 6925,
    "user31@example.com.</w>": 6926,
    "user31@example.com</w>": 6927,
    "user32": 6928,
    "user32@example.com.</w>": 6929,
    "user32@example.com</w>": 6930,
    "user33@example.com.</w>": 6931,
    "user33@example.com</w>": 6932,
    "user34": 6933,
    "user34@example.com.</w>": 6934,
    "user34@example.com</w>": 6935,
    "user35": 6936,
    "user35@example.com.</w>": 6937,
    "user35@example.com</w>": 6938,
    "user36@example.com.</w>": 6939,
    "user36@example.com</w>": 6940,
    "user37@example.com.</w>": 6941,
    "user37@example.com</w>": 6942,
    "user38@example.com.</w>": 6943,
    "user38@example.com</w>": 6944,
    "user39@example.com.</w>": 6945,
    "user39@example.com</w>": 6946,
    "user3@example.com.</w>": 6947,
    "user3@example.com</w>": 6948,
    "user4": 6949,
    "user40": 6950,
    "user40@example.com.</w>": 6951,
    "user40@example.com</w>": 6952,
    "user41@example.com.</w>": 6953,
    "user41@example.com</w>": 6954,
    "user42@example.com.</w>": 6955,
    "user42@example.com</w>": 6956,
    "user43@example.com.</w>": 6957,
    "user43@example.com</w>": 6958,
    "user44@example.com.</w>": 6959,
    "user44@example.com</w>": 6960,
    "user45": 6961,
    "user45@example.com.</w>": 6962,
    "user45@example.com</w>": 6963,
    "user46@example.com.</w>": 6964,
    "user46@example.com</w>": 6965,
    "user47@example.com.</w>": 6966,
    "user47@example.com</w>": 6967,
    "user48@example.com.</w>": 6968,
    "user48@example.com</w>": 6969,
    "user49@example.com.</w>": 6970,
    "user49@example.com</w>": 6971,
    "user4@example.com.</w>": 6972,
    "user4@example.com</w>": 6973,
    "user5": 6974,
    "user50@example.com.</w>": 6975,
    "user50@example.com</w>": 6976,
    "user51@example.com.</w>": 6977,
    "user51@example.com</w>": 6978,
    "user52@example.com.</w>": 6979,
    "user52@example.com</w>": 6980,
    "user53@example.com.</w>": 6981,
    "user53@example.com</w>": 6982,
    "user54": 6983,
    "user54@example.com.</w>": 6984,
    "user54@example.com</w>": 6985,
    "user55@example.com.</w>": 6986,
    "user55@example.com</w>": 6987,
    "user56": 6988,
    "user56@example.com.</w>": 6989,
    "user56@example.com</w>": 6990,
    "user57@example.com.</w>": 6991,
    "user57@example.com</w>": 6992,
    "user58@example.com.</w>": 6993,
    "user58@example.com</w>": 6994,
    "user59@example.com.</w>": 6995,
    "user59@example.com</w>": 6996,
    "user5@example.com.</w>": 6997,
    "user5@example.com</w>": 6998,
    "user6": 6999,
    "user60": 7000,
    "user60@example.com.</w>": 7001,
    "user60@example.com</w>": 7002,
    "user61@example.com.</w>": 7003,
    "user61@example.com</w>": 7004,
    "user62@example.com.</w>": 7005,
    "user62@example.com</w>": 7006,
    "user63@example.com.</w>": 7007,
    "user63@example.com</w>": 7008,
    "user64@example.com.</w>": 7009,
    "user64@example.com</w>": 7010,
    "user65@example.com.</w>": 7011,
    "user65@example.com</w>": 7012,
    "user66@example.com.</w>": 7013,
    "user66@example.com</w>": 7014,
    "user67@example.com.</w>": 7015,
    "user67@example.com</w>": 7016,
    "user68@example.com.</w>": 7017,
    "user68@example.com</w>": 7018,
    "user69@example.com.</w>": 7019,
    "user69@example.com</w>": 7020,
    "user6@example.com.</w>": 7021,
    "user6@example.com</w>": 7022,
    "user7": 7023,
    "user70@example.com.</w>": 7024,
    "user70@example.com</w>": 7025,
    "user71@example.com.</w>": 7026,
    "user71@example.com</w>": 7027,
    "user72@example.com.</w>": 7028,
    "user72@example.com</w>": 7029,
    "user73@example.com.</w>": 7030,
    "user73@example.com</w>": 7031,
    "user74@example.com.</w>": 7032,
    "user74@example.com</w>": 7033,
    "user75@example.com.</w>": 7034,
    "user75@example.com</w>": 7035,
    "user76": 7036,
    "user76@example.com.</w>": 7037,
    "user76@example.com</w>": 7038,
    "user77@example.com.</w>": 7039,
    "user77@example.com</w>": 7040,
    "user78@example.com.</w>": 7041,
    "user78@example.com</w>": 7042,
    "user79@example.com.</w>": 7043,
    "user79@example.com</w>": 7044,
    "user7@example.com.</w>": 7045,
    "user7@example.com</w>": 7046,
    "user8": 7047,
    "user80@example.com.</w>": 7048,
    "user80@example.com</w>": 7049,
    "user81@example.com.</w>": 7050,
    "user81@example.com</w>": 7051,
    "user82@example.com.</w>": 7052,
    "user82@example.com</w>": 7053,
    "user83@example.com.</w>": 7054,
    "user83@example.com</w>": 7055,
    "user84@example.com.</w>": 7056,
    "user84@example.com</w>": 7057,
    "user85@example.com.</w>": 7058,
    "user85@example.com</w>": 7059,
    "user86@example.com.</w>": 7060,
    "user86@example.com</w>": 7061,
    "user87@example.com.</w>": 7062,
    "user87@example.com</w>": 7063,
    "user88@example.com.</w>": 7064,
    "user88@example.com</w>": 7065,
    "user89": 7066,
    "user89@example.com.</w>": 7067,
    "user89@example.com</w>": 7068,
    "user8@example.com.</w>": 7069,
    "user8@example.com</w>": 7070,
    "user9": 7071,
    "user90@example.com.</w>": 7072,
    "user90@example.com</w>": 7073,
    "user91@example.com.</w>": 7074,
    "user91@example.com</w>": 7075,
    "user92": 7076,
    "user92@example.com.</w>": 7077,
    "user92@example.com</w>": 7078,
    "user93": 7079,
    "user93@example.com.</w>": 7080,
    "user93@example.com</w>": 7081,
    "user94": 7082,
    "user94@example.com.</w>": 7083,
    "user94@example.com</w>": 7084,
    "user95": 7085,
    "user95@example.com.</w>": 7086,
    "user95@example.com</w>": 7087,
    "user96": 7088,
    "user96@example.com.</w>": 7089,
    "user96@example.com</w>": 7090,
    "user97": 7091,
    "user97@example.com.</w>": 7092,
    "user97@example.com</w>": 7093,
    "user98": 7094,
    "user98@example.com.</w>": 7095,
    "user98@example.com</w>": 7096,
    "user99": 7097,
    "user99@example.com.</w>": 7098,
    "user99@example.com</w>": 7099,
    "user9@example.com.</w>": 7100,
    "user9@example.com</w>": 7101,
    "user_": 7102,
    "user_st": 7103,
    "user_str</w>": 7104,
    "users</w>": 7105,
    "uses</w>": 7106,
    "using</w>": 7107,
    "ust": 7108,
    "ustom": 7109,
    "ut": 7110,
    "uto": 7111,
    "utoes": 7112,
    "utoescap": 7113,
    "utoescape</w>": 7114,
    "v": 7115,
    "ve</w>": 7116,
    "ve?</w>": 7117,
    "ved</w>": 7118,
    "vehic": 7119,
    "vehicle</w>": 7120,
    "ven": 7121,
    "ver": 7122,
    "ver</w>": 7123,
    "verage</w>": 7124,
    "version": 7125,
    "version_info</w>": 7126,
    "very</w>": 7127,
    "vi": 7128,
    "vi</w>": 7129,
    "via</w>": 7130,
    "vic": 7131,
    "vid": 7132,
    "vide": 7133,
    "viden": 7134,
    "video</w>": 7135,
    "view": 7136,
    "view</w>": 7137,
    "vik": 7138,
    "vikra": 7139,
    "vikram": 7140,
    "vikram's</w>": 7141,
    "vikram</w>": 7142,
    "vikram?</w>": 7143,
    "ving</w>": 7144,
    "vision": 7145,
    "vision.</w>": 7146,
    "vision</w>": 7147,
    "vision_": 7148,
    "vision_par": 7149,
    "vision_parser": 7150,
    "vision_parser.py</w>": 7151,
    "vo": 7152,
    "voic": 7153,
    "voice</w>": 7154,
    "vt</w>": 7155,
    "v|": 7156,
    "v|str": 7157,
    "v|string": 7158,
    "v|stringform": 7159,
    "v|stringformat": 7160,
    "v|stringformat:\"r": 7161,
    "v|stringformat:\"r\"</w>": 7162,
    "w": 7163,
    "was</w>": 7164,
    "we</w>": 7165,
    "wei": 7166,
    "weigh": 7167,
    "weight": 7168,
    "weights)</w>": 7169,
    "were</w>": 7170,
    "wes": 7171,
    "wesom": 7172,
    "wh": 7173,
    "what</w>": 7174,
    "whe": 7175,
    "wheel": 7176,
    "wheel.</w>": 7177,
    "when</w>": 7178,
    "whic": 7179,
    "which</w>": 7180,
    "while</w>": 7181,
    "who": 7182,
    "whom</w>": 7183,
    "wi": 7184,
    "will</w>": 7185,
    "wit": 7186,
    "with</w>": 7187,
    "without</w>": 7188,
    "wor": 7189,
    "work": 7190,
    "work</w>": 7191,
    "wr": 7192,
    "wra": 7193,
    "wrap": 7194,
    "wrapper</w>": 7195,
    "writ": 7196,
    "written": 7197,
    "written?</w>": 7198,
    "wro": 7199,
    "wrot": 7200,
    "wrote:</w>": 7201,
    "x": 7202,
    "xl": 7203,
    "xlr": 7204,
    "xlrd": 7205,
    "xlrd>=2.0</w>": 7206,
    "y": 7207,
    "y,</w>": 7208,
    "y.</w>": 7209,
    "y:</w>": 7210,
    "yea": 7211,
    "year": 7212,
    "year.": 7213,
    "year.;</w>": 7214,
    "year.</w>": 7215,
    "year</w>": 7216,
    "years</w>": 7217,
    "yet": 7218,
    "yet.</w>": 7219,
    "yo": 7220,
    "you</w>": 7221,
    "your</w>": 7222,
    "yp": 7223,
    "yrigh": 7224,
    "yright</w>": 7225,
    "z": 7226,
    "ze</w>": 7227,
    "{": 7228,
    "{%</w>": 7229,
    "{{": 7230,
    "{{</w>": 7231,
    "{{ser": 7232,
    "{{server": 7233,
    "{{server_": 7234,
    "{{server_ti": 7235,
    "{{server_time": 7236,
    "{{server_time|d": 7237,
    "{{server_time|date": 7238,
    "{{server_time|date:\"r": 7239,
    "{{server_time|date:\"r\"": 7240,
    "{{server_time|date:\"r\"}}</w>": 7241,
    "|": 7242,
    "|d": 7243,
    "|p": 7244,
    "|ppr": 7245,
    "|pprint</w>": 7246,
    "}": 7247,
    "}}": 7248,
    "}}\"": 7249,
    "}}\"{%</w>": 7250,
    "}}),</w>": 7251,
    "}})</w>": 7252,
    "}}**.</w>": 7253,
    "}},</w>": 7254,
    "}}.</w>": 7255,
    "}}:</w>": 7256,
    "}}</w>": 7257,
    "}}{%</w>": 7258,
    "×": 7259,
    "–": 7260,
    "—": 7261,
    "’": 7262,
    "•": 7263,
    "₹": 7264,
    "₹1": 7265,
    "₹1,": 7266,
    "₹1,00": 7267,
    "₹1,00,000</w>": 7268,
    "₹1,500/hr)</w>": 7269,
    "₹1,60": 7270,
    "₹1,60,000": 7271,
    "₹1,60,000.</w>": 7272,
    "₹1,60,000</w>": 7273,
    "₹1,8": 7274,
    "₹1,88,800</w>": 7275,
    "₹15": 7276,
    "₹15,000</w>": 7277,
    "₹1</w>": 7278,
    "₹2": 7279,
    "₹2,": 7280,
    "₹2,000": 7281,
    "₹2,000/hr)</w>": 7282,
    "₹2,500/hr)</w>": 7283,
    "₹28,8": 7284,
    "₹28,800": 7285,
    "₹28,800:</w>": 7286,
    "₹28,800</w>": 7287,
    "₹30": 7288,
    "₹30,000</w>": 7289,
    "≤": 7290,
    "≥": 7291,
    "─": 7292,
    "──": 7293,
    "──</w>": 7294,
    "────": 7295,
    "────────": 7296,
    "────────────────": 7297,
    "────────────────────────────────": 7298,
    "────────────────────────────────────────────────": 7299,
    "────────────────────────────────────────────────────────": 7300,
    "─────────────────────────────────────────────────────────": 7301,
    "─────────────────────────────────────────────────────────**.</w>": 7302,
    "─────────────────────────────────────────────────────────.</w>": 7303,
    "─────────────────────────────────────────────────────────</w>": 7304,
    "★": 7305,
    "★★": 7306,
    "★☆☆": 7307,
    "☆": 7308,
    "☆].</w>": 7309,
    "☆]</w>": 7310,
    "☆☆": 7311
  },
  "merges": [
    [
      "e",
      "n"
    ],
    [
      "t",
      "h"
    ],
    [
      "i",
      "n"
    ],
    [
      "a",
      "t"
    ],
    [
      "e",
      "r"
    ],
    [
      "m",
      "en"
    ],
    [
      "o",
      "n"
    ],
    [
      "i",
      "s</w>"
    ],
    [
      "/",
      "2"
    ],
    [
      "th",
      "e</w>"
    ],
    [
      "r",
      "e"
    ],
    [
      "q",
      "u"
    ],
    [
      "E",
      "N"
    ],
    [
      "a",
      "n"
    ],
    [
      "a",
      "r"
    ],
    [
      "f",
      "o"
    ],
    [
      "o",
      "n</w>"
    ],
    [
      "EN",
      "Q"
    ],
    [
      "qu",
      "i"
    ],
    [
      "0",
      "2"
    ],
    [
      "s",
      "t"
    ],
    [
      "p",
      "o"
    ],
    [
      "e",
      "d"
    ],
    [
      "h",
      "a"
    ],
    [
      "ENQ",
      "0"
    ],
    [
      "fo",
      "r</w>"
    ],
    [
      "qui",
      "r"
    ],
    [
      "/2",
      "02"
    ],
    [
      "t",
      "i"
    ],
    [
      "quir",
      "y</w>"
    ],
    [
      "in",
      "t"
    ],
    [
      "men",
      "t"
    ],
    [
      "men",
      "t</w>"
    ],
    [
      "e",
      "d</w>"
    ],
    [
      "o",
      "m"
    ],
    [
      "─",
      "─"
    ],
    [
      "po",
      "int"
    ],
    [
      "'",
      "s</w>"
    ],
    [
      "i",
      "c"
    ],
    [
      "a",
      "c"
    ],
    [
      "p",
      "point"
    ],
    [
      "ha",
      "t</w>"
    ],
    [
      "at",
      "u"
    ],
    [
      "e",
      ":</w>"
    ],
    [
      "e",
      "s"
    ],
    [
      "ment",
      ":</w>"
    ],
    [
      "u",
      "r"
    ],
    [
      "r",
      "o"
    ],
    [
      "/202",
      "6</w>"
    ],
    [
      "i",
      "t"
    ],
    [
      "in",
      "g</w>"
    ],
    [
      "a",
      "ppoint"
    ],
    [
      "en",
      "quiry</w>"
    ],
    [
      "e",
      "l"
    ],
    [
      "W",
      "hat</w>"
    ],
    [
      "e",
      "x"
    ],
    [
      "d",
      "i"
    ],
    [
      "a",
      "l"
    ],
    [
      "v",
      "i"
    ],
    [
      "l",
      "e"
    ],
    [
      "appoint",
      "ment</w>"
    ],
    [
      "at",
      "i"
    ],
    [
      "i",
      "k"
    ],
    [
      "r",
      "a"
    ],
    [
      "{",
      "%</w>"
    ],
    [
      "i",
      "n</w>"
    ],
    [
      "o",
      "u"
    ],
    [
      "n",
      "e"
    ],
    [
      "ar",
      "th"
    ],
    [
      "e",
      "c"
    ],
    [
      "K",
      "arth"
    ],
    [
      "r",
      "i"
    ],
    [
      "s",
      ":</w>"
    ],
    [
      "o",
      "f</w>"
    ],
    [
      "E",
      "n"
    ],
    [
      "o",
      "c"
    ],
    [
      "0",
      "0"
    ],
    [
      "f",
      "i"
    ],
    [
      "st",
      "atu"
    ],
    [
      "u",
      "n"
    ],
    [
      "──",
      "──"
    ],
    [
      "i",
      "v"
    ],
    [
      "i",
      "l"
    ],
    [
      "s",
      "er"
    ],
    [
      "a",
      "s"
    ],
    [
      "a",
      "l</w>"
    ],
    [
      ")",
      ".</w>"
    ],
    [
      "c",
      "h"
    ],
    [
      "4",
      "/"
    ],
    [
      "u",
      "t"
    ],
    [
      "d",
      "e"
    ],
    [
      "o",
      "p"
    ],
    [
      "4",
      "/2"
    ],
    [
      "s",
      "i"
    ],
    [
      "a",
      "b"
    ],
    [
      "a",
      "y"
    ],
    [
      "on",
      "t"
    ],
    [
      "★",
      "★"
    ],
    [
      "statu",
      "s</w>"
    ],
    [
      "an",
      "y"
    ],
    [
      "a",
      "t</w>"
    ],
    [
      "A",
      "n"
    ],
    [
      "An",
      "any"
    ],
    [
      "T",
      "h"
    ],
    [
      "es",
      "t</w>"
    ],
    [
      "v",
      "e</w>"
    ],
    [
      "e",
      "s</w>"
    ],
    [
      "S",
      "t"
    ],
    [
      "oc",
      "u"
    ],
    [
      "o",
      "r"
    ],
    [
      "e",
      "n</w>"
    ],
    [
      "6",
      ".</w>"
    ],
    [
      "En",
      "quiry</w>"
    ],
    [
      "/202",
      "6.</w>"
    ],
    [
      "{",
      "{</w>"
    ],
    [
      "en",
      "t"
    ],
    [
      "ti",
      "on"
    ],
    [
      "a",
      "'s</w>"
    ],
    [
      "t",
      "o</w>"
    ],
    [
      "v",
      "er"
    ],
    [
      "C",
      "om"
    ],
    [
      "a",
      "s</w>"
    ],
    [
      "c",
      "e"
    ],
    [
      "s",
      "u"
    ],
    [
      "St",
      "atu"
    ],
    [
      "b",
      "ac"
    ],
    [
      "e",
      "st"
    ],
    [
      "p",
      "er"
    ],
    [
      "e",
      "r</w>"
    ],
    [
      "an",
      "d</w>"
    ],
    [
      "A",
      "r"
    ],
    [
      "Ar",
      "j"
    ],
    [
      "V",
      "ik"
    ],
    [
      "Vik",
      "ra"
    ],
    [
      "p",
      "le"
    ],
    [
      "c",
      "om"
    ],
    [
      "Statu",
      "s:</w>"
    ],
    [
      "f",
      "t"
    ],
    [
      "r",
      "at"
    ],
    [
      "i",
      "k</w>"
    ],
    [
      "a",
      "il"
    ],
    [
      "M",
      "e"
    ],
    [
      "e",
      "t"
    ],
    [
      "Karth",
      "ik</w>"
    ],
    [
      "R",
      "a"
    ],
    [
      "%",
      "}"
    ],
    [
      "v",
      "ic"
    ],
    [
      "m",
      "e</w>"
    ],
    [
      "C",
      "it"
    ],
    [
      "di",
      "d</w>"
    ],
    [
      "(",
      "enquiry</w>"
    ],
    [
      "ur",
      "r"
    ],
    [
      "P",
      "ay"
    ],
    [
      "%",
      "}</w>"
    ],
    [
      "Me",
      "er"
    ],
    [
      "h",
      "o"
    ],
    [
      "ou",
      "t</w>"
    ],
    [
      "re",
      "d</w>"
    ],
    [
      "ed",
      ".</w>"
    ],
    [
      "D",
      "iv"
    ],
    [
      "Div",
      "y"
    ],
    [
      "y",
      "p"
    ],
    [
      "i",
      "s"
    ],
    [
      "S",
      "ne"
    ],
    [
      "ti",
      "on</w>"
    ],
    [
      "d",
      "a"
    ],
    [
      "T",
      "A"
    ],
    [
      "H",
      "y"
    ],
    [
      "e",
      "ed"
    ],
    [
      "eed",
      "bac"
    ],
    [
      "en",
      "t</w>"
    ],
    [
      "vi",
      "a</w>"
    ],
    [
      "Com",
      "ment:</w>"
    ],
    [
      "Karth",
      "ik"
    ],
    [
      "C",
      "ont"
    ],
    [
      "w",
      "i"
    ],
    [
      "g",
      "h"
    ],
    [
      "e",
      ",</w>"
    ],
    [
      "S",
      "o"
    ],
    [
      "qui",
      "red</w>"
    ],
    [
      "u",
      "l"
    ],
    [
      "────",
      "────"
    ],
    [
      "at",
      "a</w>"
    ],
    [
      "on",
      "d"
    ],
    [
      "H",
      "ond"
    ],
    [
      "Hond",
      "a</w>"
    ],
    [
      "*",
      "*"
    ],
    [
      "I",
      "N"
    ],
    [
      "m",
      "ar"
    ],
    [
      "l",
      "o"
    ],
    [
      "ser",
      "vic"
    ],
    [
      "un",
      "da"
    ],
    [
      "f",
      "eedbac"
    ],
    [
      "(",
      "ENQ0"
    ],
    [
      "Pay",
      "ment:</w>"
    ],
    [
      "a",
      "g"
    ],
    [
      "c",
      "o"
    ],
    [
      "}",
      "}</w>"
    ],
    [
      "p",
      "ro"
    ],
    [
      "s",
      "ati"
    ],
    [
      "sati",
      "s"
    ],
    [
      "satis",
      "fi"
    ],
    [
      "m",
      "e"
    ],
    [
      "/",
      "5</w>"
    ],
    [
      "at",
      "e</w>"
    ],
    [
      "☆",
      "☆"
    ],
    [
      "on",
      ":</w>"
    ],
    [
      "W",
      "h"
    ],
    [
      "T",
      "est</w>"
    ],
    [
      "Hy",
      "unda"
    ],
    [
      "Hyunda",
      "i</w>"
    ],
    [
      "i",
      "2"
    ],
    [
      "ar",
      "e</w>"
    ],
    [
      "ati",
      "on</w>"
    ],
    [
      "w",
      "as</w>"
    ],
    [
      "f",
      "ro"
    ],
    [
      "fro",
      "m</w>"
    ],
    [
      "i",
      "m"
    ],
    [
      "T",
      "ata</w>"
    ],
    [
      "N",
      "ex"
    ],
    [
      "y",
      ".</w>"
    ],
    [
      "ft",
      "w"
    ],
    [
      "Anany",
      "a</w>"
    ],
    [
      "e",
      "w</w>"
    ],
    [
      "ab",
      "out</w>"
    ],
    [
      "4/",
      "1"
    ],
    [
      "ch",
      "ed"
    ],
    [
      "feedbac",
      "k</w>"
    ],
    [
      "A",
      "ppoint"
    ],
    [
      "T",
      "yp"
    ],
    [
      "Typ",
      "e:</w>"
    ],
    [
      "u",
      "m"
    ],
    [
      "an",
      "c"
    ],
    [
      "p",
      "l"
    ],
    [
      "t",
      "o"
    ],
    [
      "D",
      "ocu"
    ],
    [
      "satisfi",
      "ed"
    ],
    [
      "d",
      "ocu"
    ],
    [
      "c",
      "urr"
    ],
    [
      "u",
      "st"
    ],
    [
      "ust",
      "om"
    ],
    [
      "fo",
      "r"
    ],
    [
      "p",
      "re"
    ],
    [
      "an",
      "g"
    ],
    [
      "en",
      "s"
    ],
    [
      "t",
      "ed</w>"
    ],
    [
      "el",
      "l"
    ],
    [
      "ic",
      "ens"
    ],
    [
      "Karthik",
      "'s</w>"
    ],
    [
      "2",
      "02"
    ],
    [
      "Th",
      "e</w>"
    ],
    [
      "er",
      "ro"
    ],
    [
      "M",
      "ar"
    ],
    [
      "Mar",
      "ut"
    ],
    [
      "Marut",
      "i</w>"
    ],
    [
      "S",
      "wi"
    ],
    [
      "e",
      "m"
    ],
    [
      "Arj",
      "un"
    ],
    [
      "S",
      "ho"
    ],
    [
      "u",
      "s"
    ],
    [
      "<",
      "TA"
    ],
    [
      "<TA",
      "S"
    ],
    [
      "<TAS",
      "K"
    ],
    [
      "<TASK",
      "="
    ],
    [
      "Docu",
      "ment:</w>"
    ],
    [
      "Q",
      "u"
    ],
    [
      "Qu",
      "est"
    ],
    [
      "Quest",
      "i"
    ],
    [
      "Questi",
      "on:</w>"
    ],
    [
      "c",
      "l"
    ],
    [
      "e",
      "?</w>"
    ],
    [
      "D",
      "at"
    ],
    [
      "u",
      "ser"
    ],
    [
      "ent",
      ":</w>"
    ],
    [
      "ched",
      "ul"
    ],
    [
      "er",
      ":</w>"
    ],
    [
      "K",
      "i"
    ],
    [
      "Ki",
      "a</w>"
    ],
    [
      "S",
      "el"
    ],
    [
      "Sel",
      "to"
    ],
    [
      "So",
      "ftw"
    ],
    [
      "3",
      "0"
    ],
    [
      "rat",
      "ing</w>"
    ],
    [
      "S",
      "chedul"
    ],
    [
      "h",
      "on"
    ],
    [
      "1",
      "5"
    ],
    [
      "[",
      "★★"
    ],
    [
      "Vikra",
      "m</w>"
    ],
    [
      "th",
      "is</w>"
    ],
    [
      "0",
      "0</w>"
    ],
    [
      "a",
      "m"
    ],
    [
      "su",
      "b"
    ],
    [
      "N",
      "o</w>"
    ],
    [
      "1",
      "8"
    ],
    [
      "e",
      "y</w>"
    ],
    [
      "c",
      "op"
    ],
    [
      "ha",
      "s</w>"
    ],
    [
      "s",
      "o"
    ],
    [
      "t",
      "a"
    ],
    [
      "o",
      "r</w>"
    ],
    [
      "e",
      "a"
    ],
    [
      "l",
      "e</w>"
    ],
    [
      "en",
      "d"
    ],
    [
      "Dat",
      "e:</w>"
    ],
    [
      "3",
      "/2"
    ],
    [
      "w",
      "hat</w>"
    ],
    [
      "}",
      "}"
    ],
    [
      "Vikra",
      "m"
    ],
    [
      "S",
      "ec"
    ],
    [
      "u",
      "n</w>"
    ],
    [
      "anc",
      "ell"
    ],
    [
      "A",
      "R"
    ],
    [
      "d",
      "e</w>"
    ],
    [
      "Ra",
      "vi"
    ],
    [
      "h",
      "ic"
    ],
    [
      "Arj",
      "un</w>"
    ],
    [
      "v",
      "i</w>"
    ],
    [
      "ri",
      "gh"
    ],
    [
      "n",
      "o"
    ],
    [
      "o",
      "o"
    ],
    [
      "Anany",
      "a's</w>"
    ],
    [
      "en",
      "quired</w>"
    ],
    [
      "ENQ",
      "02"
    ],
    [
      "h",
      "a</w>"
    ],
    [
      "N",
      "o"
    ],
    [
      "as",
      "e</w>"
    ],
    [
      "Ra",
      "vi</w>"
    ],
    [
      ",",
      "00"
    ],
    [
      "e",
      "i"
    ],
    [
      "ment",
      "?</w>"
    ],
    [
      "e",
      "hic"
    ],
    [
      "E",
      "m"
    ],
    [
      "Em",
      "ail"
    ],
    [
      "Email",
      ":</w>"
    ],
    [
      "@",
      "ex"
    ],
    [
      "@ex",
      "am"
    ],
    [
      "@exam",
      "ple"
    ],
    [
      "@example",
      "."
    ],
    [
      "satisfied",
      ").</w>"
    ],
    [
      "Sne",
      "ha</w>"
    ],
    [
      "i",
      "f</w>"
    ],
    [
      "al",
      "l"
    ],
    [
      ".",
      "t"
    ],
    [
      "ag",
      "e</w>"
    ],
    [
      ")",
      ":</w>"
    ],
    [
      "ti",
      "ve</w>"
    ],
    [
      "w",
      "or"
    ],
    [
      "W",
      "al"
    ],
    [
      "Wal",
      "k"
    ],
    [
      "Walk",
      "-"
    ],
    [
      ">",
      "="
    ],
    [
      "Cont",
      "ent:</w>"
    ],
    [
      "e",
      "b"
    ],
    [
      "Arjun",
      "'s</w>"
    ],
    [
      "U",
      "M"
    ],
    [
      "in",
      "g"
    ],
    [
      "Meer",
      "a</w>"
    ],
    [
      "Th",
      "is</w>"
    ],
    [
      "l",
      "icens"
    ],
    [
      "po",
      "r"
    ],
    [
      "p",
      "d"
    ],
    [
      "S",
      "E"
    ],
    [
      "c",
      "ont"
    ],
    [
      "Divy",
      "a</w>"
    ],
    [
      "c",
      "a"
    ],
    [
      "s",
      ".</w>"
    ],
    [
      "%}",
      "{%</w>"
    ],
    [
      "H",
      "o"
    ],
    [
      "co",
      "m</w>"
    ],
    [
      "3",
      "0</w>"
    ],
    [
      ".t",
      "x"
    ],
    [
      "c",
      "e</w>"
    ],
    [
      "R",
      "i"
    ],
    [
      "m",
      "it"
    ],
    [
      "ac",
      "h"
    ],
    [
      "N",
      "ew</w>"
    ],
    [
      "E",
      "M"
    ],
    [
      ":",
      "00</w>"
    ],
    [
      "Sne",
      "ha"
    ],
    [
      "en",
      "di"
    ],
    [
      "j",
      "ang"
    ],
    [
      "I",
      "D"
    ],
    [
      "re",
      ",</w>"
    ],
    [
      "ENQ0",
      "5"
    ],
    [
      "ENQ0",
      "9"
    ],
    [
      "ENQ0",
      "8"
    ],
    [
      "ENQ0",
      "4"
    ],
    [
      "ENQ0",
      "7"
    ],
    [
      "ENQ0",
      "6"
    ],
    [
      "E",
      "x"
    ],
    [
      "re",
      "qu"
    ],
    [
      "C",
      "ustom"
    ],
    [
      "erro",
      "r"
    ],
    [
      "f",
      "ra"
    ],
    [
      "_",
      "in"
    ],
    [
      "po",
      "si"
    ],
    [
      "ur",
      "n"
    ],
    [
      "i",
      "en"
    ],
    [
      "endi",
      "f</w>"
    ],
    [
      "T",
      "_"
    ],
    [
      "s",
      ",</w>"
    ],
    [
      "c",
      "on"
    ],
    [
      "Ho",
      "w</w>"
    ],
    [
      "a",
      "n</w>"
    ],
    [
      "I",
      "n"
    ],
    [
      "p",
      "y"
    ],
    [
      "en",
      "quir"
    ],
    [
      "appoint",
      "ment?</w>"
    ],
    [
      "ta",
      "k"
    ],
    [
      "p",
      "ay"
    ],
    [
      "ce",
      "p"
    ],
    [
      "m",
      "o"
    ],
    [
      "s",
      "c"
    ],
    [
      "ac",
      "t</w>"
    ],
    [
      "'",
      ".</w>"
    ],
    [
      "I",
      "s</w>"
    ],
    [
      "Sec",
      "tion</w>"
    ],
    [
      "}}",
      "{%</w>"
    ],
    [
      "th",
      "ei"
    ],
    [
      "thei",
      "r</w>"
    ],
    [
      "Appoint",
      "ment</w>"
    ],
    [
      "P",
      "hon"
    ],
    [
      "Phon",
      "e:</w>"
    ],
    [
      "@example.",
      "com</w>"
    ],
    [
      "Wh",
      "en</w>"
    ],
    [
      "ri",
      "de</w>"
    ],
    [
      "error",
      "s</w>"
    ],
    [
      "e",
      "v"
    ],
    [
      "*",
      "*</w>"
    ],
    [
      "on",
      ".</w>"
    ],
    [
      "tak",
      "en</w>"
    ],
    [
      "C",
      "as"
    ],
    [
      "1",
      "2"
    ],
    [
      "1",
      "0</w>"
    ],
    [
      "Cit",
      "y</w>"
    ],
    [
      "docu",
      "ment</w>"
    ],
    [
      "Softw",
      "are</w>"
    ],
    [
      "────────",
      "────────"
    ],
    [
      "Vikram",
      "'s</w>"
    ],
    [
      "i2",
      "0"
    ],
    [
      "Cit",
      "y"
    ],
    [
      ".tx",
      "t</w>"
    ],
    [
      "ENQ0",
      "3"
    ],
    [
      "P",
      "y"
    ],
    [
      "ri",
      "b"
    ],
    [
      "curr",
      "ent</w>"
    ],
    [
      "ver",
      "y</w>"
    ],
    [
      "ex",
      "cep"
    ],
    [
      "in",
      ".</w>"
    ],
    [
      "S",
      "en"
    ],
    [
      "t",
      "r"
    ],
    [
      "Ravi",
      "'s</w>"
    ],
    [
      "y",
      "righ"
    ],
    [
      "yrigh",
      "t</w>"
    ],
    [
      "ac",
      "h</w>"
    ],
    [
      "i2",
      "0</w>"
    ],
    [
      "t",
      "s</w>"
    ],
    [
      "per",
      "ien"
    ],
    [
      ":",
      "30</w>"
    ],
    [
      "Divy",
      "a's</w>"
    ],
    [
      "Sho",
      "w</w>"
    ],
    [
      "et",
      "t"
    ],
    [
      "fra",
      "me"
    ],
    [
      "b",
      "y</w>"
    ],
    [
      "jang",
      "o"
    ],
    [
      "Nex",
      "on</w>"
    ],
    [
      "L",
      "o"
    ],
    [
      "u",
      "c"
    ],
    [
      "ENQ0",
      "0"
    ],
    [
      "Walk-",
      "in.</w>"
    ],
    [
      "an",
      "d"
    ],
    [
      "for",
      "m"
    ],
    [
      "Meer",
      "a's</w>"
    ],
    [
      "Schedul",
      "ed"
    ],
    [
      "mar",
      "y</w>"
    ],
    [
      "on",
      "g"
    ],
    [
      "s",
      "it"
    ],
    [
      "st",
      "r"
    ],
    [
      "ou",
      "t"
    ],
    [
      ",00",
      "0</w>"
    ],
    [
      "mit",
      "ted</w>"
    ],
    [
      "um",
      "b"
    ],
    [
      "l",
      "y</w>"
    ],
    [
      "c",
      "e:</w>"
    ],
    [
      "servic",
      "e"
    ],
    [
      "s",
      "ec"
    ],
    [
      "l",
      "in"
    ],
    [
      "h",
      "n"
    ],
    [
      "ENQ0",
      "1"
    ],
    [
      "e",
      "m</w>"
    ],
    [
      "di",
      "s"
    ],
    [
      "Swi",
      "ft"
    ],
    [
      "8",
      "/2026</w>"
    ],
    [
      "C",
      "urr"
    ],
    [
      "re",
      "s"
    ],
    [
      "de",
      "t"
    ],
    [
      "det",
      "ail"
    ],
    [
      "3",
      "/"
    ],
    [
      "posi",
      "tive</w>"
    ],
    [
      "[★★",
      "★★"
    ],
    [
      "lo",
      "s"
    ],
    [
      "Sneha",
      "'s</w>"
    ],
    [
      "com",
      "p"
    ],
    [
      "d",
      ",</w>"
    ],
    [
      "e",
      "ar"
    ],
    [
      "C",
      "ancell"
    ],
    [
      "O",
      "N"
    ],
    [
      "4",
      "5"
    ],
    [
      "I",
      "C"
    ],
    [
      "d",
      "ing</w>"
    ],
    [
      "5",
      "/"
    ],
    [
      "t",
      "ed.</w>"
    ],
    [
      "cl",
      "u"
    ],
    [
      "S",
      "um"
    ],
    [
      "No",
      "t</w>"
    ],
    [
      "fi",
      "el"
    ],
    [
      "ent",
      "ly</w>"
    ],
    [
      "C",
      "T"
    ],
    [
      "b",
      "e</w>"
    ],
    [
      ".",
      "1"
    ],
    [
      "t",
      "est</w>"
    ],
    [
      "L",
      "ea"
    ],
    [
      "d",
      "e:</w>"
    ],
    [
      "a",
      "p"
    ],
    [
      "V",
      "er"
    ],
    [
      "Scheduled",
      ":</w>"
    ],
    [
      "curr",
      "ently</w>"
    ],
    [
      "Th",
      "ey</w>"
    ],
    [
      "b",
      "el"
    ],
    [
      "bel",
      "ong"
    ],
    [
      "belong",
      "s</w>"
    ],
    [
      "Curr",
      "ent</w>"
    ],
    [
      "statu",
      "s:</w>"
    ],
    [
      "En",
      "quired</w>"
    ],
    [
      "Appoint",
      "ment:</w>"
    ],
    [
      "pay",
      "ment</w>"
    ],
    [
      "ID",
      ":</w>"
    ],
    [
      "Custom",
      "er:</w>"
    ],
    [
      "g",
      "iv"
    ],
    [
      "rat",
      "ed</w>"
    ],
    [
      "servic",
      "e</w>"
    ],
    [
      "\"",
      ".</w>"
    ],
    [
      "Sen",
      "ti"
    ],
    [
      "Senti",
      "ment:</w>"
    ],
    [
      "re",
      "ce"
    ],
    [
      "rece",
      "iv"
    ],
    [
      "receiv",
      "ed</w>"
    ],
    [
      "]",
      ".</w>"
    ],
    [
      "v",
      "ehic"
    ],
    [
      "vehic",
      "le</w>"
    ],
    [
      "en",
      "q"
    ],
    [
      "sub",
      "mitted</w>"
    ],
    [
      "pre",
      "f"
    ],
    [
      "pref",
      "er"
    ],
    [
      "Swi",
      "f"
    ],
    [
      "Swif",
      "t</w>"
    ],
    [
      "f",
      "ic"
    ],
    [
      "Selto",
      "s</w>"
    ],
    [
      "g",
      "in"
    ],
    [
      "W",
      "eb"
    ],
    [
      "Web",
      "sit"
    ],
    [
      "h",
      "t"
    ],
    [
      "ht",
      "t"
    ],
    [
      "htt",
      "p"
    ],
    [
      ":",
      "/"
    ],
    [
      ":/",
      "/"
    ],
    [
      "el",
      "op"
    ],
    [
      "B",
      "oo"
    ],
    [
      "6",
      "/2026</w>"
    ],
    [
      "d",
      "er"
    ],
    [
      "e",
      ".</w>"
    ],
    [
      "7",
      "/2026</w>"
    ],
    [
      "1",
      "0"
    ],
    [
      "u",
      "e</w>"
    ],
    [
      "3",
      "/2026</w>"
    ],
    [
      "th",
      "o"
    ],
    [
      "O",
      "C"
    ],
    [
      "is",
      "h"
    ],
    [
      "ex",
      "perien"
    ],
    [
      "l",
      "d</w>"
    ],
    [
      "d",
      "jango"
    ],
    [
      "w",
      "es"
    ],
    [
      "wes",
      "om"
    ],
    [
      "R",
      "e"
    ],
    [
      "t",
      "em</w>"
    ],
    [
      "m",
      "i"
    ],
    [
      "j",
      "ec"
    ],
    [
      ":",
      "**</w>"
    ],
    [
      "v",
      "o"
    ],
    [
      "e",
      "t</w>"
    ],
    [
      ":",
      "00"
    ],
    [
      "Boo",
      "k"
    ],
    [
      "S",
      "er"
    ],
    [
      "tion",
      "s</w>"
    ],
    [
      "C",
      "los"
    ],
    [
      "si",
      "on</w>"
    ],
    [
      "s",
      "y"
    ],
    [
      "1",
      "3"
    ],
    [
      "u",
      "b"
    ],
    [
      "r",
      "om"
    ],
    [
      "(",
      "satisfied).</w>"
    ],
    [
      "R",
      "et"
    ],
    [
      "U",
      "I"
    ],
    [
      "AR",
      "Y"
    ],
    [
      "I",
      "tem</w>"
    ],
    [
      "l",
      "oc"
    ],
    [
      ".",
      "pd"
    ],
    [
      "at",
      "e"
    ],
    [
      "ne",
      "g"
    ],
    [
      "neg",
      "ati"
    ],
    [
      "negati",
      "ve</w>"
    ],
    [
      "i",
      "gh"
    ],
    [
      "so",
      "ur"
    ],
    [
      "op",
      "en"
    ],
    [
      "urn",
      "ing</w>"
    ],
    [
      "end",
      "for</w>"
    ],
    [
      "l",
      "e:</w>"
    ],
    [
      "Sho",
      "w"
    ],
    [
      "si",
      "on"
    ],
    [
      "th",
      "out</w>"
    ],
    [
      "m",
      "is"
    ],
    [
      "requ",
      "est"
    ],
    [
      "wi",
      "thout</w>"
    ],
    [
      "in",
      "clu"
    ],
    [
      "d",
      "o"
    ],
    [
      "ne",
      "t"
    ],
    [
      "Cit",
      "y.</w>"
    ],
    [
      "Com",
      "ple"
    ],
    [
      "pre",
      "s"
    ],
    [
      "<TASK=",
      "D"
    ],
    [
      "al",
      "l</w>"
    ],
    [
      "\"",
      "Not</w>"
    ],
    [
      "ha",
      "p"
    ],
    [
      "hap",
      "py"
    ],
    [
      "service",
      "\"</w>"
    ],
    [
      "p",
      "at"
    ],
    [
      "bac",
      "k"
    ],
    [
      "e",
      "w"
    ],
    [
      "b",
      "e"
    ],
    [
      "c",
      "ustom"
    ],
    [
      "excep",
      "tion"
    ],
    [
      "En",
      "gin"
    ],
    [
      "1",
      "4"
    ],
    [
      "₹",
      "1"
    ],
    [
      "y",
      ",</w>"
    ],
    [
      ".",
      "3"
    ],
    [
      "all",
      ".</w>"
    ],
    [
      "T",
      "ec"
    ],
    [
      "fi",
      "r"
    ],
    [
      "wor",
      "k</w>"
    ],
    [
      "fo",
      "l"
    ],
    [
      "A",
      "wesom"
    ],
    [
      "9",
      "/2026</w>"
    ],
    [
      "rib",
      "ut"
    ],
    [
      "enq",
      "0"
    ],
    [
      "S",
      "UM"
    ],
    [
      "SUM",
      "M"
    ],
    [
      "SUMM",
      "ARY"
    ],
    [
      "SUMMARY",
      "></w>"
    ],
    [
      "IN",
      "V"
    ],
    [
      "er",
      "e</w>"
    ],
    [
      "4/",
      "5</w>"
    ],
    [
      "<TASK=D",
      "OC"
    ],
    [
      "<TASK=DOC",
      "UM"
    ],
    [
      "<TASK=DOCUM",
      "EN"
    ],
    [
      "<TASK=DOCUMEN",
      "T_"
    ],
    [
      "w",
      "it"
    ],
    [
      "wit",
      "h</w>"
    ],
    [
      "o",
      "re,</w>"
    ],
    [
      "t",
      "ed"
    ],
    [
      "on",
      "t</w>"
    ],
    [
      "at",
      "ed</w>"
    ],
    [
      "em",
      "pl"
    ],
    [
      "ne",
      "ur"
    ],
    [
      ".pd",
      "f</w>"
    ],
    [
      "5",
      ".</w>"
    ],
    [
      "po",
      "s"
    ],
    [
      "be",
      "en</w>"
    ],
    [
      "C",
      "all.</w>"
    ],
    [
      "th",
      "at</w>"
    ],
    [
      "d",
      "uc"
    ],
    [
      "5",
      "00"
    ],
    [
      "5",
      "/2026</w>"
    ],
    [
      "http",
      "s"
    ],
    [
      "https",
      "://"
    ],
    [
      "2",
      "/5</w>"
    ],
    [
      "exception",
      "_"
    ],
    [
      "\"",
      "C"
    ],
    [
      "\"C",
      "ou"
    ],
    [
      "\"Cou",
      "ld</w>"
    ],
    [
      "b",
      "ett"
    ],
    [
      "bett",
      "er"
    ],
    [
      "R",
      "Y</w>"
    ],
    [
      "(",
      "dis"
    ],
    [
      "(dis",
      "satisfied).</w>"
    ],
    [
      "en",
      "er"
    ],
    [
      "9",
      "4"
    ],
    [
      "int",
      "er"
    ],
    [
      "%",
      ".</w>"
    ],
    [
      "de",
      "v"
    ],
    [
      "dev",
      "elop"
    ],
    [
      ":",
      "30"
    ],
    [
      "(",
      "+"
    ],
    [
      "Y",
      "o"
    ],
    [
      "Yo",
      "Y"
    ],
    [
      "YoY",
      ")</w>"
    ],
    [
      "★",
      "☆☆"
    ],
    [
      "t",
      "yp"
    ],
    [
      "no",
      "ti"
    ],
    [
      "n",
      "a"
    ],
    [
      "ar",
      "y</w>"
    ],
    [
      "com",
      "ple"
    ],
    [
      "el",
      "l</w>"
    ],
    [
      "f",
      "o</w>"
    ],
    [
      "1",
      "/2026</w>"
    ],
    [
      "A",
      "P"
    ],
    [
      ":00",
      ".</w>"
    ],
    [
      "vi",
      "ew</w>"
    ],
    [
      "ener",
      "al</w>"
    ],
    [
      "g",
      "e,</w>"
    ],
    [
      "Softw",
      "a"
    ],
    [
      "_in",
      "fo</w>"
    ],
    [
      "O",
      "F"
    ],
    [
      "ver",
      "age</w>"
    ],
    [
      "ati",
      "on"
    ],
    [
      "P",
      "le"
    ],
    [
      "Ple",
      "ase</w>"
    ],
    [
      "su",
      "m"
    ],
    [
      "a",
      "in"
    ],
    [
      "Websit",
      "e.</w>"
    ],
    [
      "D",
      "i"
    ],
    [
      "\"",
      "A"
    ],
    [
      "\"A",
      "verage</w>"
    ],
    [
      "an",
      "s"
    ],
    [
      "G",
      "oo"
    ],
    [
      "t",
      "empl"
    ],
    [
      "Ser",
      "vic"
    ],
    [
      "d",
      "ate</w>"
    ],
    [
      "lo",
      "w"
    ],
    [
      "me",
      "tho"
    ],
    [
      "co",
      "ver"
    ],
    [
      "g",
      "eneral</w>"
    ],
    [
      "erro",
      "r</w>"
    ],
    [
      "v",
      "e?</w>"
    ],
    [
      "T",
      "o"
    ],
    [
      "out",
      "?</w>"
    ],
    [
      "d",
      "o</w>"
    ],
    [
      "a",
      "?</w>"
    ],
    [
      "Cas",
      "h</w>"
    ],
    [
      "per",
      "s"
    ],
    [
      "Cont",
      "ac"
    ],
    [
      "5",
      "/5</w>"
    ],
    [
      "s",
      "."
    ],
    [
      "er",
      "?</w>"
    ],
    [
      "Lea",
      "d"
    ],
    [
      "L",
      "I"
    ],
    [
      "2",
      "00"
    ],
    [
      "Cancell",
      "ed.</w>"
    ],
    [
      "c",
      "ancell"
    ],
    [
      "1",
      "7"
    ],
    [
      "i20",
      ".</w>"
    ],
    [
      "Show",
      ".</w>"
    ],
    [
      "C",
      "op"
    ],
    [
      "Cop",
      "yright</w>"
    ],
    [
      "inter",
      "est"
    ],
    [
      "t",
      "en"
    ],
    [
      "H",
      "O"
    ],
    [
      "O",
      "R</w>"
    ],
    [
      "ho",
      "ur"
    ],
    [
      "hour",
      "s</w>"
    ],
    [
      "/",
      "h"
    ],
    [
      "/h",
      "r"
    ],
    [
      "/hr",
      ")</w>"
    ],
    [
      "le",
      "g"
    ],
    [
      "N",
      "O"
    ],
    [
      "a",
      "ve</w>"
    ],
    [
      "cont",
      "act</w>"
    ],
    [
      "re",
      "su"
    ],
    [
      "vo",
      "ic"
    ],
    [
      "\"",
      "Goo"
    ],
    [
      "\"Goo",
      "d</w>"
    ],
    [
      "experien",
      "ce"
    ],
    [
      "vi",
      "ew"
    ],
    [
      "es",
      "s"
    ],
    [
      "as",
      "s"
    ],
    [
      "do",
      "es</w>"
    ],
    [
      "Sum",
      "mary</w>"
    ],
    [
      "for",
      "?</w>"
    ],
    [
      "f",
      "rom"
    ],
    [
      "frame",
      "."
    ],
    [
      "City",
      ":</w>"
    ],
    [
      "n",
      "umb"
    ],
    [
      "enquir",
      "e</w>"
    ],
    [
      "**",
[...]
